{
  "version": "1.0",
  "truncation": null,
  "padding": null,
  "added_tokens": [
    {
      "id": 0,
      "content": "[PAD]",
      "single_word": false,
      "lstrip": false,
      "rstrip": false,
      "normalized": false,
      "special": true
    },
    {
      "id": 1,
      "content": "[UNK]",
      "single_word": false,
      "lstrip": false,
      "rstrip": false,
      "normalized": false,
      "special": true
    },
    {
      "id": 2,
      "content": "[SESSION]",
      "single_word": false,
      "lstrip": false,
      "rstrip": false,
      "normalized": false,
      "special": true
    },
    {
      "id": 3,
      "content": "[USER]",
      "single_word": false,
      "lstrip": false,
      "rstrip": false,
      "normalized": false,
      "special": true
    },
    {
      "id": 4,
      "content": "[MODEL]",
      "single_word": false,
      "lstrip": false,
      "rstrip": false,
      "normalized": false,
      "special": true
    },
    {
      "id": 5,
      "content": "[LISTEN]",
      "single_word": false,
      "lstrip": false,
      "rstrip": false,
      "normalized": false,
      "special": true
    },
    {
      "id": 6,
      "content": "[USER_END]",
      "single_word": false,
      "lstrip": false,
      "rstrip": false,
      "normalized": false,
      "special": true
    },
    {
      "id": 7,
      "content": "[MODEL_END]",
      "single_word": false,
      "lstrip": false,
      "rstrip": false,
      "normalized": false,
      "special": true
    },
    {
      "id": 8,
      "content": "[SESSION_END]",
      "single_word": false,
      "lstrip": false,
      "rstrip": false,
      "normalized": false,
      "special": true
    },
    {
      "id": 9,
      "content": "[USER_INTERRUPT]",
      "single_word": false,
      "lstrip": false,
      "rstrip": false,
      "normalized": false,
      "special": true
    }
  ],
  "normalizer": null,
  "pre_tokenizer": {
    "type": "ByteLevel",
    "add_prefix_space": false,
    "trim_offsets": true,
    "use_regex": true
  },
  "post_processor": null,
  "decoder": {
    "type": "ByteLevel",
    "add_prefix_space": true,
    "trim_offsets": true,
    "use_regex": true
  },
  "model": {
    "type": "BPE",
    "dropout": null,
    "unk_token": "[UNK]",
    "continuing_subword_prefix": null,
    "end_of_word_suffix": null,
    "fuse_unk": false,
    "byte_fallback": true,
    "ignore_merges": false,
    "vocab": {
      "[PAD]": 0,
      "[UNK]": 1,
      "[SESSION]": 2,
      "[USER]": 3,
      "[MODEL]": 4,
      "[LISTEN]": 5,
      "[USER_END]": 6,
      "[MODEL_END]": 7,
      "[SESSION_END]": 8,
      "[USER_INTERRUPT]": 9,
      "!": 10,
      "\"": 11,
      "#": 12,
      "$": 13,
      "%": 14,
      "&": 15,
      "'": 16,
      "(": 17,
      ")": 18,
      "*": 19,
      "+": 20,
      ",": 21,
      "-": 22,
      ".": 23,
      "/": 24,
      "0": 25,
      "1": 26,
      "2": 27,
      "3": 28,
      "4": 29,
      "5": 30,
      "6": 31,
      "7": 32,
      "8": 33,
      "9": 34,
      ":": 35,
      ";": 36,
      "<": 37,
      "=": 38,
      ">": 39,
      "?": 40,
      "@": 41,
      "A": 42,
      "B": 43,
      "C": 44,
      "D": 45,
      "E": 46,
      "F": 47,
      "G": 48,
      "H": 49,
      "I": 50,
      "J": 51,
      "K": 52,
      "L": 53,
      "M": 54,
      "N": 55,
      "O": 56,
      "P": 57,
      "Q": 58,
      "R": 59,
      "S": 60,
      "T": 61,
      "U": 62,
      "V": 63,
      "W": 64,
      "X": 65,
      "Y": 66,
      "Z": 67,
      "[": 68,
      "\\": 69,
      "]": 70,
      "^": 71,
      "_": 72,
      "`": 73,
      "a": 74,
      "b": 75,
      "c": 76,
      "d": 77,
      "e": 78,
      "f": 79,
      "g": 80,
      "h": 81,
      "i": 82,
      "j": 83,
      "k": 84,
      "l": 85,
      "m": 86,
      "n": 87,
      "o": 88,
      "p": 89,
      "q": 90,
      "r": 91,
      "s": 92,
      "t": 93,
      "u": 94,
      "v": 95,
      "w": 96,
      "x": 97,
      "y": 98,
      "z": 99,
      "{": 100,
      "|": 101,
      "}": 102,
      "~": 103,
      "¡": 104,
      "¢": 105,
      "£": 106,
      "¤": 107,
      "¥": 108,
      "¦": 109,
      "§": 110,
      "¨": 111,
      "©": 112,
      "ª": 113,
      "«": 114,
      "¬": 115,
      "®": 116,
      "¯": 117,
      "°": 118,
      "±": 119,
      "²": 120,
      "³": 121,
      "´": 122,
      "µ": 123,
      "¶": 124,
      "·": 125,
      "¸": 126,
      "¹": 127,
      "º": 128,
      "»": 129,
      "¼": 130,
      "½": 131,
      "¾": 132,
      "¿": 133,
      "À": 134,
      "Á": 135,
      "Â": 136,
      "Ã": 137,
      "Ä": 138,
      "Å": 139,
      "Æ": 140,
      "Ç": 141,
      "È": 142,
      "É": 143,
      "Ê": 144,
      "Ë": 145,
      "Ì": 146,
      "Í": 147,
      "Î": 148,
      "Ï": 149,
      "Ð": 150,
      "Ñ": 151,
      "Ò": 152,
      "Ó": 153,
      "Ô": 154,
      "Õ": 155,
      "Ö": 156,
      "×": 157,
      "Ø": 158,
      "Ù": 159,
      "Ú": 160,
      "Û": 161,
      "Ü": 162,
      "Ý": 163,
      "Þ": 164,
      "ß": 165,
      "à": 166,
      "á": 167,
      "â": 168,
      "ã": 169,
      "ä": 170,
      "å": 171,
      "æ": 172,
      "ç": 173,
      "è": 174,
      "é": 175,
      "ê": 176,
      "ë": 177,
      "ì": 178,
      "í": 179,
      "î": 180,
      "ï": 181,
      "ð": 182,
      "ñ": 183,
      "ò": 184,
      "ó": 185,
      "ô": 186,
      "õ": 187,
      "ö": 188,
      "÷": 189,
      "ø": 190,
      "ù": 191,
      "ú": 192,
      "û": 193,
      "ü": 194,
      "ý": 195,
      "þ": 196,
      "ÿ": 197,
      "Ā": 198,
      "ā": 199,
      "Ă": 200,
      "ă": 201,
      "Ą": 202,
      "ą": 203,
      "Ć": 204,
      "ć": 205,
      "Ĉ": 206,
      "ĉ": 207,
      "Ċ": 208,
      "ċ": 209,
      "Č": 210,
      "č": 211,
      "Ď": 212,
      "ď": 213,
      "Đ": 214,
      "đ": 215,
      "Ē": 216,
      "ē": 217,
      "Ĕ": 218,
      "ĕ": 219,
      "Ė": 220,
      "ė": 221,
      "Ę": 222,
      "ę": 223,
      "Ě": 224,
      "ě": 225,
      "Ĝ": 226,
      "ĝ": 227,
      "Ğ": 228,
      "ğ": 229,
      "Ġ": 230,
      "ġ": 231,
      "Ģ": 232,
      "ģ": 233,
      "Ĥ": 234,
      "ĥ": 235,
      "Ħ": 236,
      "ħ": 237,
      "Ĩ": 238,
      "ĩ": 239,
      "Ī": 240,
      "ī": 241,
      "Ĭ": 242,
      "ĭ": 243,
      "Į": 244,
      "į": 245,
      "İ": 246,
      "ı": 247,
      "Ĳ": 248,
      "ĳ": 249,
      "Ĵ": 250,
      "ĵ": 251,
      "Ķ": 252,
      "ķ": 253,
      "ĸ": 254,
      "Ĺ": 255,
      "ĺ": 256,
      "Ļ": 257,
      "ļ": 258,
      "Ľ": 259,
      "ľ": 260,
      "Ŀ": 261,
      "ŀ": 262,
      "Ł": 263,
      "ł": 264,
      "Ń": 265,
      "Ġt": 266,
      "in": 267,
      "Ġa": 268,
      "he": 269,
      "re": 270,
      "on": 271,
      "at": 272,
      "er": 273,
      "Ġs": 274,
      "Ġthe": 275,
      "en": 276,
      "Ġc": 277,
      "es": 278,
      "or": 279,
      "ing": 280,
      "it": 281,
      "nd": 282,
      "al": 283,
      "Ġp": 284,
      "ou": 285,
      "an": 286,
      "is": 287,
      "Ġo": 288,
      "Ġf": 289,
      "Ġw": 290,
      "Ġand": 291,
      "ion": 292,
      "Ġin": 293,
      "ic": 294,
      "Ġm": 295,
      "Ġto": 296,
      "Ġb": 297,
      "ed": 298,
      "ar": 299,
      "Ġof": 300,
      "Ġd": 301,
      "ro": 302,
      "le": 303,
      "ent": 304,
      "ct": 305,
      "st": 306,
      "Ġe": 307,
      "Ġre": 308,
      "om": 309,
      "ve": 310,
      "Ġh": 311,
      "il": 312,
      "as": 313,
      "Ġth": 314,
      "ation": 315,
      "et": 316,
      "ly": 317,
      "Ġl": 318,
      "ce": 319,
      "im": 320,
      "id": 321,
      "Ġy": 322,
      "ra": 323,
      "ig": 324,
      "ol": 325,
      "se": 326,
      "ch": 327,
      "Ġn": 328,
      "Ġfor": 329,
      "Ġyou": 330,
      "Ġg": 331,
      "ot": 332,
      "Ġu": 333,
      "Ġpro": 334,
      "ow": 335,
      "Ġis": 336,
      "ĠT": 337,
      "Ġon": 338,
      "ers": 339,
      "Ġst": 340,
      "ur": 341,
      "ir": 342,
      "ith": 343,
      "if": 344,
      "ess": 345,
      "ut": 346,
      "ment": 347,
      "Ġcon": 348,
      "Ġthat": 349,
      "ul": 350,
      "el": 351,
      "Ġwith": 352,
      "Ġbe": 353,
      "Ġor": 354,
      "ver": 355,
      "am": 356,
      "ab": 357,
      "ate": 358,
      "Ġsu": 359,
      "ĠI": 360,
      "ay": 361,
      "Ġhe": 362,
      "ity": 363,
      "ive": 364,
      "ag": 365,
      "Ġex": 366,
      "Ġen": 367,
      "ad": 368,
      "Ġit": 369,
      "iv": 370,
      "ies": 371,
      "ial": 372,
      "Ġcom": 373,
      "Ġcan": 374,
      "ure": 375,
      "Ġas": 376,
      "ĠA": 377,
      "Ġan": 378,
      "ore": 379,
      "Ġare": 380,
      "the": 381,
      "'s": 382,
      "ect": 383,
      "ĠS": 384,
      "pp": 385,
      "us": 386,
      "th": 387,
      "Ġal": 388,
      "Ġv": 389,
      "ĠC": 390,
      "ac": 391,
      "and": 392,
      "oc": 393,
      "Ġde": 394,
      "ke": 395,
      "ort": 396,
      "qu": 397,
      "our": 398,
      "ain": 399,
      "od": 400,
      "out": 401,
      "ter": 402,
      "ant": 403,
      "igh": 404,
      "ere": 405,
      "Ġwh": 406,
      "ist": 407,
      "Ġyour": 408,
      "ĠThe": 409,
      "Ġim": 410,
      "est": 411,
      "em": 412,
      "ud": 413,
      "iz": 414,
      "un": 415,
      "op": 416,
      "ions": 417,
      "res": 418,
      "Ġch": 419,
      "Ġle": 420,
      "pl": 421,
      "for": 422,
      "ec": 423,
      "Ġad": 424,
      "Ġtheir": 425,
      "du": 426,
      "ill": 427,
      "ld": 428,
      "os": 429,
      "rom": 430,
      "ide": 431,
      "ff": 432,
      "ip": 433,
      "ĠM": 434,
      "act": 435,
      "Ġimp": 436,
      "nt": 437,
      "Ġsp": 438,
      "ical": 439,
      "age": 440,
      "um": 441,
      "ew": 442,
      "ĠP": 443,
      "ance": 444,
      "to": 445,
      "ome": 446,
      "ight": 447,
      "per": 448,
      "ĠH": 449,
      "Ġr": 450,
      "ave": 451,
      "ĠB": 452,
      "Ġsh": 453,
      "ign": 454,
      "able": 455,
      "og": 456,
      "ib": 457,
      "Ġby": 458,
      "art": 459,
      "Ġfrom": 460,
      "ust": 461,
      "king": 462,
      "Ġinc": 463,
      "ations": 464,
      "are": 465,
      "Ġcont": 466,
      "all": 467,
      "rou": 468,
      "form": 469,
      "Ġcomp": 470,
      "end": 471,
      "Ġpl": 472,
      "ific": 473,
      "pt": 474,
      "Ġwe": 475,
      "Ġus": 476,
      "ru": 477,
      "Ġmore": 478,
      "Ġat": 479,
      "Ġse": 480,
      "Ġwor": 481,
      "ould": 482,
      "Ġte": 483,
      "âĢ": 484,
      "Ġab": 485,
      "ence": 486,
      "ast": 487,
      "ard": 488,
      "Ġme": 489,
      "Ġnot": 490,
      "cc": 491,
      "ge": 492,
      "Ġhave": 493,
      "ine": 494,
      "Wh": 495,
      "ĠF": 496,
      "ĠTh": 497,
      "ther": 498,
      "gh": 499,
      "Ġdis": 500,
      "ition": 501,
      "ack": 502,
      "Ġprov": 503,
      "Ġres": 504,
      "ous": 505,
      "ĠE": 506,
      "ult": 507,
      "ĠD": 508,
      "ces": 509,
      "so": 510,
      "ĠR": 511,
      "ost": 512,
      "her": 513,
      "ans": 514,
      "reat": 515,
      "Ġapp": 516,
      "What": 517,
      "ell": 518,
      "ĠĠ": 519,
      "Ġem": 520,
      "ail": 521,
      "av": 522,
      "ual": 523,
      "ach": 524,
      "ich": 525,
      "ĠThis": 526,
      "ep": 527,
      "ress": 528,
      "ind": 529,
      "ĠL": 530,
      "ry": 531,
      "**": 532,
      "Ġalso": 533,
      "vel": 534,
      "Ġ\"": 535,
      "oo": 536,
      "ap": 537,
      "ated": 538,
      "ice": 539,
      "Ġj": 540,
      "ĠW": 541,
      "Ġne": 542,
      "ake": 543,
      "Ġsome": 544,
      "Ġeff": 545,
      "Ġcomm": 546,
      "of": 547,
      "Ġwhe": 548,
      "Ġhow": 549,
      "ction": 550,
      "Ġthis": 551,
      "ks": 552,
      "ri": 553,
      "Ġwas": 554,
      "The": 555,
      "ents": 556,
      "ire": 557,
      "ities": 558,
      "Ġoff": 559,
      "ĠG": 560,
      "lud": 561,
      "ite": 562,
      "ary": 563,
      "ike": 564,
      "lp": 565,
      "ase": 566,
      "Ġcl": 567,
      "Ġun": 568,
      "Ġhas": 569,
      "ong": 570,
      "Ġtra": 571,
      "ating": 572,
      "Ġthese": 573,
      "ark": 574,
      "Ġman": 575,
      "ors": 576,
      "ility": 577,
      "ments": 578,
      "ia": 579,
      "Ġint": 580,
      "Ġbut": 581,
      "Ġabout": 582,
      "Ġall": 583,
      "Ġhelp": 584,
      "erv": 585,
      "ood": 586,
      "ue": 587,
      "Ġpre": 588,
      "Ġour": 589,
      "Ġadd": 590,
      "Ġacc": 591,
      "Ġrec": 592,
      "ater": 593,
      "ĠN": 594,
      "Ġwhich": 595,
      "Ġthey": 596,
      "ful": 597,
      "Ġev": 598,
      "alth": 599,
      "Ġinclud": 600,
      "ass": 601,
      "Ġsuch": 602,
      "Ġ1": 603,
      "ef": 604,
      "ace": 605,
      "Ġar": 606,
      "Ġfe": 607,
      "Ġits": 608,
      "Ġother": 609,
      "ile": 610,
      "Ġinto": 611,
      "Ġ(": 612,
      "Ġout": 613,
      "Ġro": 614,
      "ang": 615,
      "ime": 616,
      "ious": 617,
      "ĠO": 618,
      "Ġspec": 619,
      "rough": 620,
      "Ġper": 621,
      "ĠU": 622,
      "pport": 623,
      "âĢĻ": 624,
      "Ġup": 625,
      "Ġcons": 626,
      "Ġprovide": 627,
      "fere": 628,
      "ear": 629,
      "Ġlike": 630,
      "Ġtr": 631,
      "Ġqu": 632,
      "Ġthem": 633,
      "ning": 634,
      "Ġsign": 635,
      "Ġover": 636,
      "Ġund": 637,
      "ices": 638,
      "Ġsc": 639,
      "ential": 640,
      "ally": 641,
      "Ġdo": 642,
      "lic": 643,
      "Ġpart": 644,
      "ĠIn": 645,
      "Ġsoc": 646,
      "ience": 647,
      "olog": 648,
      "formation": 649,
      "Ġk": 650,
      "Ġwill": 651,
      "ĠIt": 652,
      "rit": 653,
      "Ġhealth": 654,
      "one": 655,
      "ory": 656,
      "tain": 657,
      "Ġdes": 658,
      "ures": 659,
      "ative": 660,
      "Ġ2": 661,
      "ting": 662,
      "Ġpers": 663,
      "Ġexper": 664,
      "ract": 665,
      "uring": 666,
      "xt": 667,
      "ens": 668,
      "ak": 669,
      "over": 670,
      "ie": 671,
      "ram": 672,
      "ates": 673,
      "oll": 674,
      "ound": 675,
      "Ġind": 676,
      "ric": 677,
      "Ġprodu": 678,
      "chn": 679,
      "Ġdisc": 680,
      "aking": 681,
      "Ġinv": 682,
      "ount": 683,
      "Ġany": 684,
      "les": 685,
      "ob": 686,
      "oy": 687,
      "Ġsy": 688,
      "Ġdif": 689,
      "Ġinter": 690,
      "Ġstr": 691,
      "anc": 692,
      "Ġcommun": 693,
      "ose": 694,
      "Ġmed": 695,
      "Ġuse": 696,
      "Ġsignific": 697,
      "ub": 698,
      "Ġthrough": 699,
      "ays": 700,
      "Ġwork": 701,
      "Ġrel": 702,
      "Ġher": 703,
      "get": 704,
      "ord": 705,
      "Ġunder": 706,
      "velop": 707,
      "ild": 708,
      "Ġeffect": 709,
      "Ġinformation": 710,
      "we": 711,
      "ove": 712,
      "Ġback": 713,
      "lect": 714,
      "Ġact": 715,
      "its": 716,
      "ĠJ": 717,
      "Can": 718,
      "cess": 719,
      "ons": 720,
      "ph": 721,
      "pect": 722,
      "now": 723,
      "ts": 724,
      "ns": 725,
      "ural": 726,
      "ings": 727,
      "ased": 728,
      "Ġnew": 729,
      "ize": 730,
      "Ġtechn": 731,
      "com": 732,
      "ov": 733,
      "ish": 734,
      "ject": 735,
      "Ġexam": 736,
      "ness": 737,
      "arket": 738,
      "ular": 739,
      "enc": 740,
      "Ġwho": 741,
      "Ġreg": 742,
      "ook": 743,
      "Ġpr": 744,
      "Ġperson": 745,
      "stem": 746,
      "Ġneed": 747,
      "iet": 748,
      "Ġimpact": 749,
      "te": 750,
      "ics": 751,
      "erg": 752,
      "Ġvar": 753,
      "gan": 754,
      "Ġdet": 755,
      "ond": 756,
      "ll": 757,
      "bs": 758,
      "ree": 759,
      "als": 760,
      "row": 761,
      "Ġpe": 762,
      "Ġserv": 763,
      "Ġtime": 764,
      "Ġens": 765,
      "ame": 766,
      "Ġwhere": 767,
      "arch": 768,
      "Ġhis": 769,
      "red": 770,
      "Ġsocial": 771,
      "iron": 772,
      "Ġimport": 773,
      "ne": 774,
      "Ġag": 775,
      "Ġdiffere": 776,
      "Ġthere": 777,
      "rib": 778,
      "Ġdevelop": 779,
      "ber": 780,
      "Ġ**": 781,
      "Ġsignificant": 782,
      "Ġhigh": 783,
      "Ġsupport": 784,
      "Ġsa": 785,
      "Ġcol": 786,
      "Ġam": 787,
      "Ġprocess": 788,
      "Ġac": 789,
      "hip": 790,
      "iqu": 791,
      "oth": 792,
      "Ġpos": 793,
      "Ġess": 794,
      "uc": 795,
      "Ġprog": 796,
      "Ġrep": 797,
      "viron": 798,
      "Ġfl": 799,
      "Ġmay": 800,
      "ivid": 801,
      "Ġbet": 802,
      "Ġmy": 803,
      "ise": 804,
      "Ġspecific": 805,
      "ange": 806,
      "ering": 807,
      "ient": 808,
      "ues": 809,
      "ality": 810,
      "ata": 811,
      "con": 812,
      "Ġstud": 813,
      "ys": 814,
      "uss": 815,
      "Ġke": 816,
      "Ġtrans": 817,
      "Ġinst": 818,
      "ĠSt": 819,
      "ife": 820,
      "Ġprovid": 821,
      "ple": 822,
      "Ġeng": 823,
      "ateg": 824,
      "Ġpot": 825,
      "Ġadv": 826,
      "iness": 827,
      "ĊĊ": 828,
      "Ġlead": 829,
      "dition": 830,
      "In": 831,
      "ms": 832,
      "ustom": 833,
      "Ġmake": 834,
      "Ġone": 835,
      "Ġmarket": 836,
      "ives": 837,
      "Ġcould": 838,
      "Ġph": 839,
      "ough": 840,
      "Ġenviron": 841,
      "eg": 842,
      "Ġinf": 843,
      "ational": 844,
      "round": 845,
      "ples": 846,
      "Ġatt": 847,
      "very": 848,
      "ower": 849,
      "stand": 850,
      "Ġpract": 851,
      "gg": 852,
      "Ġcult": 853,
      "yp": 854,
      "Ġpo": 855,
      "ward": 856,
      "Ġcre": 857,
      "Ġrem": 858,
      "ized": 859,
      "Ġproduct": 860,
      "00": 861,
      "int": 862,
      "ividual": 863,
      "Ġso": 864,
      "old": 865,
      "Ġwell": 866,
      "ten": 867,
      "Ġmod": 868,
      "Ġwere": 869,
      "Ġbl": 870,
      "eng": 871,
      "ener": 872,
      "ional": 873,
      "Ġass": 874,
      "enef": 875,
      "Ġmet": 876,
      "Ġart": 877,
      "ever": 878,
      "Ġment": 879,
      "Ġsystem": 880,
      "ĠY": 881,
      "Ġ-": 882,
      "Ġredu": 883,
      "Ġenvironment": 884,
      "Ġindividual": 885,
      "ĠK": 886,
      "Ġdesign": 887,
      "ick": 888,
      "Ġbeen": 889,
      "ocus": 890,
      "Ġcustom": 891,
      "Ġprom": 892,
      "Ġdiscuss": 893,
      "ible": 894,
      "ability": 895,
      "iew": 896,
      "Ġdata": 897,
      "Ġpersonal": 898,
      "Ġdec": 899,
      "Ġpol": 900,
      "ribut": 901,
      "Ġdifferent": 902,
      "ology": 903,
      "Ġused": 904,
      "Ġloc": 905,
      "ren": 906,
      "ident": 907,
      "usiness": 908,
      "Ġcreat": 909,
      "any": 910,
      "Ġenh": 911,
      "Ġref": 912,
      "Ġsk": 913,
      "Ġstrateg": 914,
      "Ġgo": 915,
      "Ġbenef": 916,
      "Ġonly": 917,
      "ont": 918,
      "Ġopt": 919,
      "Ġpotential": 920,
      "Ġimpro": 921,
      "'t": 922,
      "Ġins": 923,
      "ĠCh": 924,
      "ertain": 925,
      "Ġknow": 926,
      "Ġvis": 927,
      "Ġprogram": 928,
      "Ġwhen": 929,
      "Ġappro": 930,
      "Ġset": 931,
      "Ġed": 932,
      "Ġshould": 933,
      "Ġval": 934,
      "Ġprof": 935,
      "Ġsm": 936,
      "Ġexp": 937,
      "ources": 938,
      "Ġincluding": 939,
      "Th": 940,
      "Ġexpl": 941,
      "hes": 942,
      "ĠV": 943,
      "olv": 944,
      "Ġorgan": 945,
      "be": 946,
      "ruct": 947,
      "Ġra": 948,
      "hed": 949,
      "Ġchall": 950,
      "line": 951,
      "Ġif": 952,
      "ade": 953,
      "ople": 954,
      "ergy": 955,
      "Ġaccess": 956,
      "iss": 957,
      "Ġfocus": 958,
      "arm": 959,
      "ature": 960,
      "agement": 961,
      "Ġwhat": 962,
      "use": 963,
      "ily": 964,
      "cial": 965,
      "Ġpres": 966,
      "ines": 967,
      "ian": 968,
      "Ġmain": 969,
      "omm": 970,
      "ss": 971,
      "Ġav": 972,
      "up": 973,
      "Ġhad": 974,
      "urther": 975,
      "Ġgu": 976,
      "ĠAd": 977,
      "Ġusing": 978,
      "Ġmedia": 979,
      "itive": 980,
      "Ġunderstand": 981,
      "Ġrequ": 982,
      "olut": 983,
      "Ġsec": 984,
      "pro": 985,
      "wor": 986,
      "Ġwould": 987,
      "Ġdel": 988,
      "Ġco": 989,
      "Ġpartic": 990,
      "Ġjust": 991,
      "sel": 992,
      "Ġbusiness": 993,
      "Ġcomple": 994,
      "Ġimportant": 995,
      "aterial": 996,
      "Ġtop": 997,
      "Ġsub": 998,
      "Ġcle": 999,
      "ages": 1000,
      "Ġtyp": 1001,
      "ify": 1002,
      "ization": 1003,
      "Ġconc": 1004,
      "ining": 1005,
      "ween": 1006,
      "Ġlear": 1007,
      "own": 1008,
      "other": 1009,
      "ĠHere": 1010,
      "Ġdef": 1011,
      "ivers": 1012,
      "Ġpat": 1013,
      "Ġwhile": 1014,
      "Ġlet": 1015,
      "ink": 1016,
      "Ġbu": 1017,
      "Ġeffective": 1018,
      "Ġdetail": 1019,
      "Ġfind": 1020,
      "Ġaut": 1021,
      "led": 1022,
      "Ġlife": 1023,
      "iety": 1024,
      "Ġca": 1025,
      "Ġresp": 1026,
      "ically": 1027,
      "Ġplay": 1028,
      "aging": 1029,
      "ital": 1030,
      "ences": 1031,
      "ider": 1032,
      "ights": 1033,
      "Ġincre": 1034,
      "Ġgreat": 1035,
      "ism": 1036,
      "lu": 1037,
      "ploy": 1038,
      "Ġeach": 1039,
      "Ġcontin": 1040,
      "Ġfin": 1041,
      "ck": 1042,
      "Ġpeople": 1043,
      "Ġenergy": 1044,
      "iven": 1045,
      "Ġshe": 1046,
      "mer": 1047,
      "ccess": 1048,
      "Ġgl": 1049,
      "ft": 1050,
      "Ġexperience": 1051,
      "rand": 1052,
      "ĠĠĠĠ": 1053,
      "Ġext": 1054,
      "Ġexamples": 1055,
      "Ġvarious": 1056,
      "ollow": 1057,
      "amp": 1058,
      "Ġmus": 1059,
      "Ġfun": 1060,
      "Ġcru": 1061,
      "Ġrese": 1062,
      "Ġwater": 1063,
      "Ġallow": 1064,
      "**:": 1065,
      "ex": 1066,
      "ique": 1067,
      "ered": 1068,
      "wn": 1069,
      "dust": 1070,
      "Ġbetween": 1071,
      "izing": 1072,
      "erest": 1073,
      "Ġche": 1074,
      "Ġmaterial": 1075,
      "Ġchalleng": 1076,
      "Ġsust": 1077,
      "Ġsur": 1078,
      "ĠThese": 1079,
      "Ġdep": 1080,
      "Ġsustain": 1081,
      "Ġrole": 1082,
      "ants": 1083,
      "angu": 1084,
      "Ġcrucial": 1085,
      "orts": 1086,
      "ling": 1087,
      "und": 1088,
      "por": 1089,
      "Ġmin": 1090,
      "Ġthan": 1091,
      "Ġhand": 1092,
      "Ġtext": 1093,
      "Ġboth": 1094,
      "vent": 1095,
      "ears": 1096,
      "erm": 1097,
      "fter": 1098,
      "Ġdoes": 1099,
      "ict": 1100,
      "air": 1101,
      "fore": 1102,
      "Ġcreate": 1103,
      "Ġsee": 1104,
      "Ġ3": 1105,
      "Ġway": 1106,
      "Ġform": 1107,
      "Ġindust": 1108,
      "Ġpromot": 1109,
      "Ġiss": 1110,
      "ware": 1111,
      "ips": 1112,
      "Ġchar": 1113,
      "Ġoften": 1114,
      "Ġcontent": 1115,
      "Ġcar": 1116,
      "ool": 1117,
      "Ġent": 1118,
      "Ġactiv": 1119,
      "Ġgrow": 1120,
      "Ġinclude": 1121,
      "Ġeduc": 1122,
      "Ġgener": 1123,
      "irst": 1124,
      "Ġworld": 1125,
      "Ġthose": 1126,
      "ied": 1127,
      "ĠHow": 1128,
      "Ġmaking": 1129,
      "ication": 1130,
      "esp": 1131,
      "cept": 1132,
      "app": 1133,
      "Ġwithin": 1134,
      "Ġcontribut": 1135,
      "ublic": 1136,
      "Ġduring": 1137,
      "Ġsim": 1138,
      "ency": 1139,
      "ense": 1140,
      "imate": 1141,
      "ĠĊ": 1142,
      "Ġfeel": 1143,
      "Ġmost": 1144,
      "Ġenc": 1145,
      "Ġensure": 1146,
      "Ġteam": 1147,
      "Ġdist": 1148,
      "Ġlangu": 1149,
      "tern": 1150,
      "Ġcur": 1151,
      "Ġfac": 1152,
      "Ġpur": 1153,
      "ited": 1154,
      "ins": 1155,
      "ĠThey": 1156,
      "Ġresearch": 1157,
      "Ġsuccess": 1158,
      "Ġ20": 1159,
      "roup": 1160,
      "ier": 1161,
      "Ġperform": 1162,
      "Ġinflu": 1163,
      "Ġdevelopment": 1164,
      "Ġhum": 1165,
      "Ġbr": 1166,
      "nect": 1167,
      "Ġmany": 1168,
      "Ġcare": 1169,
      "riend": 1170,
      "urn": 1171,
      "Ġwebs": 1172,
      "Ġconf": 1173,
      "ax": 1174,
      "ĠFor": 1175,
      "Ġmem": 1176,
      "cing": 1177,
      "Ġinterest": 1178,
      "Ġshow": 1179,
      "Ġbec": 1180,
      "irect": 1181,
      "Ġkey": 1182,
      "Ġindividuals": 1183,
      "aw": 1184,
      "ffect": 1185,
      "ced": 1186,
      "ggest": 1187,
      "Ġanal": 1188,
      "Ġfollow": 1189,
      "Ġcommunity": 1190,
      "Ġbenefits": 1191,
      "lement": 1192,
      "Ġstand": 1193,
      "iver": 1194,
      "Ġstep": 1195,
      "ĠâĢ": 1196,
      "conom": 1197,
      "Ġaud": 1198,
      "ty": 1199,
      "itions": 1200,
      "Ġprot": 1201,
      "io": 1202,
      "Ġproject": 1203,
      "ble": 1204,
      "Ġdem": 1205,
      "Ġhere": 1206,
      "Ġemploy": 1207,
      "Ġpower": 1208,
      "hod": 1209,
      "Ġbeing": 1210,
      "hing": 1211,
      "light": 1212,
      "Ġend": 1213,
      "lease": 1214,
      "pe": 1215,
      "Ġlanguage": 1216,
      "Ġident": 1217,
      "read": 1218,
      "Ġevery": 1219,
      "ases": 1220,
      "Ġrev": 1221,
      "Ġtool": 1222,
      "ients": 1223,
      "atform": 1224,
      "Ġessential": 1225,
      "Ġwrit": 1226,
      "Ġoffer": 1227,
      "ng": 1228,
      "Ġplan": 1229,
      "Ġown": 1230,
      "Ġhist": 1231,
      "Ġinvolv": 1232,
      "Ġve": 1233,
      "wards": 1234,
      "Ġlong": 1235,
      "Ġear": 1236,
      "elf": 1237,
      "raph": 1238,
      "Ġbel": 1239,
      "Ġimprove": 1240,
      "ath": 1241,
      "Ġinit": 1242,
      "Ġcrit": 1243,
      "Ġget": 1244,
      "Ġnum": 1245,
      "Ġsuggest": 1246,
      "ner": 1247,
      "Ġeven": 1248,
      "by": 1249,
      "Ġfam": 1250,
      "Ġreal": 1251,
      "Ġtechnology": 1252,
      "Ġfood": 1253,
      "abor": 1254,
      "Ġop": 1255,
      "ix": 1256,
      "Ġide": 1257,
      "Ġsaf": 1258,
      "Ġread": 1259,
      "ances": 1260,
      "Ġno": 1261,
      "Ġdiscussion": 1262,
      "ather": 1263,
      "ross": 1264,
      "Ġexperi": 1265,
      "less": 1266,
      "Ġfurther": 1267,
      "Ġob": 1268,
      "hen": 1269,
      "chool": 1270,
      "Ġpop": 1271,
      "Ġmarketing": 1272,
      "nce": 1273,
      "Ġaddition": 1274,
      "Ġapproach": 1275,
      "Ġeconom": 1276,
      "Ġresources": 1277,
      "ĠCan": 1278,
      "iving": 1279,
      "Ġservices": 1280,
      "orpor": 1281,
      "uing": 1282,
      "Ġmade": 1283,
      "ills": 1284,
      "Ġmight": 1285,
      "you": 1286,
      "that": 1287,
      "Ġtw": 1288,
      "ibility": 1289,
      "more": 1290,
      "Ġchallenges": 1291,
      "inc": 1292,
      "Ġplatform": 1293,
      "Ġmethod": 1294,
      "Ġstart": 1295,
      "Sure": 1296,
      "Ġunique": 1297,
      "Ġsal": 1298,
      "Ġgroup": 1299,
      "ĠPro": 1300,
      "Ġmean": 1301,
      "Ġret": 1302,
      "Ġpass": 1303,
      "ists": 1304,
      "ert": 1305,
      "lus": 1306,
      "ee": 1307,
      "els": 1308,
      "Ġpractices": 1309,
      "Ġmental": 1310,
      "Ġlevel": 1311,
      "ogn": 1312,
      "atural": 1313,
      "iversity": 1314,
      "Ġuser": 1315,
      "Ġbrand": 1316,
      "overn": 1317,
      "ries": 1318,
      "ars": 1319,
      "chie": 1320,
      "Ġdon": 1321,
      "Ġequ": 1322,
      "eld": 1323,
      "Ġbo": 1324,
      "Ġcount": 1325,
      "ilities": 1326,
      "Ġstrategies": 1327,
      "port": 1328,
      "uch": 1329,
      "Ġris": 1330,
      "Ġlocal": 1331,
      "ĠUn": 1332,
      "Ġpublic": 1333,
      "oring": 1334,
      "Ġwebsite": 1335,
      "oura": 1336,
      "Ġmusic": 1337,
      "ertainly": 1338,
      "Ġconnect": 1339,
      "ash": 1340,
      "self": 1341,
      "ĠHowever": 1342,
      "Ġinvest": 1343,
      "ration": 1344,
      "Ġfound": 1345,
      "Ġbuild": 1346,
      "Ġconsider": 1347,
      "Ġapplic": 1348,
      "Ġachie": 1349,
      "Ġtake": 1350,
      "Ġindustry": 1351,
      "az": 1352,
      "Ġcap": 1353,
      "ĠYou": 1354,
      "rent": 1355,
      "ĠHe": 1356,
      "Ġemot": 1357,
      "Ġrequire": 1358,
      "Ġfew": 1359,
      "Ġmon": 1360,
      "Ġfact": 1361,
      "ody": 1362,
      "Ġbefore": 1363,
      "ĠBy": 1364,
      "Ġdirect": 1365,
      "Ġdr": 1366,
      "pportun": 1367,
      "ination": 1368,
      "me": 1369,
      "Ġprofess": 1370,
      "with": 1371,
      "Ġbeh": 1372,
      "Ġagain": 1373,
      "ield": 1374,
      "Ġresult": 1375,
      "Ġaddress": 1376,
      "Ġonline": 1377,
      "Ġser": 1378,
      "It": 1379,
      "Ġlist": 1380,
      "ommend": 1381,
      "Ġcultural": 1382,
      "ĠAs": 1383,
      "Ġmaintain": 1384,
      "ditionally": 1385,
      "reen": 1386,
      "Ġeas": 1387,
      "Ġstudents": 1388,
      "Ġsmall": 1389,
      "ision": 1390,
      "Ġproducts": 1391,
      "Ġrecommend": 1392,
      "akes": 1393,
      "lev": 1394,
      "omet": 1395,
      "Ġavail": 1396,
      "rap": 1397,
      "atures": 1398,
      "sc": 1399,
      "Ġcost": 1400,
      "Ġfirst": 1401,
      "back": 1402,
      "aut": 1403,
      "Ġgood": 1404,
      "Ġparticular": 1405,
      "ock": 1406,
      "As": 1407,
      "ooking": 1408,
      "ared": 1409,
      "rip": 1410,
      "Ġinteg": 1411,
      "Ġopportun": 1412,
      "Ġsever": 1413,
      "Ġissues": 1414,
      "Ġchange": 1415,
      "Ġbest": 1416,
      "Ġunderstanding": 1417,
      "Ġexample": 1418,
      "Ġpolic": 1419,
      "Ġtowards": 1420,
      "Ġfunction": 1421,
      "urning": 1422,
      "ted": 1423,
      "Ġcharact": 1424,
      "Ġrelations": 1425,
      "Ġcompany": 1426,
      "Ġcour": 1427,
      "Ġcamp": 1428,
      "Ġnatural": 1429,
      "ern": 1430,
      "ecess": 1431,
      "Ġeffic": 1432,
      "ior": 1433,
      "new": 1434,
      "Ġafter": 1435,
      "Ġneeds": 1436,
      "ivity": 1437,
      "Ġmind": 1438,
      "aste": 1439,
      "Ġclear": 1440,
      "Ġbro": 1441,
      "Ġtips": 1442,
      "mm": 1443,
      "Ġaround": 1444,
      "sp": 1445,
      "Ġposs": 1446,
      "Ġenvironmental": 1447,
      "Ġself": 1448,
      "ording": 1449,
      "Ġgr": 1450,
      "Ġoper": 1451,
      "ditional": 1452,
      "Ġwithout": 1453,
      "ories": 1454,
      "Ġleg": 1455,
      "Ġorig": 1456,
      "Ġsustainable": 1457,
      "Ġlearning": 1458,
      "Ġmanagement": 1459,
      "work": 1460,
      "Ġenhance": 1461,
      "hor": 1462,
      "Ġmat": 1463,
      "wh": 1464,
      "Ġ4": 1465,
      "Ġbre": 1466,
      "Ġcent": 1467,
      "Certainly": 1468,
      "Ġphys": 1469,
      "ontin": 1470,
      "Ġdetails": 1471,
      "Ġchang": 1472,
      "Ġchild": 1473,
      "Ġcho": 1474,
      "Ġquality": 1475,
      "uture": 1476,
      "Ġlar": 1477,
      "ined": 1478,
      "day": 1479,
      "Ġtopic": 1480,
      "Ġhuman": 1481,
      "Ġseveral": 1482,
      "Ġbased": 1483,
      "Ġcontro": 1484,
      "ching": 1485,
      "Ġprotect": 1486,
      "pos": 1487,
      "ancing": 1488,
      "de": 1489,
      "Ġgovern": 1490,
      "ets": 1491,
      "Ġtwo": 1492,
      "avor": 1493,
      "Ġsignificantly": 1494,
      "ards": 1495,
      "Ġkeep": 1496,
      "Ġimplement": 1497,
      "Ġ5": 1498,
      "pr": 1499,
      "bers": 1500,
      "asing": 1501,
      "ending": 1502,
      "##": 1503,
      "Ġjour": 1504,
      "olution": 1505,
      "Ġgrowth": 1506,
      "urity": 1507,
      "rehe": 1508,
      "Ġest": 1509,
      "Ġtest": 1510,
      "Ġinteract": 1511,
      "not": 1512,
      "care": 1513,
      "ancial": 1514,
      "Ġimm": 1515,
      "arget": 1516,
      "ĠAl": 1517,
      "Ġmeas": 1518,
      "ney": 1519,
      "Ġrelationship": 1520,
      "Ġfil": 1521,
      "Ġensuring": 1522,
      "Ġquest": 1523,
      "Ġlight": 1524,
      "Ġleft": 1525,
      "Ġdown": 1526,
      "Ġwant": 1527,
      "ually": 1528,
      "nces": 1529,
      "vers": 1530,
      "Ġsty": 1531,
      "imes": 1532,
      "Ġaudience": 1533,
      "ention": 1534,
      "ways": 1535,
      "ason": 1536,
      "Ġmove": 1537,
      "ven": 1538,
      "ĠAI": 1539,
      "meric": 1540,
      "Ġclass": 1541,
      "Yes": 1542,
      "Ġaffect": 1543,
      "Ġcr": 1544,
      "duct": 1545,
      "ising": 1546,
      "Ġcor": 1547,
      "Ġmodel": 1548,
      "Ġrespons": 1549,
      "ext": 1550,
      "Ġstate": 1551,
      "Ġmult": 1552,
      "Ġoffers": 1553,
      "ructure": 1554,
      "sh": 1555,
      "Ġsit": 1556,
      "Ġexperiences": 1557,
      "Ġland": 1558,
      "Ġpositive": 1559,
      "Ġbi": 1560,
      "Ġactivities": 1561,
      "Ġrest": 1562,
      "ĠAn": 1563,
      "Ġaim": 1564,
      "Ġfuture": 1565,
      "put": 1566,
      "Ġnecess": 1567,
      "wit": 1568,
      "Ġorigin": 1569,
      "Ġec": 1570,
      "ves": 1571,
      "Ġcustomer": 1572,
      ",\"": 1573,
      "Ġreduce": 1574,
      "ially": 1575,
      "Ġskills": 1576,
      "Ġfost": 1577,
      "Ġthough": 1578,
      "nov": 1579,
      "lish": 1580,
      "'m": 1581,
      "\"?": 1582,
      "Ġbetter": 1583,
      "Ġ201": 1584,
      "ĠWe": 1585,
      "Ġdig": 1586,
      "aign": 1587,
      "oss": 1588,
      "Ġproper": 1589,
      "Ġgra": 1590,
      "ĠĠĠ": 1591,
      "Ġstory": 1592,
      ":**": 1593,
      "Ġmar": 1594,
      "Ġacross": 1595,
      "To": 1596,
      "Ġusers": 1597,
      "ological": 1598,
      "ables": 1599,
      ".\"": 1600,
      "Ġperformance": 1601,
      "Ġdefin": 1602,
      "Ġways": 1603,
      "aring": 1604,
      "Ġconsum": 1605,
      "ead": 1606,
      "Ġavailable": 1607,
      "Ġtreat": 1608,
      "Ġword": 1609,
      "aving": 1610,
      "Ġanother": 1611,
      "Ġcommunication": 1612,
      "Ġgive": 1613,
      "acy": 1614,
      "Ġthen": 1615,
      "Ġconst": 1616,
      "Ġcoll": 1617,
      "oid": 1618,
      "Ġoptions": 1619,
      "ron": 1620,
      "ilit": 1621,
      "ems": 1622,
      "anced": 1623,
      "Ġproviding": 1624,
      "iate": 1625,
      "ral": 1626,
      "'re": 1627,
      "eed": 1628,
      "Ġpresent": 1629,
      "ditions": 1630,
      "Ġencoura": 1631,
      "rehens": 1632,
      "Ġeducation": 1633,
      "Ġglob": 1634,
      "Ġful": 1635,
      "ale": 1636,
      "Ġimportance": 1637,
      "Ġcomplex": 1638,
      "Ġareas": 1639,
      "Ġfeatures": 1640,
      "erc": 1641,
      "Ġplace": 1642,
      "lection": 1643,
      "Ġdev": 1644,
      "der": 1645,
      "po": 1646,
      "iting": 1647,
      "oun": 1648,
      "Ġcreating": 1649,
      "Ġtraditional": 1650,
      "Ġothers": 1651,
      "ript": 1652,
      "Contin": 1653,
      "This": 1654,
      "Ġlim": 1655,
      "ĠAdditionally": 1656,
      "Ġreport": 1657,
      "Ġplease": 1658,
      "oft": 1659,
      "way": 1660,
      "Ġagainst": 1661,
      "Ġfinancial": 1662,
      "fact": 1663,
      "Ġmaterials": 1664,
      "ving": 1665,
      "Ġday": 1666,
      "Ġsystems": 1667,
      "),": 1668,
      "atives": 1669,
      "Ġservice": 1670,
      "Ġelect": 1671,
      "ank": 1672,
      "How": 1673,
      "apt": 1674,
      "ored": 1675,
      "ograph": 1676,
      "Ġrange": 1677,
      "Ġtarget": 1678,
      "ĠIf": 1679,
      "Ġview": 1680,
      "Ġefforts": 1681,
      "rop": 1682,
      "arr": 1683,
      "br": 1684,
      "Ġcontinue": 1685,
      "fort": 1686,
      "Ġyears": 1687,
      "Ġcritical": 1688,
      "Ġevents": 1689,
      "oot": 1690,
      "Ġprevent": 1691,
      "Ġcomb": 1692,
      "Ġ19": 1693,
      "ats": 1694,
      "Ġschool": 1695,
      "Ġrecip": 1696,
      "about": 1697,
      "ery": 1698,
      "ium": 1699,
      "Ġsearch": 1700,
      "ouse": 1701,
      "Ġtell": 1702,
      "mb": 1703,
      "Ġoil": 1704,
      "yc": 1705,
      "anies": 1706,
      "âĢĿ": 1707,
      "Ġcampaign": 1708,
      "ape": 1709,
      "ray": 1710,
      "ently": 1711,
      "Ġessay": 1712,
      "ream": 1713,
      "Ġtools": 1714,
      "Ġeconomic": 1715,
      "Ġguid": 1716,
      "Ġcomprehens": 1717,
      "ression": 1718,
      "ember": 1719,
      "ved": 1720,
      "tle": 1721,
      "ah": 1722,
      "Ġlit": 1723,
      "Ġpost": 1724,
      "Ġpar": 1725,
      "ode": 1726,
      "Ġintern": 1727,
      "iques": 1728,
      "Ġprovides": 1729,
      "Ġphysical": 1730,
      "just": 1731,
      "Ġeffectively": 1732,
      "Ġneg": 1733,
      "ruction": 1734,
      "Ġeffects": 1735,
      "based": 1736,
      "Ġtry": 1737,
      "Ġamong": 1738,
      "ret": 1739,
      "Ġwriting": 1740,
      "Ġadditional": 1741,
      "``": 1742,
      "ope": 1743,
      "ysis": 1744,
      "joy": 1745,
      "Ġopen": 1746,
      ").": 1747,
      "Ġcurrent": 1748,
      "Ġsound": 1749,
      "Ġfamily": 1750,
      "Ġsense": 1751,
      "yn": 1752,
      "ĠAmeric": 1753,
      "Ġtre": 1754,
      "land": 1755,
      "Ġcompet": 1756,
      "rodu": 1757,
      "Ġpolit": 1758,
      "ĠUse": 1759,
      "gether": 1760,
      "Ġhome": 1761,
      "Ġoverall": 1762,
      "ains": 1763,
      "Ġprim": 1764,
      "Ġlearn": 1765,
      "Ġinnov": 1766,
      "Ġprograms": 1767,
      "rec": 1768,
      "ished": 1769,
      "Ġdeep": 1770,
      "Ġtraining": 1771,
      "vert": 1772,
      "Ġair": 1773,
      "resent": 1774,
      "Ġtem": 1775,
      "ging": 1776,
      "phas": 1777,
      "Ġbal": 1778,
      "Ġsure": 1779,
      "Ġbody": 1780,
      "Ġfree": 1781,
      "ĠEn": 1782,
      "Ġincorpor": 1783,
      "Ġless": 1784,
      "itut": 1785,
      "Ġstress": 1786,
      "Ġevent": 1787,
      "Ġhistory": 1788,
      "Ġrecogn": 1789,
      "Ġtoo": 1790,
      "Ġhighlight": 1791,
      "Continuing": 1792,
      "Ġsl": 1793,
      "Ġjob": 1794,
      "Ġlove": 1795,
      "arding": 1796,
      "Ġfund": 1797,
      "Ġnut": 1798,
      "Ġmot": 1799,
      "Ġgen": 1800,
      "ulation": 1801,
      "Ġmess": 1802,
      "Ġele": 1803,
      "istic": 1804,
      "rior": 1805,
      "Ġsoft": 1806,
      "ĠInd": 1807,
      "Ġbehav": 1808,
      "ified": 1809,
      "ĠSh": 1810,
      "Ġsomet": 1811,
      "par": 1812,
      "Ġcall": 1813,
      "iverse": 1814,
      "ource": 1815,
      "Ġsteps": 1816,
      "icial": 1817,
      "ĠTo": 1818,
      "Ġability": 1819,
      "let": 1820,
      "str": 1821,
      "izations": 1822,
      "atic": 1823,
      "Ġnet": 1824,
      "Ġright": 1825,
      "Ġfriend": 1826,
      "Ġcommit": 1827,
      "oci": 1828,
      "here": 1829,
      "can": 1830,
      "Ġcomprehensive": 1831,
      "ledge": 1832,
      "Ġcommon": 1833,
      "Ġunt": 1834,
      "Ġel": 1835,
      "ety": 1836,
      "Ġsol": 1837,
      "ift": 1838,
      "oh": 1839,
      "ership": 1840,
      "ĠSp": 1841,
      "Ġaspect": 1842,
      "Ġdue": 1843,
      "ause": 1844,
      "Ġprofessional": 1845,
      "Ġprev": 1846,
      "ints": 1847,
      "Ġleading": 1848,
      "Ġgoals": 1849,
      "err": 1850,
      "Ġinvolves": 1851,
      "Ġcustomers": 1852,
      "rans": 1853,
      "Ġ$": 1854,
      "Ġcontrol": 1855,
      "20": 1856,
      "ĠCon": 1857,
      "Ġmention": 1858,
      "Ġbusinesses": 1859,
      "ief": 1860,
      "Ġcollabor": 1861,
      "Ġsaid": 1862,
      "Ġparticularly": 1863,
      "Ġnumber": 1864,
      "go": 1865,
      "Ġcal": 1866,
      "Ġsect": 1867,
      "Ġcharacter": 1868,
      "Ġmeaning": 1869,
      "Ġmust": 1870,
      "Ġsetting": 1871,
      "su": 1872,
      "St": 1873,
      "Ġtogether": 1874,
      "Ġemphas": 1875,
      "ees": 1876,
      "Ġcommunities": 1877,
      "Ġfore": 1878,
      "Ġut": 1879,
      "ĠAr": 1880,
      "Ġworks": 1881,
      "ystem": 1882,
      "Ġopportunities": 1883,
      "Ġstrong": 1884,
      "ffic": 1885,
      "Ġnon": 1886,
      "Ġ`": 1887,
      "ork": 1888,
      "ĠWh": 1889,
      "Ġcompanies": 1890,
      "Ġvide": 1891,
      "Ġlook": 1892,
      "Ġstudy": 1893,
      "Ġjourney": 1894,
      "Ġgovernment": 1895,
      "Ġanim": 1896,
      "ption": 1897,
      "Ġdiff": 1898,
      "Ġbroad": 1899,
      "Ġparticip": 1900,
      "izes": 1901,
      "Ġtechniques": 1902,
      "Ġiniti": 1903,
      "Ġfeed": 1904,
      "Ġhim": 1905,
      "Ġclean": 1906,
      "Ġincludes": 1907,
      "Ġdra": 1908,
      "aling": 1909,
      "omen": 1910,
      "Ġsecurity": 1911,
      "ĠBe": 1912,
      "rite": 1913,
      "Ġexplore": 1914,
      "Ġvalue": 1915,
      "Ġaccount": 1916,
      "Ġplatforms": 1917,
      "Ġsupp": 1918,
      "au": 1919,
      "comes": 1920,
      "Ġchanges": 1921,
      "Ġuntil": 1922,
      "Ġauthor": 1923,
      "Ġsumm": 1924,
      "Ġthink": 1925,
      "Ġobject": 1926,
      "âĢĶ": 1927,
      "alu": 1928,
      "Ġculture": 1929,
      "gin": 1930,
      "Ġenhancing": 1931,
      "Ġhelps": 1932,
      "Ġsuccessful": 1933,
      "Ġpain": 1934,
      "Ġanaly": 1935,
      "ĠRe": 1936,
      "Ġachieve": 1937,
      "Ġattention": 1938,
      "Ġdigital": 1939,
      "Ġtypes": 1940,
      "Ġshare": 1941,
      "aper": 1942,
      "do": 1943,
      "Ġoffering": 1944,
      "man": 1945,
      "Ġglobal": 1946,
      "Ġincrease": 1947,
      "Ġsources": 1948,
      "Ġpopular": 1949,
      "Ġreach": 1950,
      "ively": 1951,
      "place": 1952,
      "Ġmeans": 1953,
      "Ġyear": 1954,
      "Ġfield": 1955,
      "ames": 1956,
      "time": 1957,
      "Ġlaw": 1958,
      "Ġtas": 1959,
      "Ġengagement": 1960,
      "ilar": 1961,
      "Ġalong": 1962,
      "Ġstill": 1963,
      "ired": 1964,
      "Ġdesigned": 1965,
      "Ġoptim": 1966,
      "Ġreducing": 1967,
      "reng": 1968,
      "Ġdesc": 1969,
      "ĠEx": 1970,
      "Ġmuch": 1971,
      "Ġdid": 1972,
      "Ġexerc": 1973,
      "Ġalways": 1974,
      "Ġmeet": 1975,
      "redients": 1976,
      "Ġi": 1977,
      "Ġing": 1978,
      "rast": 1979,
      "ury": 1980,
      "Ġknown": 1981,
      "Ġeth": 1982,
      "Ġanalysis": 1983,
      "Ġrisk": 1984,
      "Ġpast": 1985,
      "Ġemb": 1986,
      "Ġproble": 1987,
      "pping": 1988,
      "Ġlow": 1989,
      "Ġconditions": 1990,
      "Ġidentify": 1991,
      "Ġbeaut": 1992,
      "ises": 1993,
      "Ġemail": 1994,
      "Ġvisual": 1995,
      "Ġcolor": 1996,
      "Ġhealthcare": 1997,
      "play": 1998,
      "ird": 1999,
      "aj": 2000,
      "ission": 2001,
      "Ġmethods": 2002,
      "ann": 2003,
      "resh": 2004,
      "Ġestab": 2005,
      "Ġhapp": 2006,
      "Ġproduction": 2007,
      "ecially": 2008,
      "Ġallows": 2009,
      "view": 2010,
      "fect": 2011,
      "ges": 2012,
      "Ġnecessary": 2013,
      "Ġlevels": 2014,
      "Ġnature": 2015,
      "Ġelements": 2016,
      "oose": 2017,
      "Ġfactors": 2018,
      "ification": 2019,
      "Ġlarge": 2020,
      "ides": 2021,
      "yond": 2022,
      "idence": 2023,
      "how": 2024,
      "Ġcontext": 2025,
      "ele": 2026,
      "Ġprior": 2027,
      "emic": 2028,
      "ologies": 2029,
      "Ġdefinition": 2030,
      "Ġant": 2031,
      "plic": 2032,
      "Ġengaging": 2033,
      "Ġesp": 2034,
      "Ġcourse": 2035,
      "Ġenjoy": 2036,
      "iveness": 2037,
      "Ġill": 2038,
      "itation": 2039,
      "friend": 2040,
      "ton": 2041,
      "Ġarea": 2042,
      "ming": 2043,
      "Ġreflect": 2044,
      "icle": 2045,
      "Ġbecome": 2046,
      "Ġspecial": 2047,
      "onse": 2048,
      "ender": 2049,
      "ferences": 2050,
      "Ġexpect": 2051,
      "Ġrece": 2052,
      "pped": 2053,
      "ĠShe": 2054,
      "Ġgame": 2055,
      "side": 2056,
      "Ġintegr": 2057,
      "cy": 2058,
      "Ġsafety": 2059,
      "Ġsitu": 2060,
      "olve": 2061,
      "Ġreview": 2062,
      "oad": 2063,
      "Ġapplication": 2064,
      "Ġnow": 2065,
      "ĠSc": 2066,
      "iod": 2067,
      "ote": 2068,
      "ger": 2069,
      "Ġheart": 2070,
      "isc": 2071,
      "Ġorganizations": 2072,
      "Ġclimate": 2073,
      "mental": 2074,
      "Ġpractice": 2075,
      "ince": 2076,
      "Ġvariety": 2077,
      "icult": 2078,
      "Ġcra": 2079,
      "Ġrenew": 2080,
      "know": 2081,
      "Ġsens": 2082,
      "Ġexc": 2083,
      "Ġpolitical": 2084,
      "ots": 2085,
      "Ġassist": 2086,
      "aces": 2087,
      "Ġpay": 2088,
      "elling": 2089,
      "Ġmom": 2090,
      "Ġstreng": 2091,
      "ĠThere": 2092,
      "Ġrun": 2093,
      "ĠCl": 2094,
      "Ġdiverse": 2095,
      "Ġter": 2096,
      "min": 2097,
      "Ġpromote": 2098,
      "Ġaccording": 2099,
      "Ġconcer": 2100,
      "Ġsignificance": 2101,
      "Ġespecially": 2102,
      "Ġinfluence": 2103,
      "comp": 2104,
      "sequ": 2105,
      "ening": 2106,
      "ulations": 2107,
      "Ġinfluenc": 2108,
      "igate": 2109,
      "ones": 2110,
      "ived": 2111,
      "oving": 2112,
      "Ġupd": 2113,
      "rain": 2114,
      "Ġreally": 2115,
      "iment": 2116,
      "Ġchildren": 2117,
      "Ret": 2118,
      "Ġstrategy": 2119,
      "Ġinsights": 2120,
      "Ġfollowing": 2121,
      "Ġemotional": 2122,
      "ooks": 2123,
      "ibr": 2124,
      "Ġfre": 2125,
      "Ġmembers": 2126,
      "Ġvers": 2127,
      "Ġprovided": 2128,
      "being": 2129,
      "astly": 2130,
      "iple": 2131,
      "Ġpossible": 2132,
      "Ġcook": 2133,
      "Ġstyle": 2134,
      "lusion": 2135,
      "irc": 2136,
      "lex": 2137,
      "ires": 2138,
      "ivot": 2139,
      "Ġminim": 2140,
      "Ġhig": 2141,
      "irt": 2142,
      "iency": 2143,
      "Ġworking": 2144,
      "Ġadapt": 2145,
      "Ġtru": 2146,
      "lt": 2147,
      "Ġavoid": 2148,
      "omp": 2149,
      "Ġrepresent": 2150,
      "bon": 2151,
      "Ġsubst": 2152,
      "Ġspace": 2153,
      "word": 2154,
      "ument": 2155,
      "Ġnav": 2156,
      "Ġvalues": 2157,
      "osp": 2158,
      "Ġaware": 2159,
      "Ġpoint": 2160,
      "utes": 2161,
      "ek": 2162,
      "orm": 2163,
      "ids": 2164,
      "Ġpolicies": 2165,
      "Ġ6": 2166,
      "Ġregular": 2167,
      "ution": 2168,
      "Ġsomething": 2169,
      "ervation": 2170,
      "Ġaction": 2171,
      "Ġprimary": 2172,
      "Ġlast": 2173,
      "Ġnegative": 2174,
      "Ġwide": 2175,
      "Ġpress": 2176,
      "Ġcome": 2177,
      "olutions": 2178,
      "ĠâĢľ": 2179,
      "Ġpoll": 2180,
      "Ġsociety": 2181,
      "arent": 2182,
      "'ll": 2183,
      "ĠPl": 2184,
      "Ġsat": 2185,
      "pose": 2186,
      "Ġcontribute": 2187,
      "Ġstay": 2188,
      "Ġdetailed": 2189,
      "ours": 2190,
      "oreover": 2191,
      "Ġharm": 2192,
      "Ġunders": 2193,
      "Ġveget": 2194,
      "Ġable": 2195,
      "uro": 2196,
      "Ġgroups": 2197,
      "ush": 2198,
      "ends": 2199,
      "Ġideas": 2200,
      "icking": 2201,
      "Ġsoftware": 2202,
      "Ġknowledge": 2203,
      "Ġimpacts": 2204,
      "ĠNew": 2205,
      "Ġgreen": 2206,
      "af": 2207,
      "Ġdeterm": 2208,
      "Ġcity": 2209,
      "Ġfeedback": 2210,
      "Ġbas": 2211,
      "Ġrespect": 2212,
      "sy": 2213,
      "Ġur": 2214,
      "gar": 2215,
      "Ġassoci": 2216,
      "ik": 2217,
      "Ġtransport": 2218,
      "Ġnarr": 2219,
      "Ġutil": 2220,
      "Ġprogress": 2221,
      "Ġcollect": 2222,
      "Ġtype": 2223,
      "coming": 2224,
      "Ġrelev": 2225,
      "Ġinform": 2226,
      "Ġface": 2227,
      "Ġinsp": 2228,
      "Ġcaus": 2229,
      "Ġphot": 2230,
      "ator": 2231,
      "Swit": 2232,
      "Ġrelationships": 2233,
      "oms": 2234,
      "part": 2235,
      "rapy": 2236,
      "Ġmix": 2237,
      "Ġstat": 2238,
      "med": 2239,
      "Ġresponse": 2240,
      "Ġbuilding": 2241,
      "ĠEng": 2242,
      "ately": 2243,
      "Ġcontact": 2244,
      "ĠDe": 2245,
      "friendly": 2246,
      "bo": 2247,
      "Ġintrodu": 2248,
      "mon": 2249,
      "ĠAnd": 2250,
      "Ġvisit": 2251,
      "Ġsubject": 2252,
      "Ġpriv": 2253,
      "Ġdifficult": 2254,
      "Ġprevious": 2255,
      "ane": 2256,
      "face": 2257,
      "erson": 2258,
      "Ġocc": 2259,
      "ores": 2260,
      "Ġconvers": 2261,
      "ĠDo": 2262,
      "Ġcertain": 2263,
      "Ġcapt": 2264,
      "Ġemp": 2265,
      "Ġeasy": 2266,
      "Ġnote": 2267,
      "Ġbook": 2268,
      "Ġadjust": 2269,
      "Ġregarding": 2270,
      "Ġrenewable": 2271,
      "Ġrecipe": 2272,
      "Ġ=": 2273,
      "Ġhistor": 2274,
      "atory": 2275,
      "10": 2276,
      "Ġbehavior": 2277,
      "have": 2278,
      "alk": 2279,
      "Ġperiod": 2280,
      "Ġsame": 2281,
      "Ġmeasures": 2282,
      "ĠWith": 2283,
      "ese": 2284,
      "Ġbecause": 2285,
      "iation": 2286,
      "ura": 2287,
      "Ġdecision": 2288,
      "Ġperspect": 2289,
      "imately": 2290,
      "ĠRes": 2291,
      "issions": 2292,
      "Ġvol": 2293,
      "Ġterm": 2294,
      "Ġperfect": 2295,
      "Ġshort": 2296,
      "Ġsmo": 2297,
      "Ġlay": 2298,
      "Ġpromoting": 2299,
      "Ġhold": 2300,
      "Ġstructure": 2301,
      "Ġtravel": 2302,
      "ged": 2303,
      "ably": 2304,
      "ground": 2305,
      "Ġhealthy": 2306,
      "Returning": 2307,
      "Ġrout": 2308,
      "Ġconsist": 2309,
      "ators": 2310,
      "thing": 2311,
      "oney": 2312,
      "urthermore": 2313,
      "Ġtimes": 2314,
      "atch": 2315,
      "aged": 2316,
      "Ġingredients": 2317,
      "Ġorganization": 2318,
      "Ġundersc": 2319,
      "itud": 2320,
      "Ġscen": 2321,
      "oph": 2322,
      "Ġ'": 2323,
      "ug": 2324,
      "Ġbring": 2325,
      "ĠInst": 2326,
      "Ġwaste": 2327,
      "ites": 2328,
      "fer": 2329,
      "illed": 2330,
      "my": 2331,
      "rel": 2332,
      "life": 2333,
      "ynam": 2334,
      "ival": 2335,
      "Ġgears": 2336,
      "cent": 2337,
      "Ġgiven": 2338,
      "ocial": 2339,
      "Ġfresh": 2340,
      "Ġport": 2341,
      "iece": 2342,
      "ĊĠĠĠĠ": 2343,
      "hold": 2344,
      "ump": 2345,
      "Ġdemand": 2346,
      "Ġcup": 2347,
      "Ġfit": 2348,
      "ensive": 2349,
      "Ġbeyond": 2350,
      "astic": 2351,
      "hers": 2352,
      "abilities": 2353,
      "Ġpivot": 2354,
      "000": 2355,
      "lying": 2356,
      "mbol": 2357,
      "ĠEm": 2358,
      "Ġhowever": 2359,
      "Ġefficient": 2360,
      "Ġcover": 2361,
      "Ġvery": 2362,
      "Ġcontinu": 2363,
      "Ġshowc": 2364,
      "Ġseason": 2365,
      "Ad": 2366,
      "ended": 2367,
      "Ġadop": 2368,
      "your": 2369,
      "rugg": 2370,
      "come": 2371,
      "Ġdise": 2372,
      "ĠIm": 2373,
      "Ġselect": 2374,
      "Ġminutes": 2375,
      "Ġpurch": 2376,
      "yd": 2377,
      "Ġhard": 2378,
      "Ġcheck": 2379,
      "Ġquick": 2380,
      "ĠBl": 2381,
      "Ġcase": 2382,
      "illion": 2383,
      "Ġcannot": 2384,
      "ding": 2385,
      "Ġvalu": 2386,
      "Ġacad": 2387,
      "isions": 2388,
      "Ġcomplete": 2389,
      "xiety": 2390,
      "quality": 2391,
      "Ġhab": 2392,
      "Ġprep": 2393,
      "Ġcomes": 2394,
      "ĠAmerican": 2395,
      "Switching": 2396,
      "Ġhead": 2397,
      "Ġspir": 2398,
      "Ġsolutions": 2399,
      "imin": 2400,
      "ised": 2401,
      "Ġnext": 2402,
      "Ġexce": 2403,
      "Ġalign": 2404,
      "These": 2405,
      "term": 2406,
      "fl": 2407,
      "Ġlegal": 2408,
      "Ġweb": 2409,
      "Ġmentioned": 2410,
      "ashion": 2411,
      "Ġded": 2412,
      "Ġfeature": 2413,
      "Ġemployees": 2414,
      "Ġbar": 2415,
      "Ġdi": 2416,
      "aches": 2417,
      "Ġvital": 2418,
      "Ġcountries": 2419,
      "aps": 2420,
      "ĠComm": 2421,
      "Ġcomfort": 2422,
      "ths": 2423,
      "Ġtrust": 2424,
      "Ġconcerns": 2425,
      "Ġflavor": 2426,
      "book": 2427,
      "Ġpaper": 2428,
      "Ġinitial": 2429,
      "ulate": 2430,
      "Ġsecond": 2431,
      "Ġliter": 2432,
      "Ġprojects": 2433,
      "espite": 2434,
      "ĠQ": 2435,
      "aster": 2436,
      "Ġmodern": 2437,
      "from": 2438,
      "Ġconsid": 2439,
      "Ġallowing": 2440,
      "sych": 2441,
      "..": 2442,
      "Ġactions": 2443,
      "Ġaltern": 2444,
      "ustr": 2445,
      "Ġmaintaining": 2446,
      "Ġmotiv": 2447,
      "lier": 2448,
      "Ġincreased": 2449,
      "like": 2450,
      "Ġbalance": 2451,
      "'ve": 2452,
      "Ġtaking": 2453,
      "orn": 2454,
      "osing": 2455,
      "Ġmonit": 2456,
      "esc": 2457,
      "ĠWhen": 2458,
      "Ġfacilit": 2459,
      "Ġdirectly": 2460,
      "Ġexpress": 2461,
      "aid": 2462,
      "Ġrights": 2463,
      "Ġresults": 2464,
      "Ġturn": 2465,
      "cl": 2466,
      "Ġline": 2467,
      "Ġadvert": 2468,
      "Ġhigher": 2469,
      "itable": 2470,
      "ĠâĢĵ": 2471,
      "Ġhope": 2472,
      "Ġdelve": 2473,
      "urs": 2474,
      "Ġbreak": 2475,
      "Ġmanage": 2476,
      "Ġappe": 2477,
      "Ġname": 2478,
      "Ġengage": 2479,
      "ajor": 2480,
      "Ġskin": 2481,
      "Ġ[": 2482,
      "Ġwind": 2483,
      "An": 2484,
      "Ġpolicy": 2485,
      "ban": 2486,
      "ront": 2487,
      "Ġplant": 2488,
      "agn": 2489,
      "Ġstrugg": 2490,
      "eper": 2491,
      "ĊĠĠĠ": 2492,
      "Ġpred": 2493,
      "aily": 2494,
      "ĠIs": 2495,
      "weet": 2496,
      "Ġquestion": 2497,
      "Ġwomen": 2498,
      "Ġdynam": 2499,
      "ĠInc": 2500,
      "ford": 2501,
      "Ġpreferences": 2502,
      "istics": 2503,
      "ĠTe": 2504,
      "Ġdam": 2505,
      "Ġlog": 2506,
      "aching": 2507,
      "tt": 2508,
      "###": 2509,
      "That": 2510,
      "Ġsymbol": 2511,
      "Ġfoot": 2512,
      "Ġrelevant": 2513,
      "Ġautom": 2514,
      "Ġincreasing": 2515,
      "Ġcirc": 2516,
      "We": 2517,
      "Ġpack": 2518,
      "ĠGo": 2519,
      "arc": 2520,
      "Ġamount": 2521,
      "Ġguide": 2522,
      "Ġ10": 2523,
      "pper": 2524,
      "ze": 2525,
      "Ġloss": 2526,
      "Ġthree": 2527,
      "Ġtypically": 2528,
      "Ġmob": 2529,
      "Ġcele": 2530,
      "Ġdoc": 2531,
      "Ġtrend": 2532,
      "Ġcut": 2533,
      "Ġinvolved": 2534,
      "Ġanxiety": 2535,
      "Ġbelief": 2536,
      "pre": 2537,
      "Ġemerg": 2538,
      "icate": 2539,
      "Ġinitiatives": 2540,
      "ricult": 2541,
      "Ġey": 2542,
      "Ġcarbon": 2543,
      "Ġfriends": 2544,
      "anks": 2545,
      "Ġexist": 2546,
      "aves": 2547,
      "aun": 2548,
      "leep": 2549,
      "Ġthroughout": 2550,
      "Ġvideo": 2551,
      "ĠUnited": 2552,
      "Ġeducational": 2553,
      "Ġadvance": 2554,
      "Ġfostering": 2555,
      "ufact": 2556,
      "Ġdemon": 2557,
      "Ġprofound": 2558,
      "Ġtechnologies": 2559,
      "ows": 2560,
      "Ġrelated": 2561,
      "fulness": 2562,
      "Ġefficiency": 2563,
      "ato": 2564,
      "terns": 2565,
      "Ġbat": 2566,
      "Ġspe": 2567,
      "asc": 2568,
      "Ġemotions": 2569,
      "osystem": 2570,
      "Ġsustainability": 2571,
      "Ġcred": 2572,
      "Ġcosts": 2573,
      "19": 2574,
      "itioning": 2575,
      "Ġlooking": 2576,
      "Ġdeeper": 2577,
      "Ġconduct": 2578,
      "Ġconflic": 2579,
      "ĠBut": 2580,
      "Ġassociated": 2581,
      "ina": 2582,
      "ifically": 2583,
      "ried": 2584,
      "ĠSome": 2585,
      "Ġcountry": 2586,
      "Ġapplications": 2587,
      "Ġside": 2588,
      "wer": 2589,
      "ters": 2590,
      "outh": 2591,
      "selves": 2592,
      "iable": 2593,
      "Ġissue": 2594,
      "ifting": 2595,
      "Ġremain": 2596,
      "Ġtour": 2597,
      "Ġtreatment": 2598,
      "Ġ7": 2599,
      "Ġdiet": 2600,
      "off": 2601,
      "Ġpiece": 2602,
      "ĠCons": 2603,
      "uce": 2604,
      "mit": 2605,
      "cking": 2606,
      "Ġcode": 2607,
      "Ġearly": 2608,
      "iance": 2609,
      "Ġacademic": 2610,
      "Ġbelie": 2611,
      "Ch": 2612,
      "Ġlikely": 2613,
      "Ġground": 2614,
      "Ġcommitment": 2615,
      "Ġpartn": 2616,
      "Ġtemper": 2617,
      "enge": 2618,
      "Ġpassage": 2619,
      "Ġste": 2620,
      "aries": 2621,
      "Ġprinc": 2622,
      "ĠCol": 2623,
      "force": 2624,
      "Ġgain": 2625,
      "Ġheat": 2626,
      "etic": 2627,
      "ests": 2628,
      "Ġconcept": 2629,
      "Ġprec": 2630,
      "Ġaspects": 2631,
      "Ġmedical": 2632,
      "ctions": 2633,
      "Ġsimilar": 2634,
      "Ġapprec": 2635,
      "Ġquestions": 2636,
      "iring": 2637,
      "Ġyourself": 2638,
      "Ġethical": 2639,
      "orth": 2640,
      "Ġfarm": 2641,
      "iol": 2642,
      "Ġmit": 2643,
      "Ġspecies": 2644,
      "Ġorder": 2645,
      "Ġcomput": 2646,
      "Ġestablish": 2647,
      "Ġled": 2648,
      "Ġsales": 2649,
      "idd": 2650,
      "ĊĠĠ": 2651,
      "inary": 2652,
      "Ġgar": 2653,
      "Ġpath": 2654,
      "rict": 2655,
      "oration": 2656,
      "rist": 2657,
      "was": 2658,
      "Ġserve": 2659,
      "Ġlives": 2660,
      "Ġpivotal": 2661,
      "lished": 2662,
      "some": 2663,
      "Ġhom": 2664,
      "Ġsize": 2665,
      "ference": 2666,
      "ĠWhat": 2667,
      "lear": 2668,
      "ĠSe": 2669,
      "Ġmultiple": 2670,
      "Ġfashion": 2671,
      "erous": 2672,
      "Ġengine": 2673,
      "Ġfull": 2674,
      "ring": 2675,
      "Ġdiscussing": 2676,
      "this": 2677,
      "Ġecosystem": 2678,
      "Ġcell": 2679,
      "Ġadvant": 2680,
      "Ġterms": 2681,
      "vey": 2682,
      "Ġtail": 2683,
      "ties": 2684,
      "ishing": 2685,
      "erve": 2686,
      "Ġdiversity": 2687,
      "Ġtasks": 2688,
      "Ġawareness": 2689,
      "Ġarg": 2690,
      "ott": 2691,
      "Ġthings": 2692,
      "icro": 2693,
      "aly": 2694,
      "Ġpatterns": 2695,
      "Ġdevices": 2696,
      "Ġinstance": 2697,
      "Ġsecure": 2698,
      "Ġsing": 2699,
      "ĠZ": 2700,
      "aken": 2701,
      "Ġdaily": 2702,
      "Ġdemonstr": 2703,
      "illing": 2704,
      "Ġtou": 2705,
      "Ġred": 2706,
      "Ġlandsc": 2707,
      "Ġyoung": 2708,
      "Ġrich": 2709,
      "icles": 2710,
      "Ġmakes": 2711,
      "elt": 2712,
      "ned": 2713,
      "Ġsoil": 2714,
      "igation": 2715,
      "iction": 2716,
      "Ġlower": 2717,
      "ĠAf": 2718,
      "Ġpurpose": 2719,
      "Ġmoment": 2720,
      "Ġnarrative": 2721,
      "irm": 2722,
      "Ġrisks": 2723,
      "chan": 2724,
      "ches": 2725,
      "Ġevalu": 2726,
      "information": 2727,
      "their": 2728,
      "Ġworth": 2729,
      "Ġhistorical": 2730,
      "Ġchoice": 2731,
      "ians": 2732,
      "Ġpoints": 2733,
      "gor": 2734,
      "Ġearlier": 2735,
      "Ġtrack": 2736,
      "Ġsafe": 2737,
      "itude": 2738,
      "Ġpriorit": 2739,
      "Ġpow": 2740,
      "fully": 2741,
      "Ġsatis": 2742,
      "Ġpotentially": 2743,
      "ley": 2744,
      "ĠOr": 2745,
      "Ġmajor": 2746,
      "Ġmessage": 2747,
      "Ġcompon": 2748,
      "Sh": 2749,
      "Ġuses": 2750,
      "Ġprocesses": 2751,
      "Ġz": 2752,
      "Ġsociet": 2753,
      "Ġhelpful": 2754,
      "Ġinvolve": 2755,
      "Ġrates": 2756,
      "Ġlif": 2757,
      "Ġfram": 2758,
      "Ġspirit": 2759,
      "udget": 2760,
      "Ġwarm": 2761,
      "He": 2762,
      "ony": 2763,
      "Ġrecommendations": 2764,
      "```": 2765,
      "Ġbegin": 2766,
      "Ġattract": 2767,
      "For": 2768,
      "ops": 2769,
      "Ġrequirements": 2770,
      "lege": 2771,
      "Ġthought": 2772,
      "Ġtherapy": 2773,
      "Ġassess": 2774,
      "Ġsimple": 2775,
      "mical": 2776,
      "Ġliving": 2777,
      "Ġadvoc": 2778,
      "Ġrob": 2779,
      "Ġinput": 2780,
      "vide": 2781,
      "Ġmanufact": 2782,
      "Ġessence": 2783,
      "cont": 2784,
      "Ġ8": 2785,
      "inking": 2786,
      "Ġrelig": 2787,
      "Ġsay": 2788,
      "Ġactivity": 2789,
      "Ġidea": 2790,
      "ogle": 2791,
      "Ġsomeone": 2792,
      "Ġwhether": 2793,
      "__": 2794,
      "Ġtransform": 2795,
      "inct": 2796,
      "rad": 2797,
      "ok": 2798,
      "Ġoutcomes": 2799,
      "ructions": 2800,
      "Ġimproving": 2801,
      "Ġmil": 2802,
      "Ġvaluable": 2803,
      "Ġmach": 2804,
      "Ġidentity": 2805,
      "Ġcause": 2806,
      "aff": 2807,
      "Ġtransportation": 2808,
      "Ġmovement": 2809,
      "reate": 2810,
      "Ġneeded": 2811,
      "Ġimages": 2812,
      "imp": 2813,
      "Ġcreative": 2814,
      "Ġoption": 2815,
      "Ġnews": 2816,
      "Ġrecord": 2817,
      "Ġscient": 2818,
      "Ġbackground": 2819,
      "Ġencourage": 2820,
      "gorith": 2821,
      "Ġbreat": 2822,
      "Ġshap": 2823,
      "Ġcelebr": 2824,
      "Ġnetwork": 2825,
      "Ġgeneral": 2826,
      "ĠSu": 2827,
      "Ġagricult": 2828,
      "Ġobs": 2829,
      "Ġ&": 2830,
      "Ġaf": 2831,
      "Ġeffectiveness": 2832,
      "Ġgoal": 2833,
      "cer": 2834,
      "iber": 2835,
      "ltimately": 2836,
      "going": 2837,
      "Ġpractical": 2838,
      "Ġtax": 2839,
      "Ġsource": 2840,
      "ev": 2841,
      "ocol": 2842,
      "pri": 2843,
      "Ġbeauty": 2844,
      "Ġhot": 2845,
      "Ġkind": 2846,
      "irtual": 2847,
      "earch": 2848,
      "Ġlocation": 2849,
      "ĠPh": 2850,
      "overy": 2851,
      "ĠMed": 2852,
      "Ġwin": 2853,
      "Ġcolors": 2854,
      "olving": 2855,
      "Ġbroader": 2856,
      "Ġcooking": 2857,
      "ounter": 2858,
      "Ġchoose": 2859,
      "Ġclose": 2860,
      "uild": 2861,
      "une": 2862,
      "ĠMan": 2863,
      "hood": 2864,
      "Ġmo": 2865,
      "Ġreturn": 2866,
      "Ġpan": 2867,
      "Ġarticle": 2868,
      "Ġabove": 2869,
      "Ġsince": 2870,
      "Ġdeveloping": 2871,
      "Ġensures": 2872,
      "ĠOne": 2873,
      "Ġchallenging": 2874,
      "Ġnever": 2875,
      "Ġbeneficial": 2876,
      "Ġsleep": 2877,
      "Ġinternational": 2878,
      "Could": 2879,
      "hib": 2880,
      "Ġaway": 2881,
      "Ġlive": 2882,
      "Ġmov": 2883,
      "Ġweek": 2884,
      "ĠAm": 2885,
      "aim": 2886,
      "reg": 2887,
      "Ġarch": 2888,
      "Ġadding": 2889,
      "Ġpsych": 2890,
      "Ġitems": 2891,
      "Ġer": 2892,
      "yle": 2893,
      "Ġopin": 2894,
      "uck": 2895,
      "Ġlink": 2896,
      "Ġprote": 2897,
      "Trans": 2898,
      "Ġboost": 2899,
      "making": 2900,
      "urope": 2901,
      "Ġstudies": 2902,
      "Ġdecisions": 2903,
      "set": 2904,
      "Ġeffort": 2905,
      "Ġpage": 2906,
      "Ġsuper": 2907,
      "Ġseen": 2908,
      "ĠWhile": 2909,
      "ifying": 2910,
      "ĠApp": 2911,
      "cast": 2912,
      "Ġabs": 2913,
      "Ġinnovative": 2914,
      "Ġbrow": 2915,
      "Ġput": 2916,
      "Ġdistribut": 2917,
      "osed": 2918,
      "Ġmatter": 2919,
      "Ġcontain": 2920,
      "head": 2921,
      "hel": 2922,
      "lusive": 2923,
      "Ġsummary": 2924,
      "acks": 2925,
      "Ġflow": 2926,
      "Ġfeelings": 2927,
      "Ġcareer": 2928,
      "Ġsent": 2929,
      "Ġpowerful": 2930,
      "Ġdraw": 2931,
      "Ġfavor": 2932,
      "Ġstandards": 2933,
      "Ġwhy": 2934,
      "but": 2935,
      "ĠTra": 2936,
      "acc": 2937,
      "Ġpollution": 2938,
      "hent": 2939,
      "Ġexcell": 2940,
      "oud": 2941,
      "Ġlever": 2942,
      "Ġfamil": 2943,
      "Ġthereby": 2944,
      "plications": 2945,
      "will": 2946,
      "Ġproblem": 2947,
      "Ġvary": 2948,
      "Ġfrequ": 2949,
      "ules": 2950,
      "Picking": 2951,
      "Ġplanning": 2952,
      "Ġpoem": 2953,
      "arketing": 2954,
      "ened": 2955,
      "//": 2956,
      "Ġwords": 2957,
      "Ġchallenge": 2958,
      "Ġsche": 2959,
      "Ġmechan": 2960,
      "Ġsauce": 2961,
      "sec": 2962,
      "Ġann": 2963,
      "urt": 2964,
      "Ġmor": 2965,
      "Ġcampaigns": 2966,
      "ster": 2967,
      "Ġposition": 2968,
      "Ġalgorith": 2969,
      "ously": 2970,
      "Ġplants": 2971,
      "Ġemissions": 2972,
      "Ġthreat": 2973,
      "Ġresil": 2974,
      "Ġaid": 2975,
      "Write": 2976,
      "Ġextra": 2977,
      "Ġtal": 2978,
      "Ġhaving": 2979,
      "Ġsn": 2980,
      "ĠStates": 2981,
      "Ġrequired": 2982,
      "Ġimage": 2983,
      "Ġconnection": 2984,
      "Ġveh": 2985,
      "ler": 2986,
      "Ġadvertising": 2987,
      "ps": 2988,
      "Ġforms": 2989,
      "tics": 2990,
      "ĠFin": 2991,
      "Ġrefers": 2992,
      "Ġopportunity": 2993,
      "Ġexpert": 2994,
      "amples": 2995,
      "tic": 2996,
      "Ġold": 2997,
      "Ġones": 2998,
      "Ġappropri": 2999,
      "ronic": 3000,
      "Ġbudget": 3001,
      "Ġsite": 3002,
      "olute": 3003,
      "Ġoperations": 3004,
      "ĠJoh": 3005,
      "Ġelectric": 3006,
      "Ġjo": 3007,
      "Ġinvestment": 3008,
      "Ġinstall": 3009,
      "Ġconsequ": 3010,
      "ĠUniversity": 3011,
      "che": 3012,
      "ĠCent": 3013,
      "eds": 3014,
      "aur": 3015,
      "alls": 3016,
      "isms": 3017,
      "Ġplays": 3018,
      "Ġgoing": 3019,
      "Ġfig": 3020,
      "ĠFr": 3021,
      "Ġwild": 3022,
      "Ġrecent": 3023,
      "Ġsituation": 3024,
      "Ġmen": 3025,
      "Ġyet": 3026,
      "Ġge": 3027,
      "Ġexplain": 3028,
      "used": 3029,
      "Ġshared": 3030,
      "icken": 3031,
      "Ġmobile": 3032,
      "ĠAfric": 3033,
      "emember": 3034,
      "avors": 3035,
      "ĠAdd": 3036,
      "Ġsweet": 3037,
      "tra": 3038,
      "ivil": 3039,
      "Ġtaste": 3040,
      "ipment": 3041,
      "Ġrequires": 3042,
      "icious": 3043,
      "Ġflex": 3044,
      "Ġinterests": 3045,
      "Ġinterested": 3046,
      "Ġdest": 3047,
      "Ġremember": 3048,
      "Ġmanaging": 3049,
      "rastructure": 3050,
      "Ġsharing": 3051,
      "Ġsw": 3052,
      "ĠUS": 3053,
      "ured": 3054,
      "Ġdish": 3055,
      "Ġexpand": 3056,
      "Ġexercise": 3057,
      "Ġdeg": 3058,
      "Ġfru": 3059,
      "ĠAll": 3060,
      "Ġcultures": 3061,
      "Ġdom": 3062,
      "Ġinteresting": 3063,
      "Ġforward": 3064,
      "Ġlat": 3065,
      "Ġremind": 3066,
      "ĠWor": 3067,
      "Ġinstitut": 3068,
      "Ġcharacters": 3069,
      "Ġsurround": 3070,
      "Ġcream": 3071,
      "Ġbeliefs": 3072,
      "50": 3073,
      "ilt": 3074,
      "ĠOn": 3075,
      "ison": 3076,
      "rics": 3077,
      "most": 3078,
      "Ġpropos": 3079,
      "Ġinstru": 3080,
      "urance": 3081,
      "ĠYour": 3082,
      "ĠFurthermore": 3083,
      "Ġmeditation": 3084,
      "Ġlimit": 3085,
      "Ġmis": 3086,
      "Ġcool": 3087,
      "Ġviol": 3088,
      "rupt": 3089,
      "itect": 3090,
      "Ġthemselves": 3091,
      "Ġsuggestions": 3092,
      "Ġprofession": 3093,
      "verall": 3094,
      "Ġdifference": 3095,
      "ĠMar": 3096,
      "Ġerr": 3097,
      "Ġtoday": 3098,
      "ĠEurope": 3099,
      "Ġexperienc": 3100,
      "oice": 3101,
      "na": 3102,
      "Ġheav": 3103,
      "etry": 3104,
      "Ġstories": 3105,
      "Ġnear": 3106,
      "Ġfu": 3107,
      "Ġonce": 3108,
      "add": 3109,
      "Ġstream": 3110,
      "elines": 3111,
      "mar": 3112,
      "nal": 3113,
      "ĠGoogle": 3114,
      "Ġsess": 3115,
      "Ġincorporating": 3116,
      "onom": 3117,
      "Ġrate": 3118,
      "Ġagree": 3119,
      "ios": 3120,
      "Ġbehind": 3121,
      "Ġchemical": 3122,
      "Ġhours": 3123,
      "Ġrather": 3124,
      "Ġdescript": 3125,
      "Ġsun": 3126,
      "ĠMoreover": 3127,
      "ĠKe": 3128,
      "Ġfar": 3129,
      "Ġpresence": 3130,
      "Ġdat": 3131,
      "Ġlimited": 3132,
      "Ġhighly": 3133,
      "Ġcreation": 3134,
      "Ġstore": 3135,
      "Ġevidence": 3136,
      "Ġsmooth": 3137,
      "ute": 3138,
      "Ġartists": 3139,
      "Ġparent": 3140,
      "Ġhabit": 3141,
      "Ġdisplay": 3142,
      "Ġshift": 3143,
      "rim": 3144,
      "ension": 3145,
      "icated": 3146,
      "orage": 3147,
      "ĠRep": 3148,
      "house": 3149,
      "Ġdistinct": 3150,
      "Ġsounds": 3151,
      "Ġ9": 3152,
      "ched": 3153,
      "Ġstudent": 3154,
      "Ġillustr": 3155,
      "ĠLe": 3156,
      "Ġconclusion": 3157,
      "Ġwar": 3158,
      "Ġblack": 3159,
      "Ġeveryone": 3160,
      "free": 3161,
      "Ġthemes": 3162,
      "Ġstrength": 3163,
      "Ġconservation": 3164,
      "ifications": 3165,
      "spec": 3166,
      "ĠThrough": 3167,
      "Ġgas": 3168,
      "esign": 3169,
      "Ġlo": 3170,
      "though": 3171,
      "iful": 3172,
      "Ġarray": 3173,
      "Ġseries": 3174,
      "efore": 3175,
      "Ġcollaboration": 3176,
      "ĠReg": 3177,
      "Ġbig": 3178,
      "gen": 3179,
      "Ġsugar": 3180,
      "epend": 3181,
      "Ġpersonalized": 3182,
      "Ġsum": 3183,
      "Ġtesting": 3184,
      "Ġarr": 3185,
      "gram": 3186,
      "Ġexec": 3187,
      "tion": 3188,
      "ĠNational": 3189,
      "rition": 3190,
      "Ġurban": 3191,
      "they": 3192,
      "val": 3193,
      "lines": 3194,
      "ography": 3195,
      "ball": 3196,
      "has": 3197,
      "rug": 3198,
      "ixt": 3199,
      "Ġregion": 3200,
      "att": 3201,
      "Ġfaced": 3202,
      "Ġunc": 3203,
      "overed": 3204,
      "Ġdocument": 3205,
      "spect": 3206,
      "Pro": 3207,
      "ellig": 3208,
      "Ġhar": 3209,
      "Ġaccessible": 3210,
      "Ġauthent": 3211,
      "iples": 3212,
      "Ġnight": 3213,
      "However": 3214,
      "ĠCar": 3215,
      "Ġweight": 3216,
      "Ġclients": 3217,
      "Ġfile": 3218,
      ".,": 3219,
      "Ġsalt": 3220,
      "Ġcollection": 3221,
      "enue": 3222,
      "ĠTheir": 3223,
      "Ġeco": 3224,
      "ready": 3225,
      "Ġadvice": 3226,
      "Ġdamage": 3227,
      "ither": 3228,
      "orough": 3229,
      "Ġhost": 3230,
      "ĠLastly": 3231,
      "Ġcheese": 3232,
      "idents": 3233,
      "ails": 3234,
      "Ġplayers": 3235,
      "ognitive": 3236,
      "yth": 3237,
      "Ġbenefit": 3238,
      "Ġgames": 3239,
      "verse": 3240,
      "oman": 3241,
      "osure": 3242,
      "Ġdays": 3243,
      "Ġlandscape": 3244,
      "Ġscience": 3245,
      "Ġsou": 3246,
      "olutely": 3247,
      "Ġvegetables": 3248,
      "ĠComp": 3249,
      "Ġfour": 3250,
      "Ġsyn": 3251,
      "Ġtraffic": 3252,
      "ai": 3253,
      "encies": 3254,
      "Ġspread": 3255,
      "Ġenab": 3256,
      "acity": 3257,
      "Ġpub": 3258,
      "Ġ200": 3259,
      "Ġstrategic": 3260,
      "Ġfoster": 3261,
      "Ġlack": 3262,
      "Ġaccept": 3263,
      "Ġimag": 3264,
      "room": 3265,
      "Ġmindfulness": 3266,
      "Ġinfrastructure": 3267,
      "Un": 3268,
      "Ġbase": 3269,
      "Ġmark": 3270,
      "unte": 3271,
      "Ġfilm": 3272,
      "Ġalternative": 3273,
      "Ġorganic": 3274,
      "duc": 3275,
      "Ġtrends": 3276,
      "rect": 3277,
      "Ġdifferences": 3278,
      "ĠAfter": 3279,
      "Ġrelax": 3280,
      "inks": 3281,
      "Ġask": 3282,
      "--": 3283,
      "Ġthoughts": 3284,
      "Ġdeb": 3285,
      "Ġsocietal": 3286,
      "Ġaccur": 3287,
      "Ġpressure": 3288,
      "Ġblog": 3289,
      "Ġeasily": 3290,
      "ĠAss": 3291,
      "Ġsho": 3292,
      "comm": 3293,
      "Ġexercises": 3294,
      "Ġplans": 3295,
      "âĢľ": 3296,
      "Ġongoing": 3297,
      "Ġdone": 3298,
      "There": 3299,
      "Ġbuy": 3300,
      "Ġfra": 3301,
      "Ġequipment": 3302,
      "Ġafford": 3303,
      "Ã©": 3304,
      "Ġstra": 3305,
      "Ġanimals": 3306,
      "Ġpeace": 3307,
      "Ġtur": 3308,
      "eria": 3309,
      "Ġdescrib": 3310,
      "ĠChrist": 3311,
      "ediate": 3312,
      "Ġgenerate": 3313,
      "Ġproblems": 3314,
      "ĠRed": 3315,
      "Ġleast": 3316,
      "You": 3317,
      "oved": 3318,
      "Ġcat": 3319,
      "Ġage": 3320,
      "Ġvirtual": 3321,
      "Ġtaken": 3322,
      "Ġfab": 3323,
      "eral": 3324,
      "Ġinnovation": 3325,
      "Ġfocusing": 3326,
      "Ġtouch": 3327,
      "vest": 3328,
      "ww": 3329,
      "Ġaddressing": 3330,
      "athy": 3331,
      "akers": 3332,
      "Ġstands": 3333,
      "augh": 3334,
      "Ġcard": 3335,
      "icip": 3336,
      "Ġmoney": 3337,
      "Ġtim": 3338,
      "Ġnumerous": 3339,
      "Ġimplications": 3340,
      "ags": 3341,
      "Ġbutter": 3342,
      "Ġtemperature": 3343,
      "alf": 3344,
      "Ġcapabilities": 3345,
      "Now": 3346,
      "Ġeconomy": 3347,
      "Ġwhite": 3348,
      "Ġchann": 3349,
      "Spe": 3350,
      "Ġsingle": 3351,
      "rew": 3352,
      "Ġenough": 3353,
      "Ġappear": 3354,
      "Ġfinal": 3355,
      "owl": 3356,
      "Ġremains": 3357,
      "gment": 3358,
      "Ġfeeling": 3359,
      "Ġadvanced": 3360,
      "Ġspecifically": 3361,
      "ils": 3362,
      "bl": 3363,
      "Ġmeasure": 3364,
      "aks": 3365,
      "Ġroutine": 3366,
      "Ġ{": 3367,
      "Ġadded": 3368,
      "Ġsolar": 3369,
      "Ġcreated": 3370,
      "Ġacknow": 3371,
      "Ġofficial": 3372,
      "Ġroles": 3373,
      "Ġpatient": 3374,
      "Ġprotection": 3375,
      "amm": 3376,
      "Ġdry": 3377,
      "Ġrecyc": 3378,
      "Ġimmediate": 3379,
      "ĠPr": 3380,
      "istance": 3381,
      "Ġarchitect": 3382,
      "Ġguidance": 3383,
      "By": 3384,
      "Ġfocused": 3385,
      "Ġseeking": 3386,
      "othing": 3387,
      "Ġrad": 3388,
      "Ġweather": 3389,
      "Ġprotein": 3390,
      "Ġcand": 3391,
      "Ġdoesn": 3392,
      "Ġexcellent": 3393,
      "Ġnetwor": 3394,
      "Ġoriginal": 3395,
      "change": 3396,
      "Ġinstructions": 3397,
      "ĠMay": 3398,
      "ĠCo": 3399,
      "Ġserves": 3400,
      "Ġgreater": 3401,
      "porary": 3402,
      "ĠInt": 3403,
      "Ġreality": 3404,
      "mosp": 3405,
      "Ġimplementing": 3406,
      "Ġconsequences": 3407,
      "Ġsym": 3408,
      "Ġmillion": 3409,
      "Ġqual": 3410,
      "Ġinteractions": 3411,
      "Ġproductivity": 3412,
      "Ġquickly": 3413,
      "Ġroom": 3414,
      "Ġgard": 3415,
      "Ġdepending": 3416,
      "Ġresilience": 3417,
      "Ġdecre": 3418,
      "Ġdesp": 3419,
      "Ġhon": 3420,
      "ĠDespite": 3421,
      "Ġcyc": 3422,
      "oyal": 3423,
      "ume": 3424,
      "Transitioning": 3425,
      "arily": 3426,
      "Ġappropriate": 3427,
      "Ġaimed": 3428,
      "uments": 3429,
      "Ġprinciples": 3430,
      "igating": 3431,
      "EO": 3432,
      "yl": 3433,
      ");": 3434,
      "isp": 3435,
      "text": 3436,
      "Ġregulations": 3437,
      "Ġperspective": 3438,
      "cons": 3439,
      "ilitary": 3440,
      "ager": 3441,
      "ception": 3442,
      "Ġlot": 3443,
      "Ġstorage": 3444,
      "reet": 3445,
      "Ġtopics": 3446,
      "Ġgender": 3447,
      "Ġexploration": 3448,
      "Ġplayed": 3449,
      "Ġembra": 3450,
      "Ġdisease": 3451,
      "Ġopp": 3452,
      "Ġaff": 3453,
      "faction": 3454,
      "Ġblood": 3455,
      "Ġnational": 3456,
      "artment": 3457,
      "effect": 3458,
      "Ġsolution": 3459,
      "12": 3460,
      "iences": 3461,
      "ana": 3462,
      "Ġupon": 3463,
      "Ġhelped": 3464,
      "Ġsports": 3465,
      "Ġnavigate": 3466,
      "Ġplastic": 3467,
      "Ġgradu": 3468,
      "ene": 3469,
      "Ġtakes": 3470,
      "Ġcalc": 3471,
      "Ġbrands": 3472,
      "ĠHealth": 3473,
      "Ġtrue": 3474,
      "Ġspeed": 3475,
      "Ġhouse": 3476,
      "Ġdetect": 3477,
      "rich": 3478,
      "ister": 3479,
      "ĠUs": 3480,
      "Ġresponsible": 3481,
      "ĠChe": 3482,
      "rief": 3483,
      "Ġexploring": 3484,
      "Ġinj": 3485,
      "uff": 3486,
      "iec": 3487,
      "load": 3488,
      "Ġstarted": 3489,
      "Ġfire": 3490,
      "Ġproduce": 3491,
      "ĠRec": 3492,
      "Ġdark": 3493,
      "Ġthorough": 3494,
      "Ġstruct": 3495,
      "Ġmodels": 3496,
      "inst": 3497,
      "Ġprofessionals": 3498,
      "rig": 3499,
      "aced": 3500,
      "Ġsector": 3501,
      "Ġfinding": 3502,
      "umb": 3503,
      "ixture": 3504,
      "leg": 3505,
      "acebook": 3506,
      "ĠCom": 3507,
      "ersonal": 3508,
      "Ġsong": 3509,
      "Ġhyd": 3510,
      "Ġcompared": 3511,
      "Ġfail": 3512,
      "Ġfully": 3513,
      "Ġwond": 3514,
      "Ġchicken": 3515,
      "Ġbrain": 3516,
      "Ġactive": 3517,
      "ĠFl": 3518,
      "Ġpurchase": 3519,
      "ull": 3520,
      "ĠHer": 3521,
      "itely": 3522,
      "erstand": 3523,
      "Ġdisord": 3524,
      "Ġsurv": 3525,
      "Ġentire": 3526,
      "Ġcop": 3527,
      "olic": 3528,
      "cient": 3529,
      "ĠSchool": 3530,
      "Ġbur": 3531,
      "Ġjustice": 3532,
      "Ġatmosp": 3533,
      "enerate": 3534,
      "prof": 3535,
      "Ġhappy": 3536,
      "co": 3537,
      "Ġproperties": 3538,
      "Ġyog": 3539,
      "Ġreceive": 3540,
      "Ġver": 3541,
      "ĠHigh": 3542,
      "Ġ18": 3543,
      "Ġsav": 3544,
      "Ġfair": 3545,
      "ĊĠ": 3546,
      "eration": 3547,
      "ĠMe": 3548,
      "Ġtexture": 3549,
      "Ġschools": 3550,
      "ĠSocial": 3551,
      "ieces": 3552,
      "Ġgetting": 3553,
      "But": 3554,
      "ades": 3555,
      "Ġsupporting": 3556,
      "Ġimproved": 3557,
      "compass": 3558,
      "Ġreligious": 3559,
      "Ġstatement": 3560,
      "Ġbeautiful": 3561,
      "Ġlittle": 3562,
      "Ġ#": 3563,
      "'d": 3564,
      "Ġnotable": 3565,
      "Ġsubstant": 3566,
      "cks": 3567,
      "Ġpatients": 3568,
      "Ġfunctions": 3569,
      "Ġtransp": 3570,
      "ample": 3571,
      "Ġindustries": 3572,
      "down": 3573,
      "Ġdiv": 3574,
      "elligence": 3575,
      "tenance": 3576,
      "Ġanimal": 3577,
      "Ġseem": 3578,
      "ino": 3579,
      "Ġbecame": 3580,
      "Ġfest": 3581,
      "Ġguidelines": 3582,
      "Ġleadership": 3583,
      "ses": 3584,
      "Ġexperiment": 3585,
      "PI": 3586,
      "Ġhighlighting": 3587,
      "And": 3588,
      "Ġbiod": 3589,
      "Ġsummar": 3590,
      "Ġsor": 3591,
      "If": 3592,
      "Ġwood": 3593,
      "Ġsupply": 3594,
      "Ġpepper": 3595,
      "Ġcontributing": 3596,
      "Ġmusc": 3597,
      "ibly": 3598,
      "ccording": 3599,
      "Ġframew": 3600,
      "Ġcalled": 3601,
      "Ġmachine": 3602,
      "Ġbit": 3603,
      "Thanks": 3604,
      "Ġforest": 3605,
      "Ġreson": 3606,
      "Ġsil": 3607,
      "Ġconsidered": 3608,
      "Ġindeed": 3609,
      "Ex": 3610,
      "Ġcompl": 3611,
      "Ġincorporate": 3612,
      "Ġpartnership": 3613,
      "Ġindic": 3614,
      "roll": 3615,
      "Ġstyles": 3616,
      "ĠJohn": 3617,
      "One": 3618,
      "print": 3619,
      "Ġprice": 3620,
      "Ġcomponents": 3621,
      "Ġever": 3622,
      "Ġinformed": 3623,
      "Ġdishes": 3624,
      "Ġdoing": 3625,
      "Ġdepend": 3626,
      "Ġversion": 3627,
      "enses": 3628,
      "ĠAct": 3629,
      "Ġscientific": 3630,
      "Ġadvent": 3631,
      "equ": 3632,
      "ibilities": 3633,
      "minist": 3634,
      "ĠSec": 3635,
      "iar": 3636,
      "ĠIntern": 3637,
      "Ġalready": 3638,
      "Ġcentury": 3639,
      "Ġreve": 3640,
      "Ġeverything": 3641,
      "writ": 3642,
      "Ġfr": 3643,
      "iors": 3644,
      "azing": 3645,
      "Ġgraph": 3646,
      "ĠMake": 3647,
      "inating": 3648,
      "Ġassistance": 3649,
      "year": 3650,
      "Al": 3651,
      "Ġthr": 3652,
      "Ġrecommended": 3653,
      "Ġenhances": 3654,
      "Given": 3655,
      "ressive": 3656,
      "Ġrestaur": 3657,
      "Ġobjectives": 3658,
      "Ġcontrast": 3659,
      "lude": 3660,
      "Ġinteractive": 3661,
      "Ġtask": 3662,
      "Ġnutrition": 3663,
      "Ġwhole": 3664,
      "Ġdeveloped": 3665,
      "step": 3666,
      "Ġhelping": 3667,
      "Ġinstead": 3668,
      "Ġcondition": 3669,
      "ials": 3670,
      "ĠTr": 3671,
      "ĠHis": 3672,
      "ĠCont": 3673,
      "iddle": 3674,
      "Ġsmart": 3675,
      "Ġreput": 3676,
      "Ġfelt": 3677,
      "iox": 3678,
      "Ġtrade": 3679,
      "ĠAg": 3680,
      "ole": 3681,
      "Ġconstruction": 3682,
      "Ġsurface": 3683,
      "empt": 3684,
      "Ġeasier": 3685,
      "using": 3686,
      "Ġinfluenced": 3687,
      "Ġmonitoring": 3688,
      "aker": 3689,
      "Ġlatest": 3690,
      "Lastly": 3691,
      "Ġcases": 3692,
      "Ġhandle": 3693,
      "enn": 3694,
      "Ġimplemented": 3695,
      "Ġteac": 3696,
      "amb": 3697,
      "Ġprompt": 3698,
      "ipl": 3699,
      "Ġachieving": 3700,
      "Ġlab": 3701,
      "Ġmag": 3702,
      "ĠSo": 3703,
      "Ġbecomes": 3704,
      "Ġclar": 3705,
      "gest": 3706,
      "Ġintric": 3707,
      "Ġstatus": 3708,
      "ĠSm": 3709,
      "Ġopinions": 3710,
      "Ġproperty": 3711,
      "Ġ0": 3712,
      "Ġwebsites": 3713,
      "Ġhair": 3714,
      "Ġhol": 3715,
      "ĠSouth": 3716,
      "iles": 3717,
      "Ġtable": 3718,
      "apan": 3719,
      "Ġadvancements": 3720,
      "vis": 3721,
      "Ġcontem": 3722,
      "Ġvideos": 3723,
      "Ġincluded": 3724,
      "agram": 3725,
      "Ġcrop": 3726,
      "Ġcognitive": 3727,
      "Ġscreen": 3728,
      "Ġeither": 3729,
      "water": 3730,
      "Ġdeath": 3731,
      "Ġmixture": 3732,
      "Speaking": 3733,
      "Ġmemory": 3734,
      "eth": 3735,
      "Ġappl": 3736,
      "30": 3737,
      "Ġrein": 3738,
      "ma": 3739,
      "Ġshape": 3740,
      "Ġshows": 3741,
      "cript": 3742,
      "Ġconsult": 3743,
      "lights": 3744,
      "rench": 3745,
      "axim": 3746,
      "Ġregul": 3747,
      "Ġsettings": 3748,
      "ands": 3749,
      "Ġincome": 3750,
      "Ġcapacity": 3751,
      "Ġrobust": 3752,
      "ĠWorld": 3753,
      "Ġju": 3754,
      "Ġtailored": 3755,
      "look": 3756,
      "urch": 3757,
      "ifies": 3758,
      "ĠFacebook": 3759,
      "ĠCal": 3760,
      "ĠResearch": 3761,
      "15": 3762,
      "Ġregions": 3763,
      "itam": 3764,
      "ceed": 3765,
      "Ġrefer": 3766,
      "Ġcreativity": 3767,
      "Ġreact": 3768,
      "Ġteams": 3769,
      "Ġenabling": 3770,
      "Ġfat": 3771,
      "anging": 3772,
      "ung": 3773,
      "Ġdespite": 3774,
      "ĠX": 3775,
      "iding": 3776,
      "antly": 3777,
      "uilding": 3778,
      "Ġslow": 3779,
      "Ġenvironments": 3780,
      "Ġlarger": 3781,
      "Ġstarting": 3782,
      "Ġperspectives": 3783,
      "col": 3784,
      "Ġdatab": 3785,
      "mat": 3786,
      "Ġdynamic": 3787,
      "aren": 3788,
      "ĠOnce": 3789,
      "ulner": 3790,
      "Ġintegration": 3791,
      "Ġvibr": 3792,
      "Ġbooks": 3793,
      "Ġegg": 3794,
      "erving": 3795,
      "ĠAlso": 3796,
      "Ġfish": 3797,
      "Ġdepression": 3798,
      "Ġitself": 3799,
      "Ġconsumption": 3800,
      "Ġdrug": 3801,
      "Ġsubs": 3802,
      "Ġabilities": 3803,
      "Ġecosystems": 3804,
      "Ġsatisfaction": 3805,
      "sis": 3806,
      "ners": 3807,
      "Ġconsumers": 3808,
      "Ġcou": 3809,
      "Ġoccur": 3810,
      "Ġconflict": 3811,
      "itle": 3812,
      "Ġresource": 3813,
      "Ġprioritize": 3814,
      "amer": 3815,
      "Ġstaff": 3816,
      "Ġemployee": 3817,
      "atoes": 3818,
      "Ġthus": 3819,
      "Ġmilitary": 3820,
      "Ġcul": 3821,
      "Ġgrowing": 3822,
      "Ġformat": 3823,
      "Ġprivacy": 3824,
      "Ġdepth": 3825,
      "ĠSim": 3826,
      "Ġaffected": 3827,
      "Ġreviews": 3828,
      "Ġlibr": 3829,
      "Ġupdates": 3830,
      "Ġexhib": 3831,
      "Do": 3832,
      "wide": 3833,
      "Ġultimately": 3834,
      "Ġfall": 3835,
      "ĠDr": 3836,
      "bor": 3837,
      "chol": 3838,
      "Ġvolunte": 3839,
      "what": 3840,
      "Ġlaws": 3841,
      "rought": 3842,
      "Ġexpected": 3843,
      "zing": 3844,
      "Ġfitness": 3845,
      "Ġmeal": 3846,
      "Ġsituations": 3847,
      "Ġexisting": 3848,
      "ĠOff": 3849,
      "bsolutely": 3850,
      "Ġnutri": 3851,
      "Ġreaders": 3852,
      "ĠStud": 3853,
      "words": 3854,
      "oint": 3855,
      "det": 3856,
      "ĠPart": 3857,
      "Ġworkplace": 3858,
      "Ġbasic": 3859,
      "Ġpieces": 3860,
      "there": 3861,
      "reme": 3862,
      "iff": 3863,
      "Ġnor": 3864,
      "door": 3865,
      "Ġdelicious": 3866,
      "Ġdress": 3867,
      "Ġdeliver": 3868,
      "mission": 3869,
      "useum": 3870,
      "Ġinternet": 3871,
      "Ġcontributions": 3872,
      "Ġeye": 3873,
      "Ġliterature": 3874,
      "Ġreduction": 3875,
      "Ġexpertise": 3876,
      "Ġconsumer": 3877,
      "Moreover": 3878,
      "Ġtook": 3879,
      "Ġjud": 3880,
      "Ġcorrect": 3881,
      "Ġfear": 3882,
      "Ġbaking": 3883,
      "ptoms": 3884,
      "key": 3885,
      "Ġmicro": 3886,
      "chnology": 3887,
      "Ġsqu": 3888,
      "Ġtruly": 3889,
      "Ġinsight": 3890,
      "Ġusage": 3891,
      "asons": 3892,
      "ĠGl": 3893,
      "ĠCommun": 3894,
      "gr": 3895,
      "dule": 3896,
      "Ġwrite": 3897,
      "Ġcivil": 3898,
      "ĠNot": 3899,
      "Ġdeeply": 3900,
      "Ġrespond": 3901,
      ",âĢĿ": 3902,
      "Ġvoice": 3903,
      "Ġworkers": 3904,
      "Ġmilk": 3905,
      "Ġbegan": 3906,
      "rest": 3907,
      "ask": 3908,
      "Ġvict": 3909,
      "Here": 3910,
      "Ġconsistent": 3911,
      "Ġdetermine": 3912,
      "Ġwa": 3913,
      "ivery": 3914,
      "ales": 3915,
      "En": 3916,
      "ĠAt": 3917,
      "Ġprefer": 3918,
      "Ġlonger": 3919,
      "hips": 3920,
      "cious": 3921,
      "Ġlaun": 3922,
      "Ġpercent": 3923,
      "Ġtechnique": 3924,
      "Ġspiritual": 3925,
      "Ġcenter": 3926,
      "Ġmitigate": 3927,
      "where": 3928,
      "Ġbowl": 3929,
      "Ġfamilies": 3930,
      "Ġdevice": 3931,
      "poon": 3932,
      "ĠDon": 3933,
      "Ġtrying": 3934,
      "see": 3935,
      "Ġsuitable": 3936,
      "Ġtechnical": 3937,
      "ocal": 3938,
      "Ġcert": 3939,
      "ocolate": 3940,
      "Ġparts": 3941,
      "Ġoutside": 3942,
      "fficient": 3943,
      "Ġir": 3944,
      "Ġimplementation": 3945,
      "osition": 3946,
      "Ġtracking": 3947,
      "Ġcoff": 3948,
      "Ġresponsibility": 3949,
      "Ġstandard": 3950,
      "iers": 3951,
      "Ġblock": 3952,
      "ox": 3953,
      "Ġintervent": 3954,
      "arian": 3955,
      "Ġdedicated": 3956,
      "izz": 3957,
      "Ġatmosphere": 3958,
      "Ġ30": 3959,
      "thetic": 3960,
      "Ġgarlic": 3961,
      "right": 3962,
      "Ġclaim": 3963,
      "Res": 3964,
      "iration": 3965,
      "ams": 3966,
      "ipped": 3967,
      "Ġlater": 3968,
      "Ġtot": 3969,
      "Ġconversation": 3970,
      "Int": 3971,
      "Absolutely": 3972,
      "Ġvari": 3973,
      "Ġsummarize": 3974,
      "Ġsepar": 3975,
      "Ġmaintenance": 3976,
      "Ġtheme": 3977,
      "Ġconnections": 3978,
      "idge": 3979,
      "ĠDep": 3980,
      "cean": 3981,
      "bet": 3982,
      "ament": 3983,
      "Ġmedium": 3984,
      "Ġdial": 3985,
      "Ġelev": 3986,
      "Ġexpectations": 3987,
      "Ġmarine": 3988,
      "Ġchoices": 3989,
      "Of": 3990,
      "ĠOur": 3991,
      "Ġfavorite": 3992,
      "Ġideal": 3993,
      "Ġvulner": 3994,
      "ength": 3995,
      "Ġbound": 3996,
      "Ġprivate": 3997,
      "Ġfunding": 3998,
      "verage": 3999,
      "Ġbelow": 4000,
      "Ġthird": 4001,
      "ĠDevelop": 4002,
      "Ġreduced": 4003,
      "Ġmedic": 4004,
      "inter": 4005,
      "help": 4006,
      "Ġans": 4007,
      "Ġexposure": 4008,
      "Ġclient": 4009,
      "Ġcoffee": 4010,
      "AR": 4011,
      "Ġesc": 4012,
      "Ġbelieve": 4013,
      "ux": 4014,
      "vere": 4015,
      "Ġfasc": 4016,
      "ĠMany": 4017,
      "Ġcateg": 4018,
      "which": 4019,
      "Ġgather": 4020,
      "Ġacqu": 4021,
      "olved": 4022,
      "Ġmaxim": 4023,
      "Ġagriculture": 4024,
      "plement": 4025,
      "Ġvalid": 4026,
      "orporate": 4027,
      "Ġpopulation": 4028,
      "Ġdrive": 4029,
      "Ġrecognition": 4030,
      "Ġserving": 4031,
      "Ġelement": 4032,
      "Ġparents": 4033,
      "ĠWar": 4034,
      "ares": 4035,
      "Ġseek": 4036,
      "Ġpric": 4037,
      "Ġfabric": 4038,
      "Ġadvantages": 4039,
      "uries": 4040,
      "ule": 4041,
      "Ġaims": 4042,
      "Ġcompetitive": 4043,
      "Ġprocessing": 4044,
      "\",": 4045,
      "Ġbond": 4046,
      "Ġthinking": 4047,
      "Ġrelease": 4048,
      "Ġblend": 4049,
      "Ġcit": 4050,
      "Ġsection": 4051,
      "):": 4052,
      "18": 4053,
      "When": 4054,
      "irl": 4055,
      "Ġphone": 4056,
      "Ġalongside": 4057,
      "specific": 4058,
      "Ġleads": 4059,
      "ĠJapan": 4060,
      "examples": 4061,
      "ĠAust": 4062,
      "urer": 4063,
      "Ġdeal": 4064,
      "Ġ12": 4065,
      "asting": 4066,
      "Ġpsychological": 4067,
      "Ġsymptoms": 4068,
      "Ġdesigns": 4069,
      "odies": 4070,
      "ĠAv": 4071,
      "Ġcollege": 4072,
      "fortun": 4073,
      "Ġimprovement": 4074,
      "Ġrecognize": 4075,
      "Ġencouraging": 4076,
      "Ġpict": 4077,
      "Ġcompetition": 4078,
      "Ġbatter": 4079,
      "Ġpoetry": 4080,
      "Ġcraft": 4081,
      "Ġbarri": 4082,
      "ĠGu": 4083,
      "Ġcapital": 4084,
      "Ġmood": 4085,
      "Ġcontinues": 4086,
      "Ġwritten": 4087,
      "Ġmeat": 4088,
      "Ġreading": 4089,
      "Ġcells": 4090,
      "Ġinterp": 4091,
      "Ġamb": 4092,
      "Ġflour": 4093,
      "Generate": 4094,
      "Ġhighlights": 4095
    },
    "merges": [
      [
        "Ġ",
        "t"
      ],
      [
        "i",
        "n"
      ],
      [
        "Ġ",
        "a"
      ],
      [
        "h",
        "e"
      ],
      [
        "r",
        "e"
      ],
      [
        "o",
        "n"
      ],
      [
        "a",
        "t"
      ],
      [
        "e",
        "r"
      ],
      [
        "Ġ",
        "s"
      ],
      [
        "Ġt",
        "he"
      ],
      [
        "e",
        "n"
      ],
      [
        "Ġ",
        "c"
      ],
      [
        "e",
        "s"
      ],
      [
        "o",
        "r"
      ],
      [
        "in",
        "g"
      ],
      [
        "i",
        "t"
      ],
      [
        "n",
        "d"
      ],
      [
        "a",
        "l"
      ],
      [
        "Ġ",
        "p"
      ],
      [
        "o",
        "u"
      ],
      [
        "a",
        "n"
      ],
      [
        "i",
        "s"
      ],
      [
        "Ġ",
        "o"
      ],
      [
        "Ġ",
        "f"
      ],
      [
        "Ġ",
        "w"
      ],
      [
        "Ġa",
        "nd"
      ],
      [
        "i",
        "on"
      ],
      [
        "Ġ",
        "in"
      ],
      [
        "i",
        "c"
      ],
      [
        "Ġ",
        "m"
      ],
      [
        "Ġt",
        "o"
      ],
      [
        "Ġ",
        "b"
      ],
      [
        "e",
        "d"
      ],
      [
        "a",
        "r"
      ],
      [
        "Ġo",
        "f"
      ],
      [
        "Ġ",
        "d"
      ],
      [
        "r",
        "o"
      ],
      [
        "l",
        "e"
      ],
      [
        "en",
        "t"
      ],
      [
        "c",
        "t"
      ],
      [
        "s",
        "t"
      ],
      [
        "Ġ",
        "e"
      ],
      [
        "Ġ",
        "re"
      ],
      [
        "o",
        "m"
      ],
      [
        "v",
        "e"
      ],
      [
        "Ġ",
        "h"
      ],
      [
        "i",
        "l"
      ],
      [
        "a",
        "s"
      ],
      [
        "Ġt",
        "h"
      ],
      [
        "at",
        "ion"
      ],
      [
        "e",
        "t"
      ],
      [
        "l",
        "y"
      ],
      [
        "Ġ",
        "l"
      ],
      [
        "c",
        "e"
      ],
      [
        "i",
        "m"
      ],
      [
        "i",
        "d"
      ],
      [
        "Ġ",
        "y"
      ],
      [
        "r",
        "a"
      ],
      [
        "i",
        "g"
      ],
      [
        "o",
        "l"
      ],
      [
        "s",
        "e"
      ],
      [
        "c",
        "h"
      ],
      [
        "Ġ",
        "n"
      ],
      [
        "Ġf",
        "or"
      ],
      [
        "Ġy",
        "ou"
      ],
      [
        "Ġ",
        "g"
      ],
      [
        "o",
        "t"
      ],
      [
        "Ġ",
        "u"
      ],
      [
        "Ġp",
        "ro"
      ],
      [
        "o",
        "w"
      ],
      [
        "Ġ",
        "is"
      ],
      [
        "Ġ",
        "T"
      ],
      [
        "Ġ",
        "on"
      ],
      [
        "er",
        "s"
      ],
      [
        "Ġs",
        "t"
      ],
      [
        "u",
        "r"
      ],
      [
        "i",
        "r"
      ],
      [
        "it",
        "h"
      ],
      [
        "i",
        "f"
      ],
      [
        "es",
        "s"
      ],
      [
        "u",
        "t"
      ],
      [
        "m",
        "ent"
      ],
      [
        "Ġc",
        "on"
      ],
      [
        "Ġth",
        "at"
      ],
      [
        "u",
        "l"
      ],
      [
        "e",
        "l"
      ],
      [
        "Ġw",
        "ith"
      ],
      [
        "Ġb",
        "e"
      ],
      [
        "Ġ",
        "or"
      ],
      [
        "v",
        "er"
      ],
      [
        "a",
        "m"
      ],
      [
        "a",
        "b"
      ],
      [
        "at",
        "e"
      ],
      [
        "Ġs",
        "u"
      ],
      [
        "Ġ",
        "I"
      ],
      [
        "a",
        "y"
      ],
      [
        "Ġ",
        "he"
      ],
      [
        "it",
        "y"
      ],
      [
        "i",
        "ve"
      ],
      [
        "a",
        "g"
      ],
      [
        "Ġe",
        "x"
      ],
      [
        "Ġ",
        "en"
      ],
      [
        "a",
        "d"
      ],
      [
        "Ġ",
        "it"
      ],
      [
        "i",
        "v"
      ],
      [
        "i",
        "es"
      ],
      [
        "i",
        "al"
      ],
      [
        "Ġc",
        "om"
      ],
      [
        "Ġc",
        "an"
      ],
      [
        "u",
        "re"
      ],
      [
        "Ġa",
        "s"
      ],
      [
        "Ġ",
        "A"
      ],
      [
        "Ġa",
        "n"
      ],
      [
        "o",
        "re"
      ],
      [
        "Ġa",
        "re"
      ],
      [
        "t",
        "he"
      ],
      [
        "'",
        "s"
      ],
      [
        "e",
        "ct"
      ],
      [
        "Ġ",
        "S"
      ],
      [
        "p",
        "p"
      ],
      [
        "u",
        "s"
      ],
      [
        "t",
        "h"
      ],
      [
        "Ġa",
        "l"
      ],
      [
        "Ġ",
        "v"
      ],
      [
        "Ġ",
        "C"
      ],
      [
        "a",
        "c"
      ],
      [
        "a",
        "nd"
      ],
      [
        "o",
        "c"
      ],
      [
        "Ġd",
        "e"
      ],
      [
        "k",
        "e"
      ],
      [
        "or",
        "t"
      ],
      [
        "q",
        "u"
      ],
      [
        "ou",
        "r"
      ],
      [
        "a",
        "in"
      ],
      [
        "o",
        "d"
      ],
      [
        "ou",
        "t"
      ],
      [
        "t",
        "er"
      ],
      [
        "an",
        "t"
      ],
      [
        "ig",
        "h"
      ],
      [
        "e",
        "re"
      ],
      [
        "Ġw",
        "h"
      ],
      [
        "is",
        "t"
      ],
      [
        "Ġyou",
        "r"
      ],
      [
        "ĠT",
        "he"
      ],
      [
        "Ġ",
        "im"
      ],
      [
        "es",
        "t"
      ],
      [
        "e",
        "m"
      ],
      [
        "u",
        "d"
      ],
      [
        "i",
        "z"
      ],
      [
        "u",
        "n"
      ],
      [
        "o",
        "p"
      ],
      [
        "ion",
        "s"
      ],
      [
        "re",
        "s"
      ],
      [
        "Ġc",
        "h"
      ],
      [
        "Ġ",
        "le"
      ],
      [
        "p",
        "l"
      ],
      [
        "f",
        "or"
      ],
      [
        "e",
        "c"
      ],
      [
        "Ġa",
        "d"
      ],
      [
        "Ġthe",
        "ir"
      ],
      [
        "d",
        "u"
      ],
      [
        "il",
        "l"
      ],
      [
        "l",
        "d"
      ],
      [
        "o",
        "s"
      ],
      [
        "ro",
        "m"
      ],
      [
        "id",
        "e"
      ],
      [
        "f",
        "f"
      ],
      [
        "i",
        "p"
      ],
      [
        "Ġ",
        "M"
      ],
      [
        "a",
        "ct"
      ],
      [
        "Ġim",
        "p"
      ],
      [
        "n",
        "t"
      ],
      [
        "Ġs",
        "p"
      ],
      [
        "ic",
        "al"
      ],
      [
        "ag",
        "e"
      ],
      [
        "u",
        "m"
      ],
      [
        "e",
        "w"
      ],
      [
        "Ġ",
        "P"
      ],
      [
        "an",
        "ce"
      ],
      [
        "t",
        "o"
      ],
      [
        "om",
        "e"
      ],
      [
        "igh",
        "t"
      ],
      [
        "p",
        "er"
      ],
      [
        "Ġ",
        "H"
      ],
      [
        "Ġ",
        "r"
      ],
      [
        "a",
        "ve"
      ],
      [
        "Ġ",
        "B"
      ],
      [
        "Ġs",
        "h"
      ],
      [
        "ig",
        "n"
      ],
      [
        "ab",
        "le"
      ],
      [
        "o",
        "g"
      ],
      [
        "i",
        "b"
      ],
      [
        "Ġb",
        "y"
      ],
      [
        "ar",
        "t"
      ],
      [
        "Ġf",
        "rom"
      ],
      [
        "u",
        "st"
      ],
      [
        "k",
        "ing"
      ],
      [
        "Ġin",
        "c"
      ],
      [
        "ation",
        "s"
      ],
      [
        "a",
        "re"
      ],
      [
        "Ġcon",
        "t"
      ],
      [
        "al",
        "l"
      ],
      [
        "r",
        "ou"
      ],
      [
        "for",
        "m"
      ],
      [
        "Ġcom",
        "p"
      ],
      [
        "en",
        "d"
      ],
      [
        "Ġp",
        "l"
      ],
      [
        "if",
        "ic"
      ],
      [
        "p",
        "t"
      ],
      [
        "Ġw",
        "e"
      ],
      [
        "Ġu",
        "s"
      ],
      [
        "r",
        "u"
      ],
      [
        "Ġm",
        "ore"
      ],
      [
        "Ġa",
        "t"
      ],
      [
        "Ġs",
        "e"
      ],
      [
        "Ġw",
        "or"
      ],
      [
        "ou",
        "ld"
      ],
      [
        "Ġt",
        "e"
      ],
      [
        "â",
        "Ģ"
      ],
      [
        "Ġa",
        "b"
      ],
      [
        "en",
        "ce"
      ],
      [
        "a",
        "st"
      ],
      [
        "ar",
        "d"
      ],
      [
        "Ġm",
        "e"
      ],
      [
        "Ġn",
        "ot"
      ],
      [
        "c",
        "c"
      ],
      [
        "g",
        "e"
      ],
      [
        "Ġh",
        "ave"
      ],
      [
        "in",
        "e"
      ],
      [
        "W",
        "h"
      ],
      [
        "Ġ",
        "F"
      ],
      [
        "ĠT",
        "h"
      ],
      [
        "the",
        "r"
      ],
      [
        "g",
        "h"
      ],
      [
        "Ġd",
        "is"
      ],
      [
        "it",
        "ion"
      ],
      [
        "ac",
        "k"
      ],
      [
        "Ġpro",
        "v"
      ],
      [
        "Ġre",
        "s"
      ],
      [
        "ou",
        "s"
      ],
      [
        "Ġ",
        "E"
      ],
      [
        "ul",
        "t"
      ],
      [
        "Ġ",
        "D"
      ],
      [
        "c",
        "es"
      ],
      [
        "s",
        "o"
      ],
      [
        "Ġ",
        "R"
      ],
      [
        "o",
        "st"
      ],
      [
        "he",
        "r"
      ],
      [
        "an",
        "s"
      ],
      [
        "re",
        "at"
      ],
      [
        "Ġa",
        "pp"
      ],
      [
        "Wh",
        "at"
      ],
      [
        "el",
        "l"
      ],
      [
        "Ġ",
        "Ġ"
      ],
      [
        "Ġe",
        "m"
      ],
      [
        "a",
        "il"
      ],
      [
        "a",
        "v"
      ],
      [
        "u",
        "al"
      ],
      [
        "a",
        "ch"
      ],
      [
        "ic",
        "h"
      ],
      [
        "ĠTh",
        "is"
      ],
      [
        "e",
        "p"
      ],
      [
        "res",
        "s"
      ],
      [
        "in",
        "d"
      ],
      [
        "Ġ",
        "L"
      ],
      [
        "r",
        "y"
      ],
      [
        "*",
        "*"
      ],
      [
        "Ġal",
        "so"
      ],
      [
        "ve",
        "l"
      ],
      [
        "Ġ",
        "\""
      ],
      [
        "o",
        "o"
      ],
      [
        "a",
        "p"
      ],
      [
        "at",
        "ed"
      ],
      [
        "ic",
        "e"
      ],
      [
        "Ġ",
        "j"
      ],
      [
        "Ġ",
        "W"
      ],
      [
        "Ġn",
        "e"
      ],
      [
        "a",
        "ke"
      ],
      [
        "Ġs",
        "ome"
      ],
      [
        "Ġe",
        "ff"
      ],
      [
        "Ġcom",
        "m"
      ],
      [
        "o",
        "f"
      ],
      [
        "Ġw",
        "he"
      ],
      [
        "Ġh",
        "ow"
      ],
      [
        "ct",
        "ion"
      ],
      [
        "Ġth",
        "is"
      ],
      [
        "k",
        "s"
      ],
      [
        "r",
        "i"
      ],
      [
        "Ġw",
        "as"
      ],
      [
        "T",
        "he"
      ],
      [
        "ent",
        "s"
      ],
      [
        "i",
        "re"
      ],
      [
        "it",
        "ies"
      ],
      [
        "Ġof",
        "f"
      ],
      [
        "Ġ",
        "G"
      ],
      [
        "l",
        "ud"
      ],
      [
        "it",
        "e"
      ],
      [
        "ar",
        "y"
      ],
      [
        "i",
        "ke"
      ],
      [
        "l",
        "p"
      ],
      [
        "as",
        "e"
      ],
      [
        "Ġc",
        "l"
      ],
      [
        "Ġu",
        "n"
      ],
      [
        "Ġh",
        "as"
      ],
      [
        "on",
        "g"
      ],
      [
        "Ġt",
        "ra"
      ],
      [
        "at",
        "ing"
      ],
      [
        "Ġthe",
        "se"
      ],
      [
        "ar",
        "k"
      ],
      [
        "Ġm",
        "an"
      ],
      [
        "or",
        "s"
      ],
      [
        "il",
        "ity"
      ],
      [
        "ment",
        "s"
      ],
      [
        "i",
        "a"
      ],
      [
        "Ġin",
        "t"
      ],
      [
        "Ġb",
        "ut"
      ],
      [
        "Ġab",
        "out"
      ],
      [
        "Ġal",
        "l"
      ],
      [
        "Ġhe",
        "lp"
      ],
      [
        "er",
        "v"
      ],
      [
        "o",
        "od"
      ],
      [
        "u",
        "e"
      ],
      [
        "Ġp",
        "re"
      ],
      [
        "Ġ",
        "our"
      ],
      [
        "Ġad",
        "d"
      ],
      [
        "Ġa",
        "cc"
      ],
      [
        "Ġre",
        "c"
      ],
      [
        "at",
        "er"
      ],
      [
        "Ġ",
        "N"
      ],
      [
        "Ġwh",
        "ich"
      ],
      [
        "Ġthe",
        "y"
      ],
      [
        "f",
        "ul"
      ],
      [
        "Ġe",
        "v"
      ],
      [
        "al",
        "th"
      ],
      [
        "Ġinc",
        "lud"
      ],
      [
        "as",
        "s"
      ],
      [
        "Ġsu",
        "ch"
      ],
      [
        "Ġ",
        "1"
      ],
      [
        "e",
        "f"
      ],
      [
        "a",
        "ce"
      ],
      [
        "Ġa",
        "r"
      ],
      [
        "Ġf",
        "e"
      ],
      [
        "Ġit",
        "s"
      ],
      [
        "Ġo",
        "ther"
      ],
      [
        "i",
        "le"
      ],
      [
        "Ġin",
        "to"
      ],
      [
        "Ġ",
        "("
      ],
      [
        "Ġ",
        "out"
      ],
      [
        "Ġ",
        "ro"
      ],
      [
        "an",
        "g"
      ],
      [
        "im",
        "e"
      ],
      [
        "i",
        "ous"
      ],
      [
        "Ġ",
        "O"
      ],
      [
        "Ġsp",
        "ec"
      ],
      [
        "rou",
        "gh"
      ],
      [
        "Ġp",
        "er"
      ],
      [
        "Ġ",
        "U"
      ],
      [
        "pp",
        "ort"
      ],
      [
        "âĢ",
        "Ļ"
      ],
      [
        "Ġu",
        "p"
      ],
      [
        "Ġcon",
        "s"
      ],
      [
        "Ġprov",
        "ide"
      ],
      [
        "f",
        "ere"
      ],
      [
        "e",
        "ar"
      ],
      [
        "Ġl",
        "ike"
      ],
      [
        "Ġt",
        "r"
      ],
      [
        "Ġ",
        "qu"
      ],
      [
        "Ġthe",
        "m"
      ],
      [
        "n",
        "ing"
      ],
      [
        "Ġs",
        "ign"
      ],
      [
        "Ġo",
        "ver"
      ],
      [
        "Ġu",
        "nd"
      ],
      [
        "ic",
        "es"
      ],
      [
        "Ġs",
        "c"
      ],
      [
        "ent",
        "ial"
      ],
      [
        "al",
        "ly"
      ],
      [
        "Ġd",
        "o"
      ],
      [
        "l",
        "ic"
      ],
      [
        "Ġp",
        "art"
      ],
      [
        "ĠI",
        "n"
      ],
      [
        "Ġs",
        "oc"
      ],
      [
        "i",
        "ence"
      ],
      [
        "ol",
        "og"
      ],
      [
        "form",
        "ation"
      ],
      [
        "Ġ",
        "k"
      ],
      [
        "Ġw",
        "ill"
      ],
      [
        "ĠI",
        "t"
      ],
      [
        "r",
        "it"
      ],
      [
        "Ġhe",
        "alth"
      ],
      [
        "on",
        "e"
      ],
      [
        "or",
        "y"
      ],
      [
        "t",
        "ain"
      ],
      [
        "Ġd",
        "es"
      ],
      [
        "ure",
        "s"
      ],
      [
        "at",
        "ive"
      ],
      [
        "Ġ",
        "2"
      ],
      [
        "t",
        "ing"
      ],
      [
        "Ġp",
        "ers"
      ],
      [
        "Ġex",
        "per"
      ],
      [
        "ra",
        "ct"
      ],
      [
        "ur",
        "ing"
      ],
      [
        "x",
        "t"
      ],
      [
        "en",
        "s"
      ],
      [
        "a",
        "k"
      ],
      [
        "o",
        "ver"
      ],
      [
        "i",
        "e"
      ],
      [
        "ra",
        "m"
      ],
      [
        "at",
        "es"
      ],
      [
        "ol",
        "l"
      ],
      [
        "ou",
        "nd"
      ],
      [
        "Ġin",
        "d"
      ],
      [
        "r",
        "ic"
      ],
      [
        "Ġpro",
        "du"
      ],
      [
        "ch",
        "n"
      ],
      [
        "Ġdis",
        "c"
      ],
      [
        "a",
        "king"
      ],
      [
        "Ġin",
        "v"
      ],
      [
        "ou",
        "nt"
      ],
      [
        "Ġan",
        "y"
      ],
      [
        "l",
        "es"
      ],
      [
        "o",
        "b"
      ],
      [
        "o",
        "y"
      ],
      [
        "Ġs",
        "y"
      ],
      [
        "Ġd",
        "if"
      ],
      [
        "Ġin",
        "ter"
      ],
      [
        "Ġst",
        "r"
      ],
      [
        "an",
        "c"
      ],
      [
        "Ġcomm",
        "un"
      ],
      [
        "o",
        "se"
      ],
      [
        "Ġm",
        "ed"
      ],
      [
        "Ġu",
        "se"
      ],
      [
        "Ġsign",
        "ific"
      ],
      [
        "u",
        "b"
      ],
      [
        "Ġth",
        "rough"
      ],
      [
        "ay",
        "s"
      ],
      [
        "Ġwor",
        "k"
      ],
      [
        "Ġre",
        "l"
      ],
      [
        "Ġhe",
        "r"
      ],
      [
        "g",
        "et"
      ],
      [
        "or",
        "d"
      ],
      [
        "Ġund",
        "er"
      ],
      [
        "vel",
        "op"
      ],
      [
        "il",
        "d"
      ],
      [
        "Ġeff",
        "ect"
      ],
      [
        "Ġin",
        "formation"
      ],
      [
        "w",
        "e"
      ],
      [
        "o",
        "ve"
      ],
      [
        "Ġb",
        "ack"
      ],
      [
        "le",
        "ct"
      ],
      [
        "Ġa",
        "ct"
      ],
      [
        "it",
        "s"
      ],
      [
        "Ġ",
        "J"
      ],
      [
        "C",
        "an"
      ],
      [
        "c",
        "ess"
      ],
      [
        "on",
        "s"
      ],
      [
        "p",
        "h"
      ],
      [
        "p",
        "ect"
      ],
      [
        "n",
        "ow"
      ],
      [
        "t",
        "s"
      ],
      [
        "n",
        "s"
      ],
      [
        "ur",
        "al"
      ],
      [
        "ing",
        "s"
      ],
      [
        "as",
        "ed"
      ],
      [
        "Ġn",
        "ew"
      ],
      [
        "iz",
        "e"
      ],
      [
        "Ġte",
        "chn"
      ],
      [
        "c",
        "om"
      ],
      [
        "o",
        "v"
      ],
      [
        "is",
        "h"
      ],
      [
        "j",
        "ect"
      ],
      [
        "Ġex",
        "am"
      ],
      [
        "n",
        "ess"
      ],
      [
        "ark",
        "et"
      ],
      [
        "ul",
        "ar"
      ],
      [
        "en",
        "c"
      ],
      [
        "Ġwh",
        "o"
      ],
      [
        "Ġre",
        "g"
      ],
      [
        "oo",
        "k"
      ],
      [
        "Ġp",
        "r"
      ],
      [
        "Ġpers",
        "on"
      ],
      [
        "st",
        "em"
      ],
      [
        "Ġne",
        "ed"
      ],
      [
        "i",
        "et"
      ],
      [
        "Ġimp",
        "act"
      ],
      [
        "t",
        "e"
      ],
      [
        "ic",
        "s"
      ],
      [
        "er",
        "g"
      ],
      [
        "Ġv",
        "ar"
      ],
      [
        "g",
        "an"
      ],
      [
        "Ġd",
        "et"
      ],
      [
        "on",
        "d"
      ],
      [
        "l",
        "l"
      ],
      [
        "b",
        "s"
      ],
      [
        "re",
        "e"
      ],
      [
        "al",
        "s"
      ],
      [
        "ro",
        "w"
      ],
      [
        "Ġp",
        "e"
      ],
      [
        "Ġs",
        "erv"
      ],
      [
        "Ġt",
        "ime"
      ],
      [
        "Ġen",
        "s"
      ],
      [
        "am",
        "e"
      ],
      [
        "Ġwhe",
        "re"
      ],
      [
        "ar",
        "ch"
      ],
      [
        "Ġh",
        "is"
      ],
      [
        "re",
        "d"
      ],
      [
        "Ġsoc",
        "ial"
      ],
      [
        "ir",
        "on"
      ],
      [
        "Ġimp",
        "ort"
      ],
      [
        "n",
        "e"
      ],
      [
        "Ġa",
        "g"
      ],
      [
        "Ġdif",
        "fere"
      ],
      [
        "Ġthe",
        "re"
      ],
      [
        "r",
        "ib"
      ],
      [
        "Ġde",
        "velop"
      ],
      [
        "b",
        "er"
      ],
      [
        "Ġ",
        "**"
      ],
      [
        "Ġsignific",
        "ant"
      ],
      [
        "Ġh",
        "igh"
      ],
      [
        "Ġsu",
        "pport"
      ],
      [
        "Ġs",
        "a"
      ],
      [
        "Ġc",
        "ol"
      ],
      [
        "Ġa",
        "m"
      ],
      [
        "Ġpro",
        "cess"
      ],
      [
        "Ġa",
        "c"
      ],
      [
        "h",
        "ip"
      ],
      [
        "i",
        "qu"
      ],
      [
        "ot",
        "h"
      ],
      [
        "Ġp",
        "os"
      ],
      [
        "Ġ",
        "ess"
      ],
      [
        "u",
        "c"
      ],
      [
        "Ġpro",
        "g"
      ],
      [
        "Ġre",
        "p"
      ],
      [
        "v",
        "iron"
      ],
      [
        "Ġf",
        "l"
      ],
      [
        "Ġm",
        "ay"
      ],
      [
        "iv",
        "id"
      ],
      [
        "Ġb",
        "et"
      ],
      [
        "Ġm",
        "y"
      ],
      [
        "is",
        "e"
      ],
      [
        "Ġspec",
        "ific"
      ],
      [
        "an",
        "ge"
      ],
      [
        "er",
        "ing"
      ],
      [
        "i",
        "ent"
      ],
      [
        "u",
        "es"
      ],
      [
        "al",
        "ity"
      ],
      [
        "at",
        "a"
      ],
      [
        "c",
        "on"
      ],
      [
        "Ġst",
        "ud"
      ],
      [
        "y",
        "s"
      ],
      [
        "us",
        "s"
      ],
      [
        "Ġ",
        "ke"
      ],
      [
        "Ġtr",
        "ans"
      ],
      [
        "Ġin",
        "st"
      ],
      [
        "ĠS",
        "t"
      ],
      [
        "if",
        "e"
      ],
      [
        "Ġprov",
        "id"
      ],
      [
        "p",
        "le"
      ],
      [
        "Ġen",
        "g"
      ],
      [
        "ate",
        "g"
      ],
      [
        "Ġp",
        "ot"
      ],
      [
        "Ġad",
        "v"
      ],
      [
        "in",
        "ess"
      ],
      [
        "Ċ",
        "Ċ"
      ],
      [
        "Ġle",
        "ad"
      ],
      [
        "d",
        "ition"
      ],
      [
        "I",
        "n"
      ],
      [
        "m",
        "s"
      ],
      [
        "ust",
        "om"
      ],
      [
        "Ġm",
        "ake"
      ],
      [
        "Ġon",
        "e"
      ],
      [
        "Ġm",
        "arket"
      ],
      [
        "iv",
        "es"
      ],
      [
        "Ġc",
        "ould"
      ],
      [
        "Ġp",
        "h"
      ],
      [
        "ou",
        "gh"
      ],
      [
        "Ġen",
        "viron"
      ],
      [
        "e",
        "g"
      ],
      [
        "Ġin",
        "f"
      ],
      [
        "ation",
        "al"
      ],
      [
        "rou",
        "nd"
      ],
      [
        "pl",
        "es"
      ],
      [
        "Ġat",
        "t"
      ],
      [
        "ver",
        "y"
      ],
      [
        "ow",
        "er"
      ],
      [
        "st",
        "and"
      ],
      [
        "Ġp",
        "ract"
      ],
      [
        "g",
        "g"
      ],
      [
        "Ġc",
        "ult"
      ],
      [
        "y",
        "p"
      ],
      [
        "Ġp",
        "o"
      ],
      [
        "w",
        "ard"
      ],
      [
        "Ġc",
        "re"
      ],
      [
        "Ġre",
        "m"
      ],
      [
        "iz",
        "ed"
      ],
      [
        "Ġprodu",
        "ct"
      ],
      [
        "0",
        "0"
      ],
      [
        "in",
        "t"
      ],
      [
        "ivid",
        "ual"
      ],
      [
        "Ġs",
        "o"
      ],
      [
        "ol",
        "d"
      ],
      [
        "Ġw",
        "ell"
      ],
      [
        "t",
        "en"
      ],
      [
        "Ġm",
        "od"
      ],
      [
        "Ġw",
        "ere"
      ],
      [
        "Ġb",
        "l"
      ],
      [
        "en",
        "g"
      ],
      [
        "en",
        "er"
      ],
      [
        "ion",
        "al"
      ],
      [
        "Ġas",
        "s"
      ],
      [
        "en",
        "ef"
      ],
      [
        "Ġm",
        "et"
      ],
      [
        "Ġar",
        "t"
      ],
      [
        "e",
        "ver"
      ],
      [
        "Ġm",
        "ent"
      ],
      [
        "Ġsy",
        "stem"
      ],
      [
        "Ġ",
        "Y"
      ],
      [
        "Ġ",
        "-"
      ],
      [
        "Ġre",
        "du"
      ],
      [
        "Ġenviron",
        "ment"
      ],
      [
        "Ġind",
        "ividual"
      ],
      [
        "Ġ",
        "K"
      ],
      [
        "Ġdes",
        "ign"
      ],
      [
        "ic",
        "k"
      ],
      [
        "Ġbe",
        "en"
      ],
      [
        "oc",
        "us"
      ],
      [
        "Ġc",
        "ustom"
      ],
      [
        "Ġpro",
        "m"
      ],
      [
        "Ġdisc",
        "uss"
      ],
      [
        "ib",
        "le"
      ],
      [
        "ab",
        "ility"
      ],
      [
        "i",
        "ew"
      ],
      [
        "Ġd",
        "ata"
      ],
      [
        "Ġperson",
        "al"
      ],
      [
        "Ġde",
        "c"
      ],
      [
        "Ġp",
        "ol"
      ],
      [
        "rib",
        "ut"
      ],
      [
        "Ġdiffere",
        "nt"
      ],
      [
        "olog",
        "y"
      ],
      [
        "Ġus",
        "ed"
      ],
      [
        "Ġl",
        "oc"
      ],
      [
        "re",
        "n"
      ],
      [
        "id",
        "ent"
      ],
      [
        "us",
        "iness"
      ],
      [
        "Ġc",
        "reat"
      ],
      [
        "an",
        "y"
      ],
      [
        "Ġen",
        "h"
      ],
      [
        "Ġre",
        "f"
      ],
      [
        "Ġs",
        "k"
      ],
      [
        "Ġstr",
        "ateg"
      ],
      [
        "Ġg",
        "o"
      ],
      [
        "Ġb",
        "enef"
      ],
      [
        "Ġon",
        "ly"
      ],
      [
        "on",
        "t"
      ],
      [
        "Ġo",
        "pt"
      ],
      [
        "Ġpot",
        "ential"
      ],
      [
        "Ġimp",
        "ro"
      ],
      [
        "'",
        "t"
      ],
      [
        "Ġin",
        "s"
      ],
      [
        "ĠC",
        "h"
      ],
      [
        "er",
        "tain"
      ],
      [
        "Ġk",
        "now"
      ],
      [
        "Ġv",
        "is"
      ],
      [
        "Ġprog",
        "ram"
      ],
      [
        "Ġwhe",
        "n"
      ],
      [
        "Ġapp",
        "ro"
      ],
      [
        "Ġs",
        "et"
      ],
      [
        "Ġ",
        "ed"
      ],
      [
        "Ġsh",
        "ould"
      ],
      [
        "Ġv",
        "al"
      ],
      [
        "Ġpro",
        "f"
      ],
      [
        "Ġs",
        "m"
      ],
      [
        "Ġex",
        "p"
      ],
      [
        "our",
        "ces"
      ],
      [
        "Ġinclud",
        "ing"
      ],
      [
        "T",
        "h"
      ],
      [
        "Ġex",
        "pl"
      ],
      [
        "he",
        "s"
      ],
      [
        "Ġ",
        "V"
      ],
      [
        "ol",
        "v"
      ],
      [
        "Ġor",
        "gan"
      ],
      [
        "b",
        "e"
      ],
      [
        "ru",
        "ct"
      ],
      [
        "Ġ",
        "ra"
      ],
      [
        "he",
        "d"
      ],
      [
        "Ġch",
        "all"
      ],
      [
        "l",
        "ine"
      ],
      [
        "Ġ",
        "if"
      ],
      [
        "ad",
        "e"
      ],
      [
        "op",
        "le"
      ],
      [
        "erg",
        "y"
      ],
      [
        "Ġacc",
        "ess"
      ],
      [
        "is",
        "s"
      ],
      [
        "Ġf",
        "ocus"
      ],
      [
        "ar",
        "m"
      ],
      [
        "at",
        "ure"
      ],
      [
        "age",
        "ment"
      ],
      [
        "Ġwh",
        "at"
      ],
      [
        "u",
        "se"
      ],
      [
        "il",
        "y"
      ],
      [
        "c",
        "ial"
      ],
      [
        "Ġp",
        "res"
      ],
      [
        "in",
        "es"
      ],
      [
        "i",
        "an"
      ],
      [
        "Ġm",
        "ain"
      ],
      [
        "om",
        "m"
      ],
      [
        "s",
        "s"
      ],
      [
        "Ġa",
        "v"
      ],
      [
        "u",
        "p"
      ],
      [
        "Ġh",
        "ad"
      ],
      [
        "ur",
        "ther"
      ],
      [
        "Ġg",
        "u"
      ],
      [
        "ĠA",
        "d"
      ],
      [
        "Ġus",
        "ing"
      ],
      [
        "Ġmed",
        "ia"
      ],
      [
        "it",
        "ive"
      ],
      [
        "Ġunder",
        "stand"
      ],
      [
        "Ġre",
        "qu"
      ],
      [
        "ol",
        "ut"
      ],
      [
        "Ġs",
        "ec"
      ],
      [
        "p",
        "ro"
      ],
      [
        "w",
        "or"
      ],
      [
        "Ġw",
        "ould"
      ],
      [
        "Ġd",
        "el"
      ],
      [
        "Ġc",
        "o"
      ],
      [
        "Ġpart",
        "ic"
      ],
      [
        "Ġj",
        "ust"
      ],
      [
        "se",
        "l"
      ],
      [
        "Ġb",
        "usiness"
      ],
      [
        "Ġcomp",
        "le"
      ],
      [
        "Ġimport",
        "ant"
      ],
      [
        "ater",
        "ial"
      ],
      [
        "Ġto",
        "p"
      ],
      [
        "Ġsu",
        "b"
      ],
      [
        "Ġc",
        "le"
      ],
      [
        "ag",
        "es"
      ],
      [
        "Ġt",
        "yp"
      ],
      [
        "if",
        "y"
      ],
      [
        "iz",
        "ation"
      ],
      [
        "Ġcon",
        "c"
      ],
      [
        "in",
        "ing"
      ],
      [
        "we",
        "en"
      ],
      [
        "Ġle",
        "ar"
      ],
      [
        "ow",
        "n"
      ],
      [
        "ot",
        "her"
      ],
      [
        "ĠH",
        "ere"
      ],
      [
        "Ġde",
        "f"
      ],
      [
        "iv",
        "ers"
      ],
      [
        "Ġp",
        "at"
      ],
      [
        "Ġwh",
        "ile"
      ],
      [
        "Ġle",
        "t"
      ],
      [
        "in",
        "k"
      ],
      [
        "Ġb",
        "u"
      ],
      [
        "Ġeffect",
        "ive"
      ],
      [
        "Ġdet",
        "ail"
      ],
      [
        "Ġf",
        "ind"
      ],
      [
        "Ġa",
        "ut"
      ],
      [
        "l",
        "ed"
      ],
      [
        "Ġl",
        "ife"
      ],
      [
        "iet",
        "y"
      ],
      [
        "Ġc",
        "a"
      ],
      [
        "Ġres",
        "p"
      ],
      [
        "ical",
        "ly"
      ],
      [
        "Ġpl",
        "ay"
      ],
      [
        "ag",
        "ing"
      ],
      [
        "it",
        "al"
      ],
      [
        "en",
        "ces"
      ],
      [
        "id",
        "er"
      ],
      [
        "ight",
        "s"
      ],
      [
        "Ġinc",
        "re"
      ],
      [
        "Ġg",
        "reat"
      ],
      [
        "is",
        "m"
      ],
      [
        "l",
        "u"
      ],
      [
        "pl",
        "oy"
      ],
      [
        "Ġe",
        "ach"
      ],
      [
        "Ġcont",
        "in"
      ],
      [
        "Ġf",
        "in"
      ],
      [
        "c",
        "k"
      ],
      [
        "Ġpe",
        "ople"
      ],
      [
        "Ġen",
        "ergy"
      ],
      [
        "iv",
        "en"
      ],
      [
        "Ġs",
        "he"
      ],
      [
        "m",
        "er"
      ],
      [
        "cc",
        "ess"
      ],
      [
        "Ġg",
        "l"
      ],
      [
        "f",
        "t"
      ],
      [
        "Ġexper",
        "ience"
      ],
      [
        "ra",
        "nd"
      ],
      [
        "ĠĠ",
        "ĠĠ"
      ],
      [
        "Ġex",
        "t"
      ],
      [
        "Ġexam",
        "ples"
      ],
      [
        "Ġvar",
        "ious"
      ],
      [
        "oll",
        "ow"
      ],
      [
        "am",
        "p"
      ],
      [
        "Ġm",
        "us"
      ],
      [
        "Ġf",
        "un"
      ],
      [
        "Ġc",
        "ru"
      ],
      [
        "Ġre",
        "se"
      ],
      [
        "Ġw",
        "ater"
      ],
      [
        "Ġall",
        "ow"
      ],
      [
        "**",
        ":"
      ],
      [
        "e",
        "x"
      ],
      [
        "iqu",
        "e"
      ],
      [
        "ere",
        "d"
      ],
      [
        "w",
        "n"
      ],
      [
        "du",
        "st"
      ],
      [
        "Ġbet",
        "ween"
      ],
      [
        "iz",
        "ing"
      ],
      [
        "ere",
        "st"
      ],
      [
        "Ġc",
        "he"
      ],
      [
        "Ġm",
        "aterial"
      ],
      [
        "Ġchall",
        "eng"
      ],
      [
        "Ġsu",
        "st"
      ],
      [
        "Ġs",
        "ur"
      ],
      [
        "ĠThe",
        "se"
      ],
      [
        "Ġde",
        "p"
      ],
      [
        "Ġsust",
        "ain"
      ],
      [
        "Ġro",
        "le"
      ],
      [
        "ant",
        "s"
      ],
      [
        "ang",
        "u"
      ],
      [
        "Ġcru",
        "cial"
      ],
      [
        "ort",
        "s"
      ],
      [
        "l",
        "ing"
      ],
      [
        "u",
        "nd"
      ],
      [
        "p",
        "or"
      ],
      [
        "Ġm",
        "in"
      ],
      [
        "Ġth",
        "an"
      ],
      [
        "Ġh",
        "and"
      ],
      [
        "Ġte",
        "xt"
      ],
      [
        "Ġb",
        "oth"
      ],
      [
        "v",
        "ent"
      ],
      [
        "ear",
        "s"
      ],
      [
        "er",
        "m"
      ],
      [
        "f",
        "ter"
      ],
      [
        "Ġdo",
        "es"
      ],
      [
        "ic",
        "t"
      ],
      [
        "a",
        "ir"
      ],
      [
        "f",
        "ore"
      ],
      [
        "Ġcre",
        "ate"
      ],
      [
        "Ġse",
        "e"
      ],
      [
        "Ġ",
        "3"
      ],
      [
        "Ġw",
        "ay"
      ],
      [
        "Ġfor",
        "m"
      ],
      [
        "Ġin",
        "dust"
      ],
      [
        "Ġprom",
        "ot"
      ],
      [
        "Ġis",
        "s"
      ],
      [
        "w",
        "are"
      ],
      [
        "ip",
        "s"
      ],
      [
        "Ġch",
        "ar"
      ],
      [
        "Ġof",
        "ten"
      ],
      [
        "Ġcont",
        "ent"
      ],
      [
        "Ġc",
        "ar"
      ],
      [
        "o",
        "ol"
      ],
      [
        "Ġ",
        "ent"
      ],
      [
        "Ġact",
        "iv"
      ],
      [
        "Ġg",
        "row"
      ],
      [
        "Ġinclud",
        "e"
      ],
      [
        "Ġed",
        "uc"
      ],
      [
        "Ġg",
        "ener"
      ],
      [
        "ir",
        "st"
      ],
      [
        "Ġwor",
        "ld"
      ],
      [
        "Ġth",
        "ose"
      ],
      [
        "i",
        "ed"
      ],
      [
        "ĠH",
        "ow"
      ],
      [
        "Ġm",
        "aking"
      ],
      [
        "ic",
        "ation"
      ],
      [
        "es",
        "p"
      ],
      [
        "ce",
        "pt"
      ],
      [
        "a",
        "pp"
      ],
      [
        "Ġwith",
        "in"
      ],
      [
        "Ġcont",
        "ribut"
      ],
      [
        "ub",
        "lic"
      ],
      [
        "Ġd",
        "uring"
      ],
      [
        "Ġs",
        "im"
      ],
      [
        "enc",
        "y"
      ],
      [
        "en",
        "se"
      ],
      [
        "im",
        "ate"
      ],
      [
        "Ġ",
        "Ċ"
      ],
      [
        "Ġfe",
        "el"
      ],
      [
        "Ġm",
        "ost"
      ],
      [
        "Ġen",
        "c"
      ],
      [
        "Ġens",
        "ure"
      ],
      [
        "Ġte",
        "am"
      ],
      [
        "Ġd",
        "ist"
      ],
      [
        "Ġl",
        "angu"
      ],
      [
        "ter",
        "n"
      ],
      [
        "Ġc",
        "ur"
      ],
      [
        "Ġf",
        "ac"
      ],
      [
        "Ġp",
        "ur"
      ],
      [
        "it",
        "ed"
      ],
      [
        "in",
        "s"
      ],
      [
        "ĠThe",
        "y"
      ],
      [
        "Ġrese",
        "arch"
      ],
      [
        "Ġsu",
        "ccess"
      ],
      [
        "Ġ2",
        "0"
      ],
      [
        "rou",
        "p"
      ],
      [
        "i",
        "er"
      ],
      [
        "Ġper",
        "form"
      ],
      [
        "Ġinf",
        "lu"
      ],
      [
        "Ġdevelop",
        "ment"
      ],
      [
        "Ġh",
        "um"
      ],
      [
        "Ġb",
        "r"
      ],
      [
        "n",
        "ect"
      ],
      [
        "Ġman",
        "y"
      ],
      [
        "Ġc",
        "are"
      ],
      [
        "ri",
        "end"
      ],
      [
        "ur",
        "n"
      ],
      [
        "Ġwe",
        "bs"
      ],
      [
        "Ġcon",
        "f"
      ],
      [
        "a",
        "x"
      ],
      [
        "ĠF",
        "or"
      ],
      [
        "Ġm",
        "em"
      ],
      [
        "c",
        "ing"
      ],
      [
        "Ġint",
        "erest"
      ],
      [
        "Ġsh",
        "ow"
      ],
      [
        "Ġbe",
        "c"
      ],
      [
        "ire",
        "ct"
      ],
      [
        "Ġke",
        "y"
      ],
      [
        "Ġindividual",
        "s"
      ],
      [
        "a",
        "w"
      ],
      [
        "ff",
        "ect"
      ],
      [
        "c",
        "ed"
      ],
      [
        "gg",
        "est"
      ],
      [
        "Ġan",
        "al"
      ],
      [
        "Ġf",
        "ollow"
      ],
      [
        "Ġcommun",
        "ity"
      ],
      [
        "Ġbenef",
        "its"
      ],
      [
        "le",
        "ment"
      ],
      [
        "Ġst",
        "and"
      ],
      [
        "i",
        "ver"
      ],
      [
        "Ġst",
        "ep"
      ],
      [
        "Ġ",
        "âĢ"
      ],
      [
        "con",
        "om"
      ],
      [
        "Ġa",
        "ud"
      ],
      [
        "t",
        "y"
      ],
      [
        "it",
        "ions"
      ],
      [
        "Ġpro",
        "t"
      ],
      [
        "i",
        "o"
      ],
      [
        "Ġpro",
        "ject"
      ],
      [
        "b",
        "le"
      ],
      [
        "Ġde",
        "m"
      ],
      [
        "Ġhe",
        "re"
      ],
      [
        "Ġem",
        "ploy"
      ],
      [
        "Ġp",
        "ower"
      ],
      [
        "h",
        "od"
      ],
      [
        "Ġbe",
        "ing"
      ],
      [
        "h",
        "ing"
      ],
      [
        "l",
        "ight"
      ],
      [
        "Ġen",
        "d"
      ],
      [
        "le",
        "ase"
      ],
      [
        "p",
        "e"
      ],
      [
        "Ġlangu",
        "age"
      ],
      [
        "Ġ",
        "ident"
      ],
      [
        "re",
        "ad"
      ],
      [
        "Ġe",
        "very"
      ],
      [
        "as",
        "es"
      ],
      [
        "Ġre",
        "v"
      ],
      [
        "Ġto",
        "ol"
      ],
      [
        "i",
        "ents"
      ],
      [
        "at",
        "form"
      ],
      [
        "Ġess",
        "ential"
      ],
      [
        "Ġw",
        "rit"
      ],
      [
        "Ġoff",
        "er"
      ],
      [
        "n",
        "g"
      ],
      [
        "Ġpl",
        "an"
      ],
      [
        "Ġo",
        "wn"
      ],
      [
        "Ġh",
        "ist"
      ],
      [
        "Ġinv",
        "olv"
      ],
      [
        "Ġ",
        "ve"
      ],
      [
        "ward",
        "s"
      ],
      [
        "Ġl",
        "ong"
      ],
      [
        "Ġe",
        "ar"
      ],
      [
        "el",
        "f"
      ],
      [
        "ra",
        "ph"
      ],
      [
        "Ġb",
        "el"
      ],
      [
        "Ġimpro",
        "ve"
      ],
      [
        "at",
        "h"
      ],
      [
        "Ġin",
        "it"
      ],
      [
        "Ġc",
        "rit"
      ],
      [
        "Ġg",
        "et"
      ],
      [
        "Ġn",
        "um"
      ],
      [
        "Ġsu",
        "ggest"
      ],
      [
        "n",
        "er"
      ],
      [
        "Ġev",
        "en"
      ],
      [
        "b",
        "y"
      ],
      [
        "Ġf",
        "am"
      ],
      [
        "Ġre",
        "al"
      ],
      [
        "Ġtechn",
        "ology"
      ],
      [
        "Ġf",
        "ood"
      ],
      [
        "ab",
        "or"
      ],
      [
        "Ġo",
        "p"
      ],
      [
        "i",
        "x"
      ],
      [
        "Ġ",
        "ide"
      ],
      [
        "Ġsa",
        "f"
      ],
      [
        "Ġre",
        "ad"
      ],
      [
        "an",
        "ces"
      ],
      [
        "Ġn",
        "o"
      ],
      [
        "Ġdiscuss",
        "ion"
      ],
      [
        "at",
        "her"
      ],
      [
        "ro",
        "ss"
      ],
      [
        "Ġexper",
        "i"
      ],
      [
        "l",
        "ess"
      ],
      [
        "Ġf",
        "urther"
      ],
      [
        "Ġo",
        "b"
      ],
      [
        "he",
        "n"
      ],
      [
        "ch",
        "ool"
      ],
      [
        "Ġp",
        "op"
      ],
      [
        "Ġmarket",
        "ing"
      ],
      [
        "n",
        "ce"
      ],
      [
        "Ġadd",
        "ition"
      ],
      [
        "Ġappro",
        "ach"
      ],
      [
        "Ġe",
        "conom"
      ],
      [
        "Ġres",
        "ources"
      ],
      [
        "ĠC",
        "an"
      ],
      [
        "iv",
        "ing"
      ],
      [
        "Ġserv",
        "ices"
      ],
      [
        "or",
        "por"
      ],
      [
        "u",
        "ing"
      ],
      [
        "Ġm",
        "ade"
      ],
      [
        "ill",
        "s"
      ],
      [
        "Ġm",
        "ight"
      ],
      [
        "y",
        "ou"
      ],
      [
        "th",
        "at"
      ],
      [
        "Ġt",
        "w"
      ],
      [
        "ib",
        "ility"
      ],
      [
        "m",
        "ore"
      ],
      [
        "Ġchalleng",
        "es"
      ],
      [
        "in",
        "c"
      ],
      [
        "Ġpl",
        "atform"
      ],
      [
        "Ġmet",
        "hod"
      ],
      [
        "Ġst",
        "art"
      ],
      [
        "S",
        "ure"
      ],
      [
        "Ġun",
        "ique"
      ],
      [
        "Ġs",
        "al"
      ],
      [
        "Ġg",
        "roup"
      ],
      [
        "ĠP",
        "ro"
      ],
      [
        "Ġme",
        "an"
      ],
      [
        "Ġre",
        "t"
      ],
      [
        "Ġp",
        "ass"
      ],
      [
        "ist",
        "s"
      ],
      [
        "er",
        "t"
      ],
      [
        "l",
        "us"
      ],
      [
        "e",
        "e"
      ],
      [
        "el",
        "s"
      ],
      [
        "Ġpract",
        "ices"
      ],
      [
        "Ġment",
        "al"
      ],
      [
        "Ġle",
        "vel"
      ],
      [
        "og",
        "n"
      ],
      [
        "at",
        "ural"
      ],
      [
        "ivers",
        "ity"
      ],
      [
        "Ġus",
        "er"
      ],
      [
        "Ġb",
        "rand"
      ],
      [
        "over",
        "n"
      ],
      [
        "r",
        "ies"
      ],
      [
        "ar",
        "s"
      ],
      [
        "ch",
        "ie"
      ],
      [
        "Ġd",
        "on"
      ],
      [
        "Ġe",
        "qu"
      ],
      [
        "el",
        "d"
      ],
      [
        "Ġb",
        "o"
      ],
      [
        "Ġc",
        "ount"
      ],
      [
        "il",
        "ities"
      ],
      [
        "Ġstrateg",
        "ies"
      ],
      [
        "p",
        "ort"
      ],
      [
        "u",
        "ch"
      ],
      [
        "Ġr",
        "is"
      ],
      [
        "Ġloc",
        "al"
      ],
      [
        "ĠU",
        "n"
      ],
      [
        "Ġp",
        "ublic"
      ],
      [
        "or",
        "ing"
      ],
      [
        "Ġwebs",
        "ite"
      ],
      [
        "ou",
        "ra"
      ],
      [
        "Ġmus",
        "ic"
      ],
      [
        "ertain",
        "ly"
      ],
      [
        "Ġcon",
        "nect"
      ],
      [
        "as",
        "h"
      ],
      [
        "sel",
        "f"
      ],
      [
        "ĠHow",
        "ever"
      ],
      [
        "Ġinv",
        "est"
      ],
      [
        "r",
        "ation"
      ],
      [
        "Ġf",
        "ound"
      ],
      [
        "Ġbu",
        "ild"
      ],
      [
        "Ġcons",
        "ider"
      ],
      [
        "Ġapp",
        "lic"
      ],
      [
        "Ġa",
        "chie"
      ],
      [
        "Ġt",
        "ake"
      ],
      [
        "Ġindust",
        "ry"
      ],
      [
        "a",
        "z"
      ],
      [
        "Ġc",
        "ap"
      ],
      [
        "ĠY",
        "ou"
      ],
      [
        "re",
        "nt"
      ],
      [
        "ĠH",
        "e"
      ],
      [
        "Ġem",
        "ot"
      ],
      [
        "Ġrequ",
        "ire"
      ],
      [
        "Ġf",
        "ew"
      ],
      [
        "Ġm",
        "on"
      ],
      [
        "Ġf",
        "act"
      ],
      [
        "od",
        "y"
      ],
      [
        "Ġbe",
        "fore"
      ],
      [
        "ĠB",
        "y"
      ],
      [
        "Ġd",
        "irect"
      ],
      [
        "Ġd",
        "r"
      ],
      [
        "pport",
        "un"
      ],
      [
        "in",
        "ation"
      ],
      [
        "m",
        "e"
      ],
      [
        "Ġprof",
        "ess"
      ],
      [
        "w",
        "ith"
      ],
      [
        "Ġbe",
        "h"
      ],
      [
        "Ġag",
        "ain"
      ],
      [
        "i",
        "eld"
      ],
      [
        "Ġres",
        "ult"
      ],
      [
        "Ġadd",
        "ress"
      ],
      [
        "Ġon",
        "line"
      ],
      [
        "Ġs",
        "er"
      ],
      [
        "I",
        "t"
      ],
      [
        "Ġl",
        "ist"
      ],
      [
        "omm",
        "end"
      ],
      [
        "Ġcult",
        "ural"
      ],
      [
        "ĠA",
        "s"
      ],
      [
        "Ġmain",
        "tain"
      ],
      [
        "dition",
        "ally"
      ],
      [
        "re",
        "en"
      ],
      [
        "Ġe",
        "as"
      ],
      [
        "Ġstud",
        "ents"
      ],
      [
        "Ġsm",
        "all"
      ],
      [
        "is",
        "ion"
      ],
      [
        "Ġproduct",
        "s"
      ],
      [
        "Ġrec",
        "ommend"
      ],
      [
        "ak",
        "es"
      ],
      [
        "le",
        "v"
      ],
      [
        "om",
        "et"
      ],
      [
        "Ġav",
        "ail"
      ],
      [
        "ra",
        "p"
      ],
      [
        "at",
        "ures"
      ],
      [
        "s",
        "c"
      ],
      [
        "Ġc",
        "ost"
      ],
      [
        "Ġf",
        "irst"
      ],
      [
        "b",
        "ack"
      ],
      [
        "a",
        "ut"
      ],
      [
        "Ġg",
        "ood"
      ],
      [
        "Ġpartic",
        "ular"
      ],
      [
        "oc",
        "k"
      ],
      [
        "A",
        "s"
      ],
      [
        "oo",
        "king"
      ],
      [
        "are",
        "d"
      ],
      [
        "r",
        "ip"
      ],
      [
        "Ġint",
        "eg"
      ],
      [
        "Ġo",
        "pportun"
      ],
      [
        "Ġse",
        "ver"
      ],
      [
        "Ġiss",
        "ues"
      ],
      [
        "Ġch",
        "ange"
      ],
      [
        "Ġb",
        "est"
      ],
      [
        "Ġunderstand",
        "ing"
      ],
      [
        "Ġexam",
        "ple"
      ],
      [
        "Ġpol",
        "ic"
      ],
      [
        "Ġto",
        "wards"
      ],
      [
        "Ġfun",
        "ction"
      ],
      [
        "ur",
        "ning"
      ],
      [
        "t",
        "ed"
      ],
      [
        "Ġchar",
        "act"
      ],
      [
        "Ġrel",
        "ations"
      ],
      [
        "Ġcomp",
        "any"
      ],
      [
        "Ġc",
        "our"
      ],
      [
        "Ġc",
        "amp"
      ],
      [
        "Ġn",
        "atural"
      ],
      [
        "er",
        "n"
      ],
      [
        "ec",
        "ess"
      ],
      [
        "Ġeff",
        "ic"
      ],
      [
        "i",
        "or"
      ],
      [
        "n",
        "ew"
      ],
      [
        "Ġa",
        "fter"
      ],
      [
        "Ġneed",
        "s"
      ],
      [
        "iv",
        "ity"
      ],
      [
        "Ġm",
        "ind"
      ],
      [
        "ast",
        "e"
      ],
      [
        "Ġcle",
        "ar"
      ],
      [
        "Ġb",
        "ro"
      ],
      [
        "Ġt",
        "ips"
      ],
      [
        "m",
        "m"
      ],
      [
        "Ġa",
        "round"
      ],
      [
        "s",
        "p"
      ],
      [
        "Ġpos",
        "s"
      ],
      [
        "Ġenvironment",
        "al"
      ],
      [
        "Ġs",
        "elf"
      ],
      [
        "ord",
        "ing"
      ],
      [
        "Ġg",
        "r"
      ],
      [
        "Ġo",
        "per"
      ],
      [
        "dition",
        "al"
      ],
      [
        "Ġwith",
        "out"
      ],
      [
        "or",
        "ies"
      ],
      [
        "Ġle",
        "g"
      ],
      [
        "Ġor",
        "ig"
      ],
      [
        "Ġsustain",
        "able"
      ],
      [
        "Ġlear",
        "ning"
      ],
      [
        "Ġman",
        "agement"
      ],
      [
        "wor",
        "k"
      ],
      [
        "Ġenh",
        "ance"
      ],
      [
        "h",
        "or"
      ],
      [
        "Ġm",
        "at"
      ],
      [
        "w",
        "h"
      ],
      [
        "Ġ",
        "4"
      ],
      [
        "Ġb",
        "re"
      ],
      [
        "Ġc",
        "ent"
      ],
      [
        "C",
        "ertainly"
      ],
      [
        "Ġph",
        "ys"
      ],
      [
        "ont",
        "in"
      ],
      [
        "Ġdetail",
        "s"
      ],
      [
        "Ġch",
        "ang"
      ],
      [
        "Ġch",
        "ild"
      ],
      [
        "Ġch",
        "o"
      ],
      [
        "Ġqu",
        "ality"
      ],
      [
        "ut",
        "ure"
      ],
      [
        "Ġl",
        "ar"
      ],
      [
        "in",
        "ed"
      ],
      [
        "d",
        "ay"
      ],
      [
        "Ġtop",
        "ic"
      ],
      [
        "Ġhum",
        "an"
      ],
      [
        "Ġsever",
        "al"
      ],
      [
        "Ġb",
        "ased"
      ],
      [
        "Ġcont",
        "ro"
      ],
      [
        "ch",
        "ing"
      ],
      [
        "Ġprot",
        "ect"
      ],
      [
        "p",
        "os"
      ],
      [
        "anc",
        "ing"
      ],
      [
        "d",
        "e"
      ],
      [
        "Ġg",
        "overn"
      ],
      [
        "et",
        "s"
      ],
      [
        "Ġtw",
        "o"
      ],
      [
        "av",
        "or"
      ],
      [
        "Ġsignificant",
        "ly"
      ],
      [
        "ard",
        "s"
      ],
      [
        "Ġke",
        "ep"
      ],
      [
        "Ġimp",
        "lement"
      ],
      [
        "Ġ",
        "5"
      ],
      [
        "p",
        "r"
      ],
      [
        "b",
        "ers"
      ],
      [
        "as",
        "ing"
      ],
      [
        "end",
        "ing"
      ],
      [
        "#",
        "#"
      ],
      [
        "Ġj",
        "our"
      ],
      [
        "olut",
        "ion"
      ],
      [
        "Ġgrow",
        "th"
      ],
      [
        "ur",
        "ity"
      ],
      [
        "re",
        "he"
      ],
      [
        "Ġ",
        "est"
      ],
      [
        "Ġt",
        "est"
      ],
      [
        "Ġinter",
        "act"
      ],
      [
        "n",
        "ot"
      ],
      [
        "c",
        "are"
      ],
      [
        "anc",
        "ial"
      ],
      [
        "Ġim",
        "m"
      ],
      [
        "ar",
        "get"
      ],
      [
        "ĠA",
        "l"
      ],
      [
        "Ġme",
        "as"
      ],
      [
        "ne",
        "y"
      ],
      [
        "Ġrelations",
        "hip"
      ],
      [
        "Ġf",
        "il"
      ],
      [
        "Ġens",
        "uring"
      ],
      [
        "Ġqu",
        "est"
      ],
      [
        "Ġl",
        "ight"
      ],
      [
        "Ġle",
        "ft"
      ],
      [
        "Ġd",
        "own"
      ],
      [
        "Ġw",
        "ant"
      ],
      [
        "ual",
        "ly"
      ],
      [
        "n",
        "ces"
      ],
      [
        "v",
        "ers"
      ],
      [
        "Ġst",
        "y"
      ],
      [
        "im",
        "es"
      ],
      [
        "Ġaud",
        "ience"
      ],
      [
        "ent",
        "ion"
      ],
      [
        "w",
        "ays"
      ],
      [
        "as",
        "on"
      ],
      [
        "Ġm",
        "ove"
      ],
      [
        "v",
        "en"
      ],
      [
        "ĠA",
        "I"
      ],
      [
        "mer",
        "ic"
      ],
      [
        "Ġcl",
        "ass"
      ],
      [
        "Y",
        "es"
      ],
      [
        "Ġa",
        "ffect"
      ],
      [
        "Ġc",
        "r"
      ],
      [
        "du",
        "ct"
      ],
      [
        "is",
        "ing"
      ],
      [
        "Ġc",
        "or"
      ],
      [
        "Ġmod",
        "el"
      ],
      [
        "Ġresp",
        "ons"
      ],
      [
        "e",
        "xt"
      ],
      [
        "Ġst",
        "ate"
      ],
      [
        "Ġm",
        "ult"
      ],
      [
        "Ġoff",
        "ers"
      ],
      [
        "ruct",
        "ure"
      ],
      [
        "s",
        "h"
      ],
      [
        "Ġs",
        "it"
      ],
      [
        "Ġexperi",
        "ences"
      ],
      [
        "Ġl",
        "and"
      ],
      [
        "Ġpos",
        "itive"
      ],
      [
        "Ġb",
        "i"
      ],
      [
        "Ġactiv",
        "ities"
      ],
      [
        "Ġre",
        "st"
      ],
      [
        "ĠA",
        "n"
      ],
      [
        "Ġa",
        "im"
      ],
      [
        "Ġf",
        "uture"
      ],
      [
        "p",
        "ut"
      ],
      [
        "Ġn",
        "ecess"
      ],
      [
        "w",
        "it"
      ],
      [
        "Ġorig",
        "in"
      ],
      [
        "Ġe",
        "c"
      ],
      [
        "v",
        "es"
      ],
      [
        "Ġcustom",
        "er"
      ],
      [
        ",",
        "\""
      ],
      [
        "Ġredu",
        "ce"
      ],
      [
        "ial",
        "ly"
      ],
      [
        "Ġsk",
        "ills"
      ],
      [
        "Ġf",
        "ost"
      ],
      [
        "Ġth",
        "ough"
      ],
      [
        "n",
        "ov"
      ],
      [
        "l",
        "ish"
      ],
      [
        "'",
        "m"
      ],
      [
        "\"",
        "?"
      ],
      [
        "Ġbet",
        "ter"
      ],
      [
        "Ġ20",
        "1"
      ],
      [
        "ĠW",
        "e"
      ],
      [
        "Ġd",
        "ig"
      ],
      [
        "a",
        "ign"
      ],
      [
        "os",
        "s"
      ],
      [
        "Ġpro",
        "per"
      ],
      [
        "Ġg",
        "ra"
      ],
      [
        "ĠĠ",
        "Ġ"
      ],
      [
        "Ġst",
        "ory"
      ],
      [
        ":",
        "**"
      ],
      [
        "Ġm",
        "ar"
      ],
      [
        "Ġac",
        "ross"
      ],
      [
        "T",
        "o"
      ],
      [
        "Ġus",
        "ers"
      ],
      [
        "olog",
        "ical"
      ],
      [
        "ab",
        "les"
      ],
      [
        ".",
        "\""
      ],
      [
        "Ġperform",
        "ance"
      ],
      [
        "Ġdef",
        "in"
      ],
      [
        "Ġw",
        "ays"
      ],
      [
        "ar",
        "ing"
      ],
      [
        "Ġcons",
        "um"
      ],
      [
        "e",
        "ad"
      ],
      [
        "Ġavail",
        "able"
      ],
      [
        "Ġt",
        "reat"
      ],
      [
        "Ġwor",
        "d"
      ],
      [
        "av",
        "ing"
      ],
      [
        "Ġan",
        "other"
      ],
      [
        "Ġcommun",
        "ication"
      ],
      [
        "Ġg",
        "ive"
      ],
      [
        "ac",
        "y"
      ],
      [
        "Ġthe",
        "n"
      ],
      [
        "Ġcon",
        "st"
      ],
      [
        "Ġc",
        "oll"
      ],
      [
        "o",
        "id"
      ],
      [
        "Ġopt",
        "ions"
      ],
      [
        "r",
        "on"
      ],
      [
        "il",
        "it"
      ],
      [
        "em",
        "s"
      ],
      [
        "anc",
        "ed"
      ],
      [
        "Ġprovid",
        "ing"
      ],
      [
        "i",
        "ate"
      ],
      [
        "r",
        "al"
      ],
      [
        "'",
        "re"
      ],
      [
        "e",
        "ed"
      ],
      [
        "Ġpres",
        "ent"
      ],
      [
        "d",
        "itions"
      ],
      [
        "Ġenc",
        "oura"
      ],
      [
        "rehe",
        "ns"
      ],
      [
        "Ġeduc",
        "ation"
      ],
      [
        "Ġgl",
        "ob"
      ],
      [
        "Ġf",
        "ul"
      ],
      [
        "al",
        "e"
      ],
      [
        "Ġimport",
        "ance"
      ],
      [
        "Ġcomple",
        "x"
      ],
      [
        "Ġare",
        "as"
      ],
      [
        "Ġfe",
        "atures"
      ],
      [
        "er",
        "c"
      ],
      [
        "Ġpl",
        "ace"
      ],
      [
        "le",
        "ction"
      ],
      [
        "Ġde",
        "v"
      ],
      [
        "d",
        "er"
      ],
      [
        "p",
        "o"
      ],
      [
        "it",
        "ing"
      ],
      [
        "ou",
        "n"
      ],
      [
        "Ġcreat",
        "ing"
      ],
      [
        "Ġtra",
        "ditional"
      ],
      [
        "Ġother",
        "s"
      ],
      [
        "rip",
        "t"
      ],
      [
        "C",
        "ontin"
      ],
      [
        "Th",
        "is"
      ],
      [
        "Ġl",
        "im"
      ],
      [
        "ĠAd",
        "ditionally"
      ],
      [
        "Ġrep",
        "ort"
      ],
      [
        "Ġp",
        "lease"
      ],
      [
        "of",
        "t"
      ],
      [
        "w",
        "ay"
      ],
      [
        "Ġagain",
        "st"
      ],
      [
        "Ġfin",
        "ancial"
      ],
      [
        "f",
        "act"
      ],
      [
        "Ġmaterial",
        "s"
      ],
      [
        "v",
        "ing"
      ],
      [
        "Ġd",
        "ay"
      ],
      [
        "Ġsystem",
        "s"
      ],
      [
        ")",
        ","
      ],
      [
        "at",
        "ives"
      ],
      [
        "Ġserv",
        "ice"
      ],
      [
        "Ġe",
        "lect"
      ],
      [
        "an",
        "k"
      ],
      [
        "H",
        "ow"
      ],
      [
        "a",
        "pt"
      ],
      [
        "ore",
        "d"
      ],
      [
        "og",
        "raph"
      ],
      [
        "Ġr",
        "ange"
      ],
      [
        "Ġt",
        "arget"
      ],
      [
        "ĠI",
        "f"
      ],
      [
        "Ġv",
        "iew"
      ],
      [
        "Ġeff",
        "orts"
      ],
      [
        "ro",
        "p"
      ],
      [
        "ar",
        "r"
      ],
      [
        "b",
        "r"
      ],
      [
        "Ġcontin",
        "ue"
      ],
      [
        "f",
        "ort"
      ],
      [
        "Ġy",
        "ears"
      ],
      [
        "Ġcrit",
        "ical"
      ],
      [
        "Ġev",
        "ents"
      ],
      [
        "o",
        "ot"
      ],
      [
        "Ġpre",
        "vent"
      ],
      [
        "Ġcom",
        "b"
      ],
      [
        "Ġ1",
        "9"
      ],
      [
        "at",
        "s"
      ],
      [
        "Ġs",
        "chool"
      ],
      [
        "Ġrec",
        "ip"
      ],
      [
        "ab",
        "out"
      ],
      [
        "er",
        "y"
      ],
      [
        "i",
        "um"
      ],
      [
        "Ġse",
        "arch"
      ],
      [
        "ou",
        "se"
      ],
      [
        "Ġt",
        "ell"
      ],
      [
        "m",
        "b"
      ],
      [
        "Ġo",
        "il"
      ],
      [
        "y",
        "c"
      ],
      [
        "an",
        "ies"
      ],
      [
        "âĢ",
        "Ŀ"
      ],
      [
        "Ġcamp",
        "aign"
      ],
      [
        "ap",
        "e"
      ],
      [
        "ra",
        "y"
      ],
      [
        "ent",
        "ly"
      ],
      [
        "Ġess",
        "ay"
      ],
      [
        "re",
        "am"
      ],
      [
        "Ġtool",
        "s"
      ],
      [
        "Ġeconom",
        "ic"
      ],
      [
        "Ġgu",
        "id"
      ],
      [
        "Ġcomp",
        "rehens"
      ],
      [
        "ress",
        "ion"
      ],
      [
        "em",
        "ber"
      ],
      [
        "v",
        "ed"
      ],
      [
        "t",
        "le"
      ],
      [
        "a",
        "h"
      ],
      [
        "Ġl",
        "it"
      ],
      [
        "Ġp",
        "ost"
      ],
      [
        "Ġp",
        "ar"
      ],
      [
        "od",
        "e"
      ],
      [
        "Ġinter",
        "n"
      ],
      [
        "iqu",
        "es"
      ],
      [
        "Ġprovid",
        "es"
      ],
      [
        "Ġphys",
        "ical"
      ],
      [
        "j",
        "ust"
      ],
      [
        "Ġeffective",
        "ly"
      ],
      [
        "Ġne",
        "g"
      ],
      [
        "ru",
        "ction"
      ],
      [
        "Ġeffect",
        "s"
      ],
      [
        "b",
        "ased"
      ],
      [
        "Ġt",
        "ry"
      ],
      [
        "Ġam",
        "ong"
      ],
      [
        "re",
        "t"
      ],
      [
        "Ġwrit",
        "ing"
      ],
      [
        "Ġaddition",
        "al"
      ],
      [
        "`",
        "`"
      ],
      [
        "op",
        "e"
      ],
      [
        "ys",
        "is"
      ],
      [
        "j",
        "oy"
      ],
      [
        "Ġop",
        "en"
      ],
      [
        ")",
        "."
      ],
      [
        "Ġcur",
        "rent"
      ],
      [
        "Ġs",
        "ound"
      ],
      [
        "Ġfam",
        "ily"
      ],
      [
        "Ġs",
        "ense"
      ],
      [
        "y",
        "n"
      ],
      [
        "ĠA",
        "meric"
      ],
      [
        "Ġt",
        "re"
      ],
      [
        "l",
        "and"
      ],
      [
        "Ġcomp",
        "et"
      ],
      [
        "ro",
        "du"
      ],
      [
        "Ġpol",
        "it"
      ],
      [
        "ĠU",
        "se"
      ],
      [
        "get",
        "her"
      ],
      [
        "Ġh",
        "ome"
      ],
      [
        "Ġover",
        "all"
      ],
      [
        "ain",
        "s"
      ],
      [
        "Ġpr",
        "im"
      ],
      [
        "Ġlear",
        "n"
      ],
      [
        "Ġin",
        "nov"
      ],
      [
        "Ġprogram",
        "s"
      ],
      [
        "re",
        "c"
      ],
      [
        "is",
        "hed"
      ],
      [
        "Ġde",
        "ep"
      ],
      [
        "Ġtra",
        "ining"
      ],
      [
        "ver",
        "t"
      ],
      [
        "Ġa",
        "ir"
      ],
      [
        "res",
        "ent"
      ],
      [
        "Ġt",
        "em"
      ],
      [
        "g",
        "ing"
      ],
      [
        "ph",
        "as"
      ],
      [
        "Ġb",
        "al"
      ],
      [
        "Ġsu",
        "re"
      ],
      [
        "Ġb",
        "ody"
      ],
      [
        "Ġf",
        "ree"
      ],
      [
        "ĠE",
        "n"
      ],
      [
        "Ġinc",
        "orpor"
      ],
      [
        "Ġl",
        "ess"
      ],
      [
        "it",
        "ut"
      ],
      [
        "Ġst",
        "ress"
      ],
      [
        "Ġev",
        "ent"
      ],
      [
        "Ġhist",
        "ory"
      ],
      [
        "Ġrec",
        "ogn"
      ],
      [
        "Ġto",
        "o"
      ],
      [
        "Ġhigh",
        "light"
      ],
      [
        "Contin",
        "uing"
      ],
      [
        "Ġs",
        "l"
      ],
      [
        "Ġj",
        "ob"
      ],
      [
        "Ġl",
        "ove"
      ],
      [
        "ard",
        "ing"
      ],
      [
        "Ġf",
        "und"
      ],
      [
        "Ġn",
        "ut"
      ],
      [
        "Ġm",
        "ot"
      ],
      [
        "Ġg",
        "en"
      ],
      [
        "ul",
        "ation"
      ],
      [
        "Ġm",
        "ess"
      ],
      [
        "Ġe",
        "le"
      ],
      [
        "ist",
        "ic"
      ],
      [
        "ri",
        "or"
      ],
      [
        "Ġs",
        "oft"
      ],
      [
        "ĠI",
        "nd"
      ],
      [
        "Ġbeh",
        "av"
      ],
      [
        "if",
        "ied"
      ],
      [
        "ĠS",
        "h"
      ],
      [
        "Ġs",
        "omet"
      ],
      [
        "p",
        "ar"
      ],
      [
        "Ġc",
        "all"
      ],
      [
        "iver",
        "se"
      ],
      [
        "our",
        "ce"
      ],
      [
        "Ġstep",
        "s"
      ],
      [
        "ic",
        "ial"
      ],
      [
        "ĠT",
        "o"
      ],
      [
        "Ġab",
        "ility"
      ],
      [
        "le",
        "t"
      ],
      [
        "st",
        "r"
      ],
      [
        "iz",
        "ations"
      ],
      [
        "at",
        "ic"
      ],
      [
        "Ġn",
        "et"
      ],
      [
        "Ġr",
        "ight"
      ],
      [
        "Ġf",
        "riend"
      ],
      [
        "Ġcomm",
        "it"
      ],
      [
        "oc",
        "i"
      ],
      [
        "he",
        "re"
      ],
      [
        "c",
        "an"
      ],
      [
        "Ġcomprehens",
        "ive"
      ],
      [
        "led",
        "ge"
      ],
      [
        "Ġcomm",
        "on"
      ],
      [
        "Ġu",
        "nt"
      ],
      [
        "Ġe",
        "l"
      ],
      [
        "et",
        "y"
      ],
      [
        "Ġs",
        "ol"
      ],
      [
        "if",
        "t"
      ],
      [
        "o",
        "h"
      ],
      [
        "ers",
        "hip"
      ],
      [
        "ĠS",
        "p"
      ],
      [
        "Ġas",
        "pect"
      ],
      [
        "Ġd",
        "ue"
      ],
      [
        "a",
        "use"
      ],
      [
        "Ġprofess",
        "ional"
      ],
      [
        "Ġpre",
        "v"
      ],
      [
        "in",
        "ts"
      ],
      [
        "Ġlead",
        "ing"
      ],
      [
        "Ġgo",
        "als"
      ],
      [
        "er",
        "r"
      ],
      [
        "Ġinvolv",
        "es"
      ],
      [
        "Ġcustom",
        "ers"
      ],
      [
        "r",
        "ans"
      ],
      [
        "Ġ",
        "$"
      ],
      [
        "Ġcontro",
        "l"
      ],
      [
        "2",
        "0"
      ],
      [
        "ĠC",
        "on"
      ],
      [
        "Ġment",
        "ion"
      ],
      [
        "Ġbusiness",
        "es"
      ],
      [
        "i",
        "ef"
      ],
      [
        "Ġcoll",
        "abor"
      ],
      [
        "Ġsa",
        "id"
      ],
      [
        "Ġparticular",
        "ly"
      ],
      [
        "Ġnum",
        "ber"
      ],
      [
        "g",
        "o"
      ],
      [
        "Ġc",
        "al"
      ],
      [
        "Ġs",
        "ect"
      ],
      [
        "Ġcharact",
        "er"
      ],
      [
        "Ġmean",
        "ing"
      ],
      [
        "Ġm",
        "ust"
      ],
      [
        "Ġset",
        "ting"
      ],
      [
        "s",
        "u"
      ],
      [
        "S",
        "t"
      ],
      [
        "Ġto",
        "gether"
      ],
      [
        "Ġem",
        "phas"
      ],
      [
        "e",
        "es"
      ],
      [
        "Ġcommun",
        "ities"
      ],
      [
        "Ġf",
        "ore"
      ],
      [
        "Ġu",
        "t"
      ],
      [
        "ĠA",
        "r"
      ],
      [
        "Ġwor",
        "ks"
      ],
      [
        "y",
        "stem"
      ],
      [
        "Ġopportun",
        "ities"
      ],
      [
        "Ġstr",
        "ong"
      ],
      [
        "ff",
        "ic"
      ],
      [
        "Ġn",
        "on"
      ],
      [
        "Ġ",
        "`"
      ],
      [
        "or",
        "k"
      ],
      [
        "Ġ",
        "Wh"
      ],
      [
        "Ġcomp",
        "anies"
      ],
      [
        "Ġv",
        "ide"
      ],
      [
        "Ġl",
        "ook"
      ],
      [
        "Ġstud",
        "y"
      ],
      [
        "Ġjour",
        "ney"
      ],
      [
        "Ġgovern",
        "ment"
      ],
      [
        "Ġan",
        "im"
      ],
      [
        "pt",
        "ion"
      ],
      [
        "Ġdif",
        "f"
      ],
      [
        "Ġbro",
        "ad"
      ],
      [
        "Ġpartic",
        "ip"
      ],
      [
        "iz",
        "es"
      ],
      [
        "Ġtechn",
        "iques"
      ],
      [
        "Ġinit",
        "i"
      ],
      [
        "Ġfe",
        "ed"
      ],
      [
        "Ġh",
        "im"
      ],
      [
        "Ġcle",
        "an"
      ],
      [
        "Ġinclud",
        "es"
      ],
      [
        "Ġd",
        "ra"
      ],
      [
        "al",
        "ing"
      ],
      [
        "om",
        "en"
      ],
      [
        "Ġsec",
        "urity"
      ],
      [
        "ĠB",
        "e"
      ],
      [
        "r",
        "ite"
      ],
      [
        "Ġexpl",
        "ore"
      ],
      [
        "Ġval",
        "ue"
      ],
      [
        "Ġacc",
        "ount"
      ],
      [
        "Ġplatform",
        "s"
      ],
      [
        "Ġsu",
        "pp"
      ],
      [
        "a",
        "u"
      ],
      [
        "com",
        "es"
      ],
      [
        "Ġchang",
        "es"
      ],
      [
        "Ġunt",
        "il"
      ],
      [
        "Ġaut",
        "hor"
      ],
      [
        "Ġsu",
        "mm"
      ],
      [
        "Ġth",
        "ink"
      ],
      [
        "Ġob",
        "ject"
      ],
      [
        "âĢ",
        "Ķ"
      ],
      [
        "al",
        "u"
      ],
      [
        "Ġcult",
        "ure"
      ],
      [
        "g",
        "in"
      ],
      [
        "Ġenh",
        "ancing"
      ],
      [
        "Ġhelp",
        "s"
      ],
      [
        "Ġsuccess",
        "ful"
      ],
      [
        "Ġp",
        "ain"
      ],
      [
        "Ġanal",
        "y"
      ],
      [
        "ĠR",
        "e"
      ],
      [
        "Ġachie",
        "ve"
      ],
      [
        "Ġatt",
        "ention"
      ],
      [
        "Ġdig",
        "ital"
      ],
      [
        "Ġtyp",
        "es"
      ],
      [
        "Ġsh",
        "are"
      ],
      [
        "a",
        "per"
      ],
      [
        "d",
        "o"
      ],
      [
        "Ġoff",
        "ering"
      ],
      [
        "m",
        "an"
      ],
      [
        "Ġglob",
        "al"
      ],
      [
        "Ġincre",
        "ase"
      ],
      [
        "Ġs",
        "ources"
      ],
      [
        "Ġpop",
        "ular"
      ],
      [
        "Ġre",
        "ach"
      ],
      [
        "ive",
        "ly"
      ],
      [
        "pl",
        "ace"
      ],
      [
        "Ġme",
        "ans"
      ],
      [
        "Ġy",
        "ear"
      ],
      [
        "Ġf",
        "ield"
      ],
      [
        "am",
        "es"
      ],
      [
        "t",
        "ime"
      ],
      [
        "Ġl",
        "aw"
      ],
      [
        "Ġt",
        "as"
      ],
      [
        "Ġeng",
        "agement"
      ],
      [
        "il",
        "ar"
      ],
      [
        "Ġal",
        "ong"
      ],
      [
        "Ġst",
        "ill"
      ],
      [
        "ire",
        "d"
      ],
      [
        "Ġdesign",
        "ed"
      ],
      [
        "Ġopt",
        "im"
      ],
      [
        "Ġredu",
        "cing"
      ],
      [
        "ren",
        "g"
      ],
      [
        "Ġdes",
        "c"
      ],
      [
        "ĠE",
        "x"
      ],
      [
        "Ġm",
        "uch"
      ],
      [
        "Ġd",
        "id"
      ],
      [
        "Ġex",
        "erc"
      ],
      [
        "Ġal",
        "ways"
      ],
      [
        "Ġme",
        "et"
      ],
      [
        "red",
        "ients"
      ],
      [
        "Ġ",
        "i"
      ],
      [
        "Ġ",
        "ing"
      ],
      [
        "ra",
        "st"
      ],
      [
        "ur",
        "y"
      ],
      [
        "Ġknow",
        "n"
      ],
      [
        "Ġe",
        "th"
      ],
      [
        "Ġanal",
        "ysis"
      ],
      [
        "Ġris",
        "k"
      ],
      [
        "Ġp",
        "ast"
      ],
      [
        "Ġem",
        "b"
      ],
      [
        "Ġpro",
        "ble"
      ],
      [
        "pp",
        "ing"
      ],
      [
        "Ġl",
        "ow"
      ],
      [
        "Ġcon",
        "ditions"
      ],
      [
        "Ġident",
        "ify"
      ],
      [
        "Ġbe",
        "aut"
      ],
      [
        "is",
        "es"
      ],
      [
        "Ġem",
        "ail"
      ],
      [
        "Ġvis",
        "ual"
      ],
      [
        "Ġcol",
        "or"
      ],
      [
        "Ġhealth",
        "care"
      ],
      [
        "pl",
        "ay"
      ],
      [
        "ir",
        "d"
      ],
      [
        "a",
        "j"
      ],
      [
        "iss",
        "ion"
      ],
      [
        "Ġmethod",
        "s"
      ],
      [
        "an",
        "n"
      ],
      [
        "res",
        "h"
      ],
      [
        "Ġest",
        "ab"
      ],
      [
        "Ġh",
        "app"
      ],
      [
        "Ġprodu",
        "ction"
      ],
      [
        "ec",
        "ially"
      ],
      [
        "Ġallow",
        "s"
      ],
      [
        "v",
        "iew"
      ],
      [
        "f",
        "ect"
      ],
      [
        "g",
        "es"
      ],
      [
        "Ġnecess",
        "ary"
      ],
      [
        "Ġlevel",
        "s"
      ],
      [
        "Ġn",
        "ature"
      ],
      [
        "Ġele",
        "ments"
      ],
      [
        "oo",
        "se"
      ],
      [
        "Ġfact",
        "ors"
      ],
      [
        "ific",
        "ation"
      ],
      [
        "Ġlar",
        "ge"
      ],
      [
        "id",
        "es"
      ],
      [
        "y",
        "ond"
      ],
      [
        "id",
        "ence"
      ],
      [
        "h",
        "ow"
      ],
      [
        "Ġcont",
        "ext"
      ],
      [
        "e",
        "le"
      ],
      [
        "Ġp",
        "rior"
      ],
      [
        "em",
        "ic"
      ],
      [
        "olog",
        "ies"
      ],
      [
        "Ġdefin",
        "ition"
      ],
      [
        "Ġan",
        "t"
      ],
      [
        "pl",
        "ic"
      ],
      [
        "Ġeng",
        "aging"
      ],
      [
        "Ġ",
        "esp"
      ],
      [
        "Ġcour",
        "se"
      ],
      [
        "Ġen",
        "joy"
      ],
      [
        "iven",
        "ess"
      ],
      [
        "Ġ",
        "ill"
      ],
      [
        "it",
        "ation"
      ],
      [
        "f",
        "riend"
      ],
      [
        "t",
        "on"
      ],
      [
        "Ġare",
        "a"
      ],
      [
        "m",
        "ing"
      ],
      [
        "Ġref",
        "lect"
      ],
      [
        "ic",
        "le"
      ],
      [
        "Ġbec",
        "ome"
      ],
      [
        "Ġspec",
        "ial"
      ],
      [
        "on",
        "se"
      ],
      [
        "end",
        "er"
      ],
      [
        "fere",
        "nces"
      ],
      [
        "Ġex",
        "pect"
      ],
      [
        "Ġre",
        "ce"
      ],
      [
        "pp",
        "ed"
      ],
      [
        "ĠS",
        "he"
      ],
      [
        "Ġg",
        "ame"
      ],
      [
        "s",
        "ide"
      ],
      [
        "Ġinteg",
        "r"
      ],
      [
        "c",
        "y"
      ],
      [
        "Ġsaf",
        "ety"
      ],
      [
        "Ġsit",
        "u"
      ],
      [
        "ol",
        "ve"
      ],
      [
        "Ġrev",
        "iew"
      ],
      [
        "o",
        "ad"
      ],
      [
        "Ġapplic",
        "ation"
      ],
      [
        "Ġn",
        "ow"
      ],
      [
        "ĠS",
        "c"
      ],
      [
        "i",
        "od"
      ],
      [
        "ot",
        "e"
      ],
      [
        "g",
        "er"
      ],
      [
        "Ġhe",
        "art"
      ],
      [
        "is",
        "c"
      ],
      [
        "Ġorgan",
        "izations"
      ],
      [
        "Ġcl",
        "imate"
      ],
      [
        "ment",
        "al"
      ],
      [
        "Ġpract",
        "ice"
      ],
      [
        "in",
        "ce"
      ],
      [
        "Ġvar",
        "iety"
      ],
      [
        "ic",
        "ult"
      ],
      [
        "Ġc",
        "ra"
      ],
      [
        "Ġre",
        "new"
      ],
      [
        "k",
        "now"
      ],
      [
        "Ġs",
        "ens"
      ],
      [
        "Ġex",
        "c"
      ],
      [
        "Ġpolit",
        "ical"
      ],
      [
        "ot",
        "s"
      ],
      [
        "Ġass",
        "ist"
      ],
      [
        "ac",
        "es"
      ],
      [
        "Ġp",
        "ay"
      ],
      [
        "ell",
        "ing"
      ],
      [
        "Ġm",
        "om"
      ],
      [
        "Ġst",
        "reng"
      ],
      [
        "ĠThe",
        "re"
      ],
      [
        "Ġr",
        "un"
      ],
      [
        "ĠC",
        "l"
      ],
      [
        "Ġd",
        "iverse"
      ],
      [
        "Ġt",
        "er"
      ],
      [
        "m",
        "in"
      ],
      [
        "Ġpromot",
        "e"
      ],
      [
        "Ġacc",
        "ording"
      ],
      [
        "Ġconc",
        "er"
      ],
      [
        "Ġsignific",
        "ance"
      ],
      [
        "Ġesp",
        "ecially"
      ],
      [
        "Ġinflu",
        "ence"
      ],
      [
        "com",
        "p"
      ],
      [
        "se",
        "qu"
      ],
      [
        "en",
        "ing"
      ],
      [
        "ul",
        "ations"
      ],
      [
        "Ġinflu",
        "enc"
      ],
      [
        "ig",
        "ate"
      ],
      [
        "on",
        "es"
      ],
      [
        "iv",
        "ed"
      ],
      [
        "ov",
        "ing"
      ],
      [
        "Ġup",
        "d"
      ],
      [
        "ra",
        "in"
      ],
      [
        "Ġre",
        "ally"
      ],
      [
        "im",
        "ent"
      ],
      [
        "Ġchild",
        "ren"
      ],
      [
        "R",
        "et"
      ],
      [
        "Ġstrateg",
        "y"
      ],
      [
        "Ġins",
        "ights"
      ],
      [
        "Ġfollow",
        "ing"
      ],
      [
        "Ġemot",
        "ional"
      ],
      [
        "oo",
        "ks"
      ],
      [
        "ib",
        "r"
      ],
      [
        "Ġf",
        "re"
      ],
      [
        "Ġmem",
        "bers"
      ],
      [
        "Ġv",
        "ers"
      ],
      [
        "Ġprovid",
        "ed"
      ],
      [
        "be",
        "ing"
      ],
      [
        "ast",
        "ly"
      ],
      [
        "ip",
        "le"
      ],
      [
        "Ġposs",
        "ible"
      ],
      [
        "Ġc",
        "ook"
      ],
      [
        "Ġsty",
        "le"
      ],
      [
        "lus",
        "ion"
      ],
      [
        "ir",
        "c"
      ],
      [
        "le",
        "x"
      ],
      [
        "i",
        "res"
      ],
      [
        "iv",
        "ot"
      ],
      [
        "Ġmin",
        "im"
      ],
      [
        "Ġh",
        "ig"
      ],
      [
        "ir",
        "t"
      ],
      [
        "i",
        "ency"
      ],
      [
        "Ġwor",
        "king"
      ],
      [
        "Ġad",
        "apt"
      ],
      [
        "Ġt",
        "ru"
      ],
      [
        "l",
        "t"
      ],
      [
        "Ġav",
        "oid"
      ],
      [
        "om",
        "p"
      ],
      [
        "Ġrep",
        "resent"
      ],
      [
        "b",
        "on"
      ],
      [
        "Ġsub",
        "st"
      ],
      [
        "Ġsp",
        "ace"
      ],
      [
        "w",
        "ord"
      ],
      [
        "u",
        "ment"
      ],
      [
        "Ġn",
        "av"
      ],
      [
        "Ġval",
        "ues"
      ],
      [
        "os",
        "p"
      ],
      [
        "Ġa",
        "ware"
      ],
      [
        "Ġpo",
        "int"
      ],
      [
        "ut",
        "es"
      ],
      [
        "e",
        "k"
      ],
      [
        "or",
        "m"
      ],
      [
        "id",
        "s"
      ],
      [
        "Ġpolic",
        "ies"
      ],
      [
        "Ġ",
        "6"
      ],
      [
        "Ġreg",
        "ular"
      ],
      [
        "ut",
        "ion"
      ],
      [
        "Ġsomet",
        "hing"
      ],
      [
        "erv",
        "ation"
      ],
      [
        "Ġa",
        "ction"
      ],
      [
        "Ġprim",
        "ary"
      ],
      [
        "Ġl",
        "ast"
      ],
      [
        "Ġneg",
        "ative"
      ],
      [
        "Ġw",
        "ide"
      ],
      [
        "Ġp",
        "ress"
      ],
      [
        "Ġcom",
        "e"
      ],
      [
        "olut",
        "ions"
      ],
      [
        "ĠâĢ",
        "ľ"
      ],
      [
        "Ġp",
        "oll"
      ],
      [
        "Ġsoc",
        "iety"
      ],
      [
        "are",
        "nt"
      ],
      [
        "'",
        "ll"
      ],
      [
        "ĠP",
        "l"
      ],
      [
        "Ġs",
        "at"
      ],
      [
        "p",
        "ose"
      ],
      [
        "Ġcontribut",
        "e"
      ],
      [
        "Ġst",
        "ay"
      ],
      [
        "Ġdetail",
        "ed"
      ],
      [
        "our",
        "s"
      ],
      [
        "ore",
        "over"
      ],
      [
        "Ġh",
        "arm"
      ],
      [
        "Ġund",
        "ers"
      ],
      [
        "Ġve",
        "get"
      ],
      [
        "Ġab",
        "le"
      ],
      [
        "u",
        "ro"
      ],
      [
        "Ġgroup",
        "s"
      ],
      [
        "us",
        "h"
      ],
      [
        "end",
        "s"
      ],
      [
        "Ġide",
        "as"
      ],
      [
        "ic",
        "king"
      ],
      [
        "Ġsoft",
        "ware"
      ],
      [
        "Ġknow",
        "ledge"
      ],
      [
        "Ġimpact",
        "s"
      ],
      [
        "ĠN",
        "ew"
      ],
      [
        "Ġg",
        "reen"
      ],
      [
        "a",
        "f"
      ],
      [
        "Ġdet",
        "erm"
      ],
      [
        "Ġc",
        "ity"
      ],
      [
        "Ġfeed",
        "back"
      ],
      [
        "Ġb",
        "as"
      ],
      [
        "Ġres",
        "pect"
      ],
      [
        "s",
        "y"
      ],
      [
        "Ġu",
        "r"
      ],
      [
        "g",
        "ar"
      ],
      [
        "Ġass",
        "oci"
      ],
      [
        "i",
        "k"
      ],
      [
        "Ġtrans",
        "port"
      ],
      [
        "Ġn",
        "arr"
      ],
      [
        "Ġut",
        "il"
      ],
      [
        "Ġprog",
        "ress"
      ],
      [
        "Ġcol",
        "lect"
      ],
      [
        "Ġtyp",
        "e"
      ],
      [
        "com",
        "ing"
      ],
      [
        "Ġre",
        "lev"
      ],
      [
        "Ġin",
        "form"
      ],
      [
        "Ġf",
        "ace"
      ],
      [
        "Ġins",
        "p"
      ],
      [
        "Ġca",
        "us"
      ],
      [
        "Ġph",
        "ot"
      ],
      [
        "at",
        "or"
      ],
      [
        "S",
        "wit"
      ],
      [
        "Ġrelationship",
        "s"
      ],
      [
        "om",
        "s"
      ],
      [
        "p",
        "art"
      ],
      [
        "rap",
        "y"
      ],
      [
        "Ġm",
        "ix"
      ],
      [
        "Ġst",
        "at"
      ],
      [
        "m",
        "ed"
      ],
      [
        "Ġresp",
        "onse"
      ],
      [
        "Ġbuild",
        "ing"
      ],
      [
        "ĠE",
        "ng"
      ],
      [
        "ate",
        "ly"
      ],
      [
        "Ġcont",
        "act"
      ],
      [
        "ĠD",
        "e"
      ],
      [
        "friend",
        "ly"
      ],
      [
        "b",
        "o"
      ],
      [
        "Ġint",
        "rodu"
      ],
      [
        "m",
        "on"
      ],
      [
        "ĠA",
        "nd"
      ],
      [
        "Ġvis",
        "it"
      ],
      [
        "Ġsub",
        "ject"
      ],
      [
        "Ġpr",
        "iv"
      ],
      [
        "Ġdiff",
        "icult"
      ],
      [
        "Ġprev",
        "ious"
      ],
      [
        "an",
        "e"
      ],
      [
        "f",
        "ace"
      ],
      [
        "ers",
        "on"
      ],
      [
        "Ġo",
        "cc"
      ],
      [
        "ore",
        "s"
      ],
      [
        "Ġcon",
        "vers"
      ],
      [
        "ĠD",
        "o"
      ],
      [
        "Ġc",
        "ertain"
      ],
      [
        "Ġca",
        "pt"
      ],
      [
        "Ġem",
        "p"
      ],
      [
        "Ġeas",
        "y"
      ],
      [
        "Ġnot",
        "e"
      ],
      [
        "Ġb",
        "ook"
      ],
      [
        "Ġad",
        "just"
      ],
      [
        "Ġreg",
        "arding"
      ],
      [
        "Ġrenew",
        "able"
      ],
      [
        "Ġrecip",
        "e"
      ],
      [
        "Ġ",
        "="
      ],
      [
        "Ġhist",
        "or"
      ],
      [
        "at",
        "ory"
      ],
      [
        "1",
        "0"
      ],
      [
        "Ġbehav",
        "ior"
      ],
      [
        "h",
        "ave"
      ],
      [
        "al",
        "k"
      ],
      [
        "Ġper",
        "iod"
      ],
      [
        "Ġs",
        "ame"
      ],
      [
        "Ġmeas",
        "ures"
      ],
      [
        "ĠW",
        "ith"
      ],
      [
        "es",
        "e"
      ],
      [
        "Ġbec",
        "ause"
      ],
      [
        "i",
        "ation"
      ],
      [
        "u",
        "ra"
      ],
      [
        "Ġdec",
        "ision"
      ],
      [
        "Ġpers",
        "pect"
      ],
      [
        "imate",
        "ly"
      ],
      [
        "ĠR",
        "es"
      ],
      [
        "iss",
        "ions"
      ],
      [
        "Ġv",
        "ol"
      ],
      [
        "Ġt",
        "erm"
      ],
      [
        "Ġper",
        "fect"
      ],
      [
        "Ġsh",
        "ort"
      ],
      [
        "Ġsm",
        "o"
      ],
      [
        "Ġl",
        "ay"
      ],
      [
        "Ġpromot",
        "ing"
      ],
      [
        "Ġh",
        "old"
      ],
      [
        "Ġst",
        "ructure"
      ],
      [
        "Ġtra",
        "vel"
      ],
      [
        "g",
        "ed"
      ],
      [
        "ab",
        "ly"
      ],
      [
        "g",
        "round"
      ],
      [
        "Ġhealth",
        "y"
      ],
      [
        "Ret",
        "urning"
      ],
      [
        "Ġr",
        "out"
      ],
      [
        "Ġcons",
        "ist"
      ],
      [
        "at",
        "ors"
      ],
      [
        "th",
        "ing"
      ],
      [
        "one",
        "y"
      ],
      [
        "urther",
        "more"
      ],
      [
        "Ġt",
        "imes"
      ],
      [
        "at",
        "ch"
      ],
      [
        "ag",
        "ed"
      ],
      [
        "Ġing",
        "redients"
      ],
      [
        "Ġorgan",
        "ization"
      ],
      [
        "Ġunders",
        "c"
      ],
      [
        "it",
        "ud"
      ],
      [
        "Ġsc",
        "en"
      ],
      [
        "op",
        "h"
      ],
      [
        "Ġ",
        "'"
      ],
      [
        "u",
        "g"
      ],
      [
        "Ġbr",
        "ing"
      ],
      [
        "ĠIn",
        "st"
      ],
      [
        "Ġw",
        "aste"
      ],
      [
        "it",
        "es"
      ],
      [
        "f",
        "er"
      ],
      [
        "ill",
        "ed"
      ],
      [
        "m",
        "y"
      ],
      [
        "re",
        "l"
      ],
      [
        "l",
        "ife"
      ],
      [
        "yn",
        "am"
      ],
      [
        "iv",
        "al"
      ],
      [
        "Ġg",
        "ears"
      ],
      [
        "c",
        "ent"
      ],
      [
        "Ġg",
        "iven"
      ],
      [
        "oc",
        "ial"
      ],
      [
        "Ġf",
        "resh"
      ],
      [
        "Ġp",
        "ort"
      ],
      [
        "ie",
        "ce"
      ],
      [
        "Ċ",
        "ĠĠĠĠ"
      ],
      [
        "h",
        "old"
      ],
      [
        "um",
        "p"
      ],
      [
        "Ġdem",
        "and"
      ],
      [
        "Ġc",
        "up"
      ],
      [
        "Ġf",
        "it"
      ],
      [
        "ens",
        "ive"
      ],
      [
        "Ġbe",
        "yond"
      ],
      [
        "ast",
        "ic"
      ],
      [
        "her",
        "s"
      ],
      [
        "ab",
        "ilities"
      ],
      [
        "Ġp",
        "ivot"
      ],
      [
        "00",
        "0"
      ],
      [
        "ly",
        "ing"
      ],
      [
        "mb",
        "ol"
      ],
      [
        "ĠE",
        "m"
      ],
      [
        "Ġhow",
        "ever"
      ],
      [
        "Ġeffic",
        "ient"
      ],
      [
        "Ġc",
        "over"
      ],
      [
        "Ġ",
        "very"
      ],
      [
        "Ġcontin",
        "u"
      ],
      [
        "Ġshow",
        "c"
      ],
      [
        "Ġse",
        "ason"
      ],
      [
        "A",
        "d"
      ],
      [
        "end",
        "ed"
      ],
      [
        "Ġad",
        "op"
      ],
      [
        "y",
        "our"
      ],
      [
        "ru",
        "gg"
      ],
      [
        "c",
        "ome"
      ],
      [
        "Ġdis",
        "e"
      ],
      [
        "ĠI",
        "m"
      ],
      [
        "Ġse",
        "lect"
      ],
      [
        "Ġmin",
        "utes"
      ],
      [
        "Ġpur",
        "ch"
      ],
      [
        "y",
        "d"
      ],
      [
        "Ġh",
        "ard"
      ],
      [
        "Ġche",
        "ck"
      ],
      [
        "Ġqu",
        "ick"
      ],
      [
        "ĠB",
        "l"
      ],
      [
        "Ġc",
        "ase"
      ],
      [
        "ill",
        "ion"
      ],
      [
        "Ġcan",
        "not"
      ],
      [
        "d",
        "ing"
      ],
      [
        "Ġval",
        "u"
      ],
      [
        "Ġac",
        "ad"
      ],
      [
        "is",
        "ions"
      ],
      [
        "Ġcomple",
        "te"
      ],
      [
        "x",
        "iety"
      ],
      [
        "qu",
        "ality"
      ],
      [
        "Ġh",
        "ab"
      ],
      [
        "Ġpre",
        "p"
      ],
      [
        "Ġcom",
        "es"
      ],
      [
        "ĠAmeric",
        "an"
      ],
      [
        "Swit",
        "ching"
      ],
      [
        "Ġhe",
        "ad"
      ],
      [
        "Ġsp",
        "ir"
      ],
      [
        "Ġs",
        "olutions"
      ],
      [
        "im",
        "in"
      ],
      [
        "is",
        "ed"
      ],
      [
        "Ġne",
        "xt"
      ],
      [
        "Ġex",
        "ce"
      ],
      [
        "Ġal",
        "ign"
      ],
      [
        "The",
        "se"
      ],
      [
        "ter",
        "m"
      ],
      [
        "f",
        "l"
      ],
      [
        "Ġleg",
        "al"
      ],
      [
        "Ġwe",
        "b"
      ],
      [
        "Ġmention",
        "ed"
      ],
      [
        "ash",
        "ion"
      ],
      [
        "Ġd",
        "ed"
      ],
      [
        "Ġfe",
        "ature"
      ],
      [
        "Ġemploy",
        "ees"
      ],
      [
        "Ġb",
        "ar"
      ],
      [
        "Ġd",
        "i"
      ],
      [
        "ac",
        "hes"
      ],
      [
        "Ġv",
        "ital"
      ],
      [
        "Ġcount",
        "ries"
      ],
      [
        "ap",
        "s"
      ],
      [
        "ĠC",
        "omm"
      ],
      [
        "Ġcom",
        "fort"
      ],
      [
        "th",
        "s"
      ],
      [
        "Ġtr",
        "ust"
      ],
      [
        "Ġconcer",
        "ns"
      ],
      [
        "Ġfl",
        "avor"
      ],
      [
        "b",
        "ook"
      ],
      [
        "Ġp",
        "aper"
      ],
      [
        "Ġinit",
        "ial"
      ],
      [
        "ul",
        "ate"
      ],
      [
        "Ġsec",
        "ond"
      ],
      [
        "Ġlit",
        "er"
      ],
      [
        "Ġproject",
        "s"
      ],
      [
        "esp",
        "ite"
      ],
      [
        "Ġ",
        "Q"
      ],
      [
        "ast",
        "er"
      ],
      [
        "Ġmod",
        "ern"
      ],
      [
        "f",
        "rom"
      ],
      [
        "Ġcons",
        "id"
      ],
      [
        "Ġallow",
        "ing"
      ],
      [
        "sy",
        "ch"
      ],
      [
        ".",
        "."
      ],
      [
        "Ġact",
        "ions"
      ],
      [
        "Ġal",
        "tern"
      ],
      [
        "ust",
        "r"
      ],
      [
        "Ġmaintain",
        "ing"
      ],
      [
        "Ġmot",
        "iv"
      ],
      [
        "l",
        "ier"
      ],
      [
        "Ġincre",
        "ased"
      ],
      [
        "l",
        "ike"
      ],
      [
        "Ġbal",
        "ance"
      ],
      [
        "'",
        "ve"
      ],
      [
        "Ġt",
        "aking"
      ],
      [
        "or",
        "n"
      ],
      [
        "os",
        "ing"
      ],
      [
        "Ġmon",
        "it"
      ],
      [
        "es",
        "c"
      ],
      [
        "ĠW",
        "hen"
      ],
      [
        "Ġfac",
        "ilit"
      ],
      [
        "Ġdirect",
        "ly"
      ],
      [
        "Ġexp",
        "ress"
      ],
      [
        "a",
        "id"
      ],
      [
        "Ġr",
        "ights"
      ],
      [
        "Ġresult",
        "s"
      ],
      [
        "Ġt",
        "urn"
      ],
      [
        "c",
        "l"
      ],
      [
        "Ġl",
        "ine"
      ],
      [
        "Ġad",
        "vert"
      ],
      [
        "Ġhig",
        "her"
      ],
      [
        "it",
        "able"
      ],
      [
        "ĠâĢ",
        "ĵ"
      ],
      [
        "Ġh",
        "ope"
      ],
      [
        "Ġdel",
        "ve"
      ],
      [
        "ur",
        "s"
      ],
      [
        "Ġbre",
        "ak"
      ],
      [
        "Ġman",
        "age"
      ],
      [
        "Ġapp",
        "e"
      ],
      [
        "Ġn",
        "ame"
      ],
      [
        "Ġeng",
        "age"
      ],
      [
        "aj",
        "or"
      ],
      [
        "Ġsk",
        "in"
      ],
      [
        "Ġ",
        "["
      ],
      [
        "Ġw",
        "ind"
      ],
      [
        "A",
        "n"
      ],
      [
        "Ġpolic",
        "y"
      ],
      [
        "b",
        "an"
      ],
      [
        "r",
        "ont"
      ],
      [
        "Ġpl",
        "ant"
      ],
      [
        "ag",
        "n"
      ],
      [
        "Ġst",
        "rugg"
      ],
      [
        "e",
        "per"
      ],
      [
        "Ċ",
        "ĠĠĠ"
      ],
      [
        "Ġpre",
        "d"
      ],
      [
        "ail",
        "y"
      ],
      [
        "ĠI",
        "s"
      ],
      [
        "we",
        "et"
      ],
      [
        "Ġquest",
        "ion"
      ],
      [
        "Ġw",
        "omen"
      ],
      [
        "Ġd",
        "ynam"
      ],
      [
        "ĠIn",
        "c"
      ],
      [
        "for",
        "d"
      ],
      [
        "Ġpre",
        "ferences"
      ],
      [
        "ist",
        "ics"
      ],
      [
        "ĠT",
        "e"
      ],
      [
        "Ġd",
        "am"
      ],
      [
        "Ġl",
        "og"
      ],
      [
        "ach",
        "ing"
      ],
      [
        "t",
        "t"
      ],
      [
        "##",
        "#"
      ],
      [
        "Th",
        "at"
      ],
      [
        "Ġsy",
        "mbol"
      ],
      [
        "Ġf",
        "oot"
      ],
      [
        "Ġrelev",
        "ant"
      ],
      [
        "Ġaut",
        "om"
      ],
      [
        "Ġincre",
        "asing"
      ],
      [
        "Ġc",
        "irc"
      ],
      [
        "W",
        "e"
      ],
      [
        "Ġp",
        "ack"
      ],
      [
        "ĠG",
        "o"
      ],
      [
        "ar",
        "c"
      ],
      [
        "Ġam",
        "ount"
      ],
      [
        "Ġgu",
        "ide"
      ],
      [
        "Ġ1",
        "0"
      ],
      [
        "pp",
        "er"
      ],
      [
        "z",
        "e"
      ],
      [
        "Ġl",
        "oss"
      ],
      [
        "Ġth",
        "ree"
      ],
      [
        "Ġtyp",
        "ically"
      ],
      [
        "Ġm",
        "ob"
      ],
      [
        "Ġc",
        "ele"
      ],
      [
        "Ġd",
        "oc"
      ],
      [
        "Ġtre",
        "nd"
      ],
      [
        "Ġc",
        "ut"
      ],
      [
        "Ġinvolv",
        "ed"
      ],
      [
        "Ġan",
        "xiety"
      ],
      [
        "Ġbel",
        "ief"
      ],
      [
        "p",
        "re"
      ],
      [
        "Ġem",
        "erg"
      ],
      [
        "ic",
        "ate"
      ],
      [
        "Ġiniti",
        "atives"
      ],
      [
        "ric",
        "ult"
      ],
      [
        "Ġe",
        "y"
      ],
      [
        "Ġcar",
        "bon"
      ],
      [
        "Ġfriend",
        "s"
      ],
      [
        "an",
        "ks"
      ],
      [
        "Ġex",
        "ist"
      ],
      [
        "av",
        "es"
      ],
      [
        "a",
        "un"
      ],
      [
        "le",
        "ep"
      ],
      [
        "Ġthrough",
        "out"
      ],
      [
        "Ġvide",
        "o"
      ],
      [
        "ĠUn",
        "ited"
      ],
      [
        "Ġeduc",
        "ational"
      ],
      [
        "Ġadv",
        "ance"
      ],
      [
        "Ġfost",
        "ering"
      ],
      [
        "u",
        "fact"
      ],
      [
        "Ġdem",
        "on"
      ],
      [
        "Ġprof",
        "ound"
      ],
      [
        "Ġtechn",
        "ologies"
      ],
      [
        "ow",
        "s"
      ],
      [
        "Ġrel",
        "ated"
      ],
      [
        "ful",
        "ness"
      ],
      [
        "Ġeffic",
        "iency"
      ],
      [
        "at",
        "o"
      ],
      [
        "ter",
        "ns"
      ],
      [
        "Ġb",
        "at"
      ],
      [
        "Ġsp",
        "e"
      ],
      [
        "as",
        "c"
      ],
      [
        "Ġemot",
        "ions"
      ],
      [
        "os",
        "ystem"
      ],
      [
        "Ġsustain",
        "ability"
      ],
      [
        "Ġc",
        "red"
      ],
      [
        "Ġcost",
        "s"
      ],
      [
        "1",
        "9"
      ],
      [
        "ition",
        "ing"
      ],
      [
        "Ġl",
        "ooking"
      ],
      [
        "Ġde",
        "eper"
      ],
      [
        "Ġcon",
        "duct"
      ],
      [
        "Ġconf",
        "lic"
      ],
      [
        "ĠB",
        "ut"
      ],
      [
        "Ġassoci",
        "ated"
      ],
      [
        "in",
        "a"
      ],
      [
        "if",
        "ically"
      ],
      [
        "ri",
        "ed"
      ],
      [
        "ĠS",
        "ome"
      ],
      [
        "Ġcount",
        "ry"
      ],
      [
        "Ġapplic",
        "ations"
      ],
      [
        "Ġs",
        "ide"
      ],
      [
        "w",
        "er"
      ],
      [
        "t",
        "ers"
      ],
      [
        "ou",
        "th"
      ],
      [
        "sel",
        "ves"
      ],
      [
        "i",
        "able"
      ],
      [
        "Ġiss",
        "ue"
      ],
      [
        "if",
        "ting"
      ],
      [
        "Ġrem",
        "ain"
      ],
      [
        "Ġt",
        "our"
      ],
      [
        "Ġtreat",
        "ment"
      ],
      [
        "Ġ",
        "7"
      ],
      [
        "Ġd",
        "iet"
      ],
      [
        "o",
        "ff"
      ],
      [
        "Ġp",
        "iece"
      ],
      [
        "ĠC",
        "ons"
      ],
      [
        "u",
        "ce"
      ],
      [
        "m",
        "it"
      ],
      [
        "c",
        "king"
      ],
      [
        "Ġc",
        "ode"
      ],
      [
        "Ġear",
        "ly"
      ],
      [
        "i",
        "ance"
      ],
      [
        "Ġacad",
        "emic"
      ],
      [
        "Ġbel",
        "ie"
      ],
      [
        "C",
        "h"
      ],
      [
        "Ġlike",
        "ly"
      ],
      [
        "Ġg",
        "round"
      ],
      [
        "Ġcommit",
        "ment"
      ],
      [
        "Ġpart",
        "n"
      ],
      [
        "Ġtem",
        "per"
      ],
      [
        "en",
        "ge"
      ],
      [
        "Ġpass",
        "age"
      ],
      [
        "Ġst",
        "e"
      ],
      [
        "ar",
        "ies"
      ],
      [
        "Ġpr",
        "inc"
      ],
      [
        "ĠC",
        "ol"
      ],
      [
        "for",
        "ce"
      ],
      [
        "Ġg",
        "ain"
      ],
      [
        "Ġhe",
        "at"
      ],
      [
        "et",
        "ic"
      ],
      [
        "est",
        "s"
      ],
      [
        "Ġcon",
        "cept"
      ],
      [
        "Ġpre",
        "c"
      ],
      [
        "Ġaspect",
        "s"
      ],
      [
        "Ġmed",
        "ical"
      ],
      [
        "ct",
        "ions"
      ],
      [
        "Ġsim",
        "ilar"
      ],
      [
        "Ġapp",
        "rec"
      ],
      [
        "Ġquest",
        "ions"
      ],
      [
        "ir",
        "ing"
      ],
      [
        "Ġyour",
        "self"
      ],
      [
        "Ġeth",
        "ical"
      ],
      [
        "or",
        "th"
      ],
      [
        "Ġf",
        "arm"
      ],
      [
        "i",
        "ol"
      ],
      [
        "Ġm",
        "it"
      ],
      [
        "Ġspec",
        "ies"
      ],
      [
        "Ġor",
        "der"
      ],
      [
        "Ġcomp",
        "ut"
      ],
      [
        "Ġestab",
        "lish"
      ],
      [
        "Ġl",
        "ed"
      ],
      [
        "Ġsal",
        "es"
      ],
      [
        "id",
        "d"
      ],
      [
        "Ċ",
        "ĠĠ"
      ],
      [
        "in",
        "ary"
      ],
      [
        "Ġg",
        "ar"
      ],
      [
        "Ġpat",
        "h"
      ],
      [
        "ric",
        "t"
      ],
      [
        "or",
        "ation"
      ],
      [
        "r",
        "ist"
      ],
      [
        "w",
        "as"
      ],
      [
        "Ġser",
        "ve"
      ],
      [
        "Ġl",
        "ives"
      ],
      [
        "Ġpivot",
        "al"
      ],
      [
        "l",
        "ished"
      ],
      [
        "s",
        "ome"
      ],
      [
        "Ġh",
        "om"
      ],
      [
        "Ġs",
        "ize"
      ],
      [
        "fere",
        "nce"
      ],
      [
        "Ġ",
        "What"
      ],
      [
        "le",
        "ar"
      ],
      [
        "ĠS",
        "e"
      ],
      [
        "Ġmult",
        "iple"
      ],
      [
        "Ġf",
        "ashion"
      ],
      [
        "er",
        "ous"
      ],
      [
        "Ġeng",
        "ine"
      ],
      [
        "Ġful",
        "l"
      ],
      [
        "r",
        "ing"
      ],
      [
        "Ġdiscuss",
        "ing"
      ],
      [
        "th",
        "is"
      ],
      [
        "Ġec",
        "osystem"
      ],
      [
        "Ġc",
        "ell"
      ],
      [
        "Ġadv",
        "ant"
      ],
      [
        "Ġter",
        "ms"
      ],
      [
        "ve",
        "y"
      ],
      [
        "Ġt",
        "ail"
      ],
      [
        "t",
        "ies"
      ],
      [
        "ish",
        "ing"
      ],
      [
        "er",
        "ve"
      ],
      [
        "Ġd",
        "iversity"
      ],
      [
        "Ġtas",
        "ks"
      ],
      [
        "Ġaware",
        "ness"
      ],
      [
        "Ġar",
        "g"
      ],
      [
        "ot",
        "t"
      ],
      [
        "Ġth",
        "ings"
      ],
      [
        "ic",
        "ro"
      ],
      [
        "al",
        "y"
      ],
      [
        "Ġpat",
        "terns"
      ],
      [
        "Ġdev",
        "ices"
      ],
      [
        "Ġinst",
        "ance"
      ],
      [
        "Ġsec",
        "ure"
      ],
      [
        "Ġs",
        "ing"
      ],
      [
        "Ġ",
        "Z"
      ],
      [
        "ak",
        "en"
      ],
      [
        "Ġd",
        "aily"
      ],
      [
        "Ġdemon",
        "str"
      ],
      [
        "ill",
        "ing"
      ],
      [
        "Ġt",
        "ou"
      ],
      [
        "Ġre",
        "d"
      ],
      [
        "Ġland",
        "sc"
      ],
      [
        "Ġyou",
        "ng"
      ],
      [
        "Ġr",
        "ich"
      ],
      [
        "ic",
        "les"
      ],
      [
        "Ġm",
        "akes"
      ],
      [
        "el",
        "t"
      ],
      [
        "n",
        "ed"
      ],
      [
        "Ġso",
        "il"
      ],
      [
        "ig",
        "ation"
      ],
      [
        "ict",
        "ion"
      ],
      [
        "Ġl",
        "ower"
      ],
      [
        "ĠA",
        "f"
      ],
      [
        "Ġpur",
        "pose"
      ],
      [
        "Ġmom",
        "ent"
      ],
      [
        "Ġnarr",
        "ative"
      ],
      [
        "ir",
        "m"
      ],
      [
        "Ġris",
        "ks"
      ],
      [
        "ch",
        "an"
      ],
      [
        "c",
        "hes"
      ],
      [
        "Ġev",
        "alu"
      ],
      [
        "in",
        "formation"
      ],
      [
        "the",
        "ir"
      ],
      [
        "Ġwor",
        "th"
      ],
      [
        "Ġhistor",
        "ical"
      ],
      [
        "Ġcho",
        "ice"
      ],
      [
        "i",
        "ans"
      ],
      [
        "Ġpo",
        "ints"
      ],
      [
        "g",
        "or"
      ],
      [
        "Ġear",
        "lier"
      ],
      [
        "Ġtra",
        "ck"
      ],
      [
        "Ġsaf",
        "e"
      ],
      [
        "itud",
        "e"
      ],
      [
        "Ġprior",
        "it"
      ],
      [
        "Ġp",
        "ow"
      ],
      [
        "ful",
        "ly"
      ],
      [
        "Ġsat",
        "is"
      ],
      [
        "Ġpotential",
        "ly"
      ],
      [
        "le",
        "y"
      ],
      [
        "ĠO",
        "r"
      ],
      [
        "Ġm",
        "ajor"
      ],
      [
        "Ġmess",
        "age"
      ],
      [
        "Ġcomp",
        "on"
      ],
      [
        "S",
        "h"
      ],
      [
        "Ġus",
        "es"
      ],
      [
        "Ġprocess",
        "es"
      ],
      [
        "Ġ",
        "z"
      ],
      [
        "Ġsoc",
        "iet"
      ],
      [
        "Ġhelp",
        "ful"
      ],
      [
        "Ġinv",
        "olve"
      ],
      [
[...]
