{
  "version": "1.0",
  "truncation": null,
  "padding": null,
  "added_tokens": [
    {
      "id": 0,
      "content": "[PAD]",
      "single_word": false,
      "lstrip": false,
      "rstrip": false,
      "normalized": false,
      "special": true
    },
    {
      "id": 1,
      "content": "[UNK]",
      "single_word": false,
      "lstrip": false,
      "rstrip": false,
      "normalized": false,
      "special": true
    },
    {
      "id": 2,
      "content": "[SESSION]",
      "single_word": false,
      "lstrip": false,
      "rstrip": false,
      "normalized": false,
      "special": true
    },
    {
      "id": 3,
      "content": "[USER]",
      "single_word": false,
      "lstrip": false,
      "rstrip": false,
      "normalized": false,
      "special": true
    },
    {
      "id": 4,
      "content": "[MODEL]",
      "single_word": false,
      "lstrip": false,
      "rstrip": false,
      "normalized": false,
      "special": true
    },
    {
      "id": 5,
      "content": "[LISTEN]",
      "single_word": false,
      "lstrip": false,
      "rstrip": false,
      "normalized": false,
      "special": true
    },
    {
      "id": 6,
      "content": "[USER_END]",
      "single_word": false,
      "lstrip": false,
      "rstrip": false,
      "normalized": false,
      "special": true
    },
    {
      "id": 7,
      "content": "[MODEL_END]",
      "single_word": false,
      "lstrip": false,
      "rstrip": false,
      "normalized": false,
      "special": true
    },
    {
      "id": 8,
      "content": "[SESSION_END]",
      "single_word": false,
      "lstrip": false,
      "rstrip": false,
      "normalized": false,
      "special": true
    },
    {
      "id": 9,
      "content": "[USER_INTERRUPT]",
      "single_word": false,
      "lstrip": false,
      "rstrip": false,
      "normalized": false,
      "special": true
    },
    {
      "id": 10,
      "content": "[AUDIO_IN]",
      "single_word": false,
      "lstrip": false,
      "rstrip": false,
      "normalized": false,
      "special": true
    },
    {
      "id": 11,
      "content": "[AUDIO_OUT]",
      "single_word": false,
      "lstrip": false,
      "rstrip": false,
      "normalized": false,
      "special": true
    },
    {
      "id": 12,
      "content": "[AUDIO_END]",
      "single_word": false,
      "lstrip": false,
      "rstrip": false,
      "normalized": false,
      "special": true
    },
    {
      "id": 13,
      "content": "[SILENCE]",
      "single_word": false,
      "lstrip": false,
      "rstrip": false,
      "normalized": false,
      "special": true
    },
    {
      "id": 14,
      "content": "[TEXT_IN]",
      "single_word": false,
      "lstrip": false,
      "rstrip": false,
      "normalized": false,
      "special": true
    },
    {
      "id": 15,
      "content": "[TEXT_OUT]",
      "single_word": false,
      "lstrip": false,
      "rstrip": false,
      "normalized": false,
      "special": true
    },
    {
      "id": 16000,
      "content": "[HYBRID_OUT]",
      "single_word": false,
      "lstrip": false,
      "rstrip": false,
      "normalized": false,
      "special": true
    },
    {
      "id": 16001,
      "content": "[IMAGE_IN]",
      "single_word": false,
      "lstrip": false,
      "rstrip": false,
      "normalized": false,
      "special": true
    },
    {
      "id": 16002,
      "content": "[TEXT]",
      "single_word": false,
      "lstrip": false,
      "rstrip": false,
      "normalized": false,
      "special": true
    },
    {
      "id": 16003,
      "content": "[AUDIO]",
      "single_word": false,
      "lstrip": false,
      "rstrip": false,
      "normalized": false,
      "special": true
    },
    {
      "id": 16004,
      "content": "[IMAGE]",
      "single_word": false,
      "lstrip": false,
      "rstrip": false,
      "normalized": false,
      "special": true
    },
    {
      "id": 16005,
      "content": "[HYBRID]",
      "single_word": false,
      "lstrip": false,
      "rstrip": false,
      "normalized": false,
      "special": true
    }
  ],
  "normalizer": null,
  "pre_tokenizer": {
    "type": "ByteLevel",
    "add_prefix_space": false,
    "trim_offsets": true,
    "use_regex": true
  },
  "post_processor": null,
  "decoder": {
    "type": "ByteLevel",
    "add_prefix_space": true,
    "trim_offsets": true,
    "use_regex": true
  },
  "model": {
    "type": "BPE",
    "dropout": null,
    "unk_token": "[UNK]",
    "continuing_subword_prefix": null,
    "end_of_word_suffix": null,
    "fuse_unk": false,
    "byte_fallback": true,
    "ignore_merges": false,
    "vocab": {
      "[PAD]": 0,
      "[UNK]": 1,
      "[SESSION]": 2,
      "[USER]": 3,
      "[MODEL]": 4,
      "[LISTEN]": 5,
      "[USER_END]": 6,
      "[MODEL_END]": 7,
      "[SESSION_END]": 8,
      "[USER_INTERRUPT]": 9,
      "[AUDIO_IN]": 10,
      "[AUDIO_OUT]": 11,
      "[AUDIO_END]": 12,
      "[SILENCE]": 13,
      "[TEXT_IN]": 14,
      "[TEXT_OUT]": 15,
      "!": 16,
      "\"": 17,
      "#": 18,
      "$": 19,
      "%": 20,
      "&": 21,
      "'": 22,
      "(": 23,
      ")": 24,
      "*": 25,
      "+": 26,
      ",": 27,
      "-": 28,
      ".": 29,
      "/": 30,
      "0": 31,
      "1": 32,
      "2": 33,
      "3": 34,
      "4": 35,
      "5": 36,
      "6": 37,
      "7": 38,
      "8": 39,
      "9": 40,
      ":": 41,
      ";": 42,
      "<": 43,
      "=": 44,
      ">": 45,
      "?": 46,
      "@": 47,
      "A": 48,
      "B": 49,
      "C": 50,
      "D": 51,
      "E": 52,
      "F": 53,
      "G": 54,
      "H": 55,
      "I": 56,
      "J": 57,
      "K": 58,
      "L": 59,
      "M": 60,
      "N": 61,
      "O": 62,
      "P": 63,
      "Q": 64,
      "R": 65,
      "S": 66,
      "T": 67,
      "U": 68,
      "V": 69,
      "W": 70,
      "X": 71,
      "Y": 72,
      "Z": 73,
      "[": 74,
      "\\": 75,
      "]": 76,
      "^": 77,
      "_": 78,
      "`": 79,
      "a": 80,
      "b": 81,
      "c": 82,
      "d": 83,
      "e": 84,
      "f": 85,
      "g": 86,
      "h": 87,
      "i": 88,
      "j": 89,
      "k": 90,
      "l": 91,
      "m": 92,
      "n": 93,
      "o": 94,
      "p": 95,
      "q": 96,
      "r": 97,
      "s": 98,
      "t": 99,
      "u": 100,
      "v": 101,
      "w": 102,
      "x": 103,
      "y": 104,
      "z": 105,
      "{": 106,
      "|": 107,
      "}": 108,
      "~": 109,
      "¡": 110,
      "¢": 111,
      "£": 112,
      "¤": 113,
      "¥": 114,
      "¦": 115,
      "§": 116,
      "¨": 117,
      "©": 118,
      "ª": 119,
      "«": 120,
      "¬": 121,
      "®": 122,
      "¯": 123,
      "°": 124,
      "±": 125,
      "²": 126,
      "³": 127,
      "´": 128,
      "µ": 129,
      "¶": 130,
      "·": 131,
      "¸": 132,
      "¹": 133,
      "º": 134,
      "»": 135,
      "¼": 136,
      "½": 137,
      "¾": 138,
      "¿": 139,
      "À": 140,
      "Á": 141,
      "Â": 142,
      "Ã": 143,
      "Ä": 144,
      "Å": 145,
      "Æ": 146,
      "Ç": 147,
      "È": 148,
      "É": 149,
      "Ê": 150,
      "Ë": 151,
      "Ì": 152,
      "Í": 153,
      "Î": 154,
      "Ï": 155,
      "Ð": 156,
      "Ñ": 157,
      "Ò": 158,
      "Ó": 159,
      "Ô": 160,
      "Õ": 161,
      "Ö": 162,
      "×": 163,
      "Ø": 164,
      "Ù": 165,
      "Ú": 166,
      "Û": 167,
      "Ü": 168,
      "Ý": 169,
      "Þ": 170,
      "ß": 171,
      "à": 172,
      "á": 173,
      "â": 174,
      "ã": 175,
      "ä": 176,
      "å": 177,
      "æ": 178,
      "ç": 179,
      "è": 180,
      "é": 181,
      "ê": 182,
      "ë": 183,
      "ì": 184,
      "í": 185,
      "î": 186,
      "ï": 187,
      "ð": 188,
      "ñ": 189,
      "ò": 190,
      "ó": 191,
      "ô": 192,
      "õ": 193,
      "ö": 194,
      "÷": 195,
      "ø": 196,
      "ù": 197,
      "ú": 198,
      "û": 199,
      "ü": 200,
      "ý": 201,
      "þ": 202,
      "ÿ": 203,
      "Ā": 204,
      "ā": 205,
      "Ă": 206,
      "ă": 207,
      "Ą": 208,
      "ą": 209,
      "Ć": 210,
      "ć": 211,
      "Ĉ": 212,
      "ĉ": 213,
      "Ċ": 214,
      "ċ": 215,
      "Č": 216,
      "č": 217,
      "Ď": 218,
      "ď": 219,
      "Đ": 220,
      "đ": 221,
      "Ē": 222,
      "ē": 223,
      "Ĕ": 224,
      "ĕ": 225,
      "Ė": 226,
      "ė": 227,
      "Ę": 228,
      "ę": 229,
      "Ě": 230,
      "ě": 231,
      "Ĝ": 232,
      "ĝ": 233,
      "Ğ": 234,
      "ğ": 235,
      "Ġ": 236,
      "ġ": 237,
      "Ģ": 238,
      "ģ": 239,
      "Ĥ": 240,
      "ĥ": 241,
      "Ħ": 242,
      "ħ": 243,
      "Ĩ": 244,
      "ĩ": 245,
      "Ī": 246,
      "ī": 247,
      "Ĭ": 248,
      "ĭ": 249,
      "Į": 250,
      "į": 251,
      "İ": 252,
      "ı": 253,
      "Ĳ": 254,
      "ĳ": 255,
      "Ĵ": 256,
      "ĵ": 257,
      "Ķ": 258,
      "ķ": 259,
      "ĸ": 260,
      "Ĺ": 261,
      "ĺ": 262,
      "Ļ": 263,
      "ļ": 264,
      "Ľ": 265,
      "ľ": 266,
      "Ŀ": 267,
      "ŀ": 268,
      "Ł": 269,
      "ł": 270,
      "Ń": 271,
      "Ġt": 272,
      "in": 273,
      "Ġa": 274,
      "he": 275,
      "re": 276,
      "on": 277,
      "er": 278,
      "Ġthe": 279,
      "at": 280,
      "Ġs": 281,
      "or": 282,
      "en": 283,
      "es": 284,
      "Ġc": 285,
      "an": 286,
      "it": 287,
      "ing": 288,
      "Ġp": 289,
      "Ġo": 290,
      "al": 291,
      "is": 292,
      "Ġan": 293,
      "Ġw": 294,
      "ou": 295,
      "Ġf": 296,
      "ed": 297,
      "Ġin": 298,
      "ion": 299,
      "ar": 300,
      "ic": 301,
      "Ġb": 302,
      "Ġm": 303,
      "Ġand": 304,
      "Ġto": 305,
      "Ġof": 306,
      "ro": 307,
      "Ġd": 308,
      "le": 309,
      "ent": 310,
      "as": 311,
      "ct": 312,
      "Ġre": 313,
      "om": 314,
      "Ġh": 315,
      "il": 316,
      "Ġe": 317,
      "ve": 318,
      "st": 319,
      "Ġth": 320,
      "et": 321,
      "ĠT": 322,
      "ly": 323,
      "ation": 324,
      "id": 325,
      "Ġl": 326,
      "ce": 327,
      "Ġy": 328,
      "ig": 329,
      "ol": 330,
      "Ġn": 331,
      "ch": 332,
      "ur": 333,
      "Ġis": 334,
      "Ġfor": 335,
      "im": 336,
      "se": 337,
      "ot": 338,
      "ut": 339,
      "Ġg": 340,
      "Ġyou": 341,
      "ow": 342,
      "Ġon": 343,
      "ra": 344,
      "Ġpro": 345,
      "ĠA": 346,
      "ĠS": 347,
      "ers": 348,
      "Ġst": 349,
      "ir": 350,
      "Ġu": 351,
      "ith": 352,
      "el": 353,
      "ĠI": 354,
      "ĠC": 355,
      "am": 356,
      "ess": 357,
      "ay": 358,
      "if": 359,
      "Ġthat": 360,
      "the": 361,
      "Ġbe": 362,
      "Ġcon": 363,
      "Ġwith": 364,
      "ver": 365,
      "ul": 366,
      "ad": 367,
      "ment": 368,
      "and": 369,
      "Ġor": 370,
      "ate": 371,
      "ag": 372,
      "Ġit": 373,
      "ab": 374,
      "Ġas": 375,
      "th": 376,
      "ĠM": 377,
      "ity": 378,
      "Ġsu": 379,
      "pe": 380,
      "ive": 381,
      "iv": 382,
      "'s": 383,
      "Ġcom": 384,
      "Ġare": 385,
      "us": 386,
      "ies": 387,
      "ore": 388,
      "Ġex": 389,
      "ial": 390,
      "ac": 391,
      "Ġhe": 392,
      "nd": 393,
      "ter": 394,
      "Ġal": 395,
      "ure": 396,
      "ĠH": 397,
      "ĠB": 398,
      "em": 399,
      "Ġv": 400,
      "ĠP": 401,
      "Ġwh": 402,
      "pp": 403,
      "for": 404,
      "qu": 405,
      "âĢ": 406,
      "ts": 407,
      "ke": 408,
      "ĠThe": 409,
      "igh": 410,
      "ill": 411,
      "oo": 412,
      "oc": 413,
      "Ġcan": 414,
      "Ġen": 415,
      "est": 416,
      "Ġde": 417,
      "ĠW": 418,
      "ere": 419,
      "ud": 420,
      "ain": 421,
      "ist": 422,
      "rom": 423,
      "un": 424,
      "to": 425,
      "ĠF": 426,
      "ect": 427,
      "res": 428,
      "ide": 429,
      "ld": 430,
      "ant": 431,
      "um": 432,
      "ĠD": 433,
      "ort": 434,
      "os": 435,
      "Ġle": 436,
      "pl": 437,
      "iz": 438,
      "ions": 439,
      "ust": 440,
      "Ġby": 441,
      "Ġse": 442,
      "Ġch": 443,
      "op": 444,
      "Ġyour": 445,
      "Ġat": 446,
      "ĠR": 447,
      "Ġtheir": 448,
      "Ġfrom": 449,
      "age": 450,
      "our": 451,
      "ew": 452,
      "per": 453,
      "nt": 454,
      "ĠE": 455,
      "ri": 456,
      "out": 457,
      "Ġad": 458,
      "art": 459,
      "ical": 460,
      "ĠL": 461,
      "ave": 462,
      "Ġr": 463,
      "Ġim": 464,
      "are": 465,
      "all": 466,
      "ĠO": 467,
      "of": 468,
      "king": 469,
      "ĠG": 470,
      "Ġnot": 471,
      "Ġsh": 472,
      "form": 473,
      "ign": 474,
      "Ġme": 475,
      "ard": 476,
      "Ġcomp": 477,
      "Ġwe": 478,
      "Ġcont": 479,
      "act": 480,
      "Ġab": 481,
      "end": 482,
      "ance": 483,
      "od": 484,
      "ome": 485,
      "ĠN": 486,
      "hat": 487,
      "ine": 488,
      "du": 489,
      "Ġpl": 490,
      "og": 491,
      "rou": 492,
      "cc": 493,
      "Ġte": 494,
      "ge": 495,
      "Ġprov": 496,
      "ight": 497,
      "ru": 498,
      "pt": 499,
      "Ġ1": 500,
      "ip": 501,
      "ould": 502,
      "Ġinc": 503,
      "The": 504,
      "ast": 505,
      "ations": 506,
      "her": 507,
      "âĢĻ": 508,
      "gh": 509,
      "ther": 510,
      "able": 511,
      "ific": 512,
      "Ġhave": 513,
      "ell": 514,
      "Ġwor": 515,
      "ack": 516,
      "Ġmore": 517,
      "Ġwas": 518,
      "ff": 519,
      "ich": 520,
      "Ġ\"": 521,
      "ence": 522,
      "ous": 523,
      "his": 524,
      "ans": 525,
      "ition": 526,
      "**": 527,
      "Ġimp": 528,
      "ost": 529,
      "ry": 530,
      "Ġus": 531,
      "ated": 532,
      "so": 533,
      "ail": 534,
      "Ġdis": 535,
      "ice": 536,
      "ark": 537,
      "Ġthis": 538,
      "Ġ2": 539,
      "ire": 540,
      "Ġres": 541,
      "Ġne": 542,
      "Ġ(": 543,
      "What": 544,
      "ib": 545,
      "ĠU": 546,
      "ents": 547,
      "Ġwhe": 548,
      "av": 549,
      "ary": 550,
      "ach": 551,
      "ap": 552,
      "ces": 553,
      "ind": 554,
      "ass": 555,
      "pec": 556,
      "Ġoff": 557,
      "ite": 558,
      "HE": 559,
      "ase": 560,
      "ction": 561,
      "Ġalso": 562,
      "ĠThis": 563,
      "Ġhas": 564,
      "ia": 565,
      "erv": 566,
      "ong": 567,
      "ep": 568,
      "ear": 569,
      "ater": 570,
      "vel": 571,
      "Ġj": 572,
      "ie": 573,
      "ual": 574,
      "ake": 575,
      "Can": 576,
      "Ġabout": 577,
      "ks": 578,
      "ult": 579,
      "Ġcl": 580,
      "Ġdo": 581,
      "Ġwhich": 582,
      "Ġall": 583,
      "Ġrec": 584,
      "Ġacc": 585,
      "Ġwill": 586,
      "ĠJ": 587,
      "ors": 588,
      "ue": 589,
      "xt": 590,
      "ating": 591,
      "rit": 592,
      "ress": 593,
      "lud": 594,
      "Ġun": 595,
      "Ġthey": 596,
      "Ġprovide": 597,
      "Ġpre": 598,
      "ood": 599,
      "Ġbut": 600,
      "Ġper": 601,
      "Ġapp": 602,
      "Ġman": 603,
      "Ġem": 604,
      "Ġhow": 605,
      "Ġqu": 606,
      "ning": 607,
      "ike": 608,
      "ime": 609,
      "one": 610,
      "Ġsp": 611,
      "Ġout": 612,
      "te": 613,
      "Ġits": 614,
      "ĠIn": 615,
      "Ġcomm": 616,
      "formation": 617,
      "ub": 618,
      "ace": 619,
      "Ġspec": 620,
      "ak": 621,
      "Ġev": 622,
      "Ġar": 623,
      "con": 624,
      "Ġup": 625,
      "Ġind": 626,
      "ord": 627,
      "ates": 628,
      "ities": 629,
      "Ġinclud": 630,
      "ments": 631,
      "Ġk": 632,
      "00": 633,
      "arket": 634,
      "Ġsome": 635,
      "ile": 636,
      "Ġother": 637,
      "Ġtra": 638,
      "lic": 639,
      "ook": 640,
      "ric": 641,
      "Ġhis": 642,
      "ious": 643,
      "Ġthese": 644,
      "Ġro": 645,
      "ility": 646,
      "Ġpart": 647,
      "Ġcre": 648,
      "ĠTHE": 649,
      "cess": 650,
      "Ġinto": 651,
      "Ġthem": 652,
      "ang": 653,
      "ens": 654,
      "ory": 655,
      "Ġsc": 656,
      "ob": 657,
      "Ġour": 658,
      "Ġover": 659,
      "Ġinformation": 660,
      "ove": 661,
      "lp": 662,
      "nder": 663,
      "we": 664,
      "ĠK": 665,
      "ish": 666,
      "rough": 667,
      "over": 668,
      "com": 669,
      "Ġwho": 670,
      "ased": 671,
      "Ġdes": 672,
      "ĠIt": 673,
      "ative": 674,
      "oll": 675,
      "fere": 676,
      "Ġadd": 677,
      "uring": 678,
      "ree": 679,
      "ount": 680,
      "ays": 681,
      "ound": 682,
      "Ġcons": 683,
      "ĠSt": 684,
      "ally": 685,
      "Ġpo": 686,
      "ll": 687,
      "ram": 688,
      "Ġany": 689,
      "ame": 690,
      "ting": 691,
      "arch": 692,
      "Ġinv": 693,
      "ER": 694,
      "ber": 695,
      "now": 696,
      "Ġsuch": 697,
      "Ġlike": 698,
      "Ġhelp": 699,
      "tain": 700,
      "Ġint": 701,
      "ose": 702,
      "Ġserv": 703,
      "Ġsign": 704,
      "Ġdisc": 705,
      "ĠY": 706,
      "ful": 707,
      "ph": 708,
      "olog": 709,
      "ild": 710,
      "ience": 711,
      "Ġtr": 712,
      "ov": 713,
      "ffect": 714,
      "ices": 715,
      "anc": 716,
      "oy": 717,
      "bs": 718,
      "Ġfe": 719,
      "ject": 720,
      "Ġprodu": 721,
      "Ġstud": 722,
      "tern": 723,
      "lect": 724,
      "amp": 725,
      "Ġmarket": 726,
      "ef": 727,
      "ne": 728,
      "Ġ**": 729,
      "les": 730,
      "pport": 731,
      "Ġsa": 732,
      "ures": 733,
      "aking": 734,
      "Ġreg": 735,
      "Ġsy": 736,
      "ential": 737,
      "pect": 738,
      "row": 739,
      "Ġnew": 740,
      "ings": 741,
      "Ġag": 742,
      "Ġback": 743,
      "Ġpr": 744,
      "Ġexper": 745,
      "Ġone": 746,
      "get": 747,
      "ĠV": 748,
      "Ġunder": 749,
      "ĠCh": 750,
      "Ġrep": 751,
      "alth": 752,
      "Ġact": 753,
      "ational": 754,
      "IN": 755,
      "ics": 756,
      "Ġess": 757,
      "be": 758,
      "ons": 759,
      "Ġwhere": 760,
      "ize": 761,
      "its": 762,
      "old": 763,
      "Ġthrough": 764,
      "Ġwere": 765,
      "ian": 766,
      "Ġstr": 767,
      "Ġneed": 768,
      "Ġac": 769,
      "Ġwork": 770,
      "velop": 771,
      "ular": 772,
      "Ġpe": 773,
      "Ġtime": 774,
      "reat": 775,
      "ract": 776,
      "Ġuse": 777,
      "uc": 778,
      "Ġrel": 779,
      "ough": 780,
      "Ġpers": 781,
      "Ġdif": 782,
      "very": 783,
      "enc": 784,
      "Ġ20": 785,
      "ool": 786,
      "Ġdet": 787,
      "red": 788,
      "chn": 789,
      "Ġhigh": 790,
      "mer": 791,
      "uss": 792,
      "iness": 793,
      "Ġfl": 794,
      "ener": 795,
      "Ġspecific": 796,
      "ick": 797,
      "int": 798,
      "In": 799,
      "als": 800,
      "hip": 801,
      "Ġthere": 802,
      "ND": 803,
      "stem": 804,
      "rib": 805,
      "ise": 806,
      "Ġinst": 807,
      "Ġprovid": 808,
      "Ġbet": 809,
      "Ġam": 810,
      "Ġass": 811,
      "ĠâĢ": 812,
      "au": 813,
      "any": 814,
      "oth": 815,
      "Ġsignific": 816,
      "Ġmay": 817,
      "Ġatt": 818,
      "gan": 819,
      "Ġprocess": 820,
      "ns": 821,
      "hed": 822,
      "Ġvar": 823,
      "Ġher": 824,
      "ED": 825,
      "ys": 826,
      "Ġph": 827,
      "Ġmed": 828,
      "Ġcol": 829,
      "Ġbeen": 830,
      "gg": 831,
      "ss": 832,
      "ention": 833,
      "usiness": 834,
      "Ġbl": 835,
      "ient": 836,
      "ever": 837,
      "ond": 838,
      "Ġke": 839,
      "Ġyear": 840,
      "iss": 841,
      "Ġwhat": 842,
      "aterial": 843,
      "Ġsoc": 844,
      "Ġso": 845,
      "Ġbr": 846,
      "Ġdevelop": 847,
      "ren": 848,
      "iew": 849,
      "Ġcommun": 850,
      "ustom": 851,
      "Ġpos": 852,
      "ten": 853,
      "ident": 854,
      "ateg": 855,
      "up": 856,
      "erm": 857,
      "Ġrem": 858,
      "ata": 859,
      "Ġdoes": 860,
      "ange": 861,
      "aw": 862,
      "Ġwhen": 863,
      "round": 864,
      "Ġtext": 865,
      "pro": 866,
      "iven": 867,
      "irst": 868,
      "Ġimport": 869,
      "line": 870,
      "ues": 871,
      "Ġeffect": 872,
      "Ġlead": 873,
      "iqu": 874,
      "Ġtop": 875,
      "AT": 876,
      "Ġtrans": 877,
      "ade": 878,
      "Ġinter": 879,
      "Ġdiscuss": 880,
      "Ġdiffere": 881,
      "ward": 882,
      "Ġtechn": 883,
      "Ġperson": 884,
      "Ġprog": 885,
      "Ġ-": 886,
      "Ġgo": 887,
      "Ġref": 888,
      "own": 889,
      "Ġhealth": 890,
      "ck": 891,
      "fter": 892,
      "ower": 893,
      "Ġcould": 894,
      "Ġknow": 895,
      "Ġonly": 896,
      "Ġused": 897,
      "Ġmy": 898,
      "Ġart": 899,
      "Ġmake": 900,
      "ife": 901,
      "Ġwould": 902,
      "Ġwell": 903,
      "wor": 904,
      "Ġsub": 905,
      "Ġdec": 906,
      "Ġens": 907,
      "iet": 908,
      "Ġ3": 909,
      "Ġmet": 910,
      "OU": 911,
      "Ġeng": 912,
      "ized": 913,
      "Ġloc": 914,
      "ible": 915,
      "Ġif": 916,
      "Ġsystem": 917,
      "Ġpot": 918,
      "Ġed": 919,
      "ex": 920,
      "ality": 921,
      "Ġaut": 922,
      "ople": 923,
      "ives": 924,
      "Ġmaterial": 925,
      "Ġmod": 926,
      "chool": 927,
      "ural": 928,
      "Ġadv": 929,
      "ont": 930,
      "Ġra": 931,
      "Ġwrit": 932,
      "ness": 933,
      "Ġpres": 934,
      "Ġdesign": 935,
      "ribut": 936,
      "Ġproduct": 937,
      "ering": 938,
      "Ġrese": 939,
      "ivers": 940,
      "Ġplay": 941,
      "ature": 942,
      "RE": 943,
      "Ġcustom": 944,
      "dition": 945,
      "Ġins": 946,
      "Ġsignificant": 947,
      "Ġbusiness": 948,
      "omm": 949,
      "ollow": 950,
      "ivid": 951,
      "stand": 952,
      "ically": 953,
      "hes": 954,
      "Ġfin": 955,
      "other": 956,
      "ional": 957,
      "ily": 958,
      "Ġthan": 959,
      "ital": 960,
      "'t": 961,
      "Ġprof": 962,
      "Ġinf": 963,
      "Ġexp": 964,
      "Ġav": 965,
      "Ġpol": 966,
      "ween": 967,
      "Ġsupport": 968,
      "wo": 969,
      "ines": 970,
      "ĠUn": 971,
      "Ġ201": 972,
      "with": 973,
      "Ġ19": 974,
      "Ġform": 975,
      "Ġset": 976,
      "ples": 977,
      "ruct": 978,
      "Ġrequ": 979,
      "ology": 980,
      "ied": 981,
      "Ġvis": 982,
      "Ġshould": 983,
      "Ġpartic": 984,
      "ertain": 985,
      "Ġwebs": 986,
      "Ġincluding": 987,
      "Ġsk": 988,
      "irect": 989,
      "de": 990,
      "ited": 991,
      "that": 992,
      "Ġaccess": 993,
      "IS": 994,
      "ered": 995,
      "ON": 996,
      "Ġopt": 997,
      "Ġfind": 998,
      "ocus": 999,
      "ink": 1000,
      "olv": 1001,
      "Ġdef": 1002,
      "Ġdata": 1003,
      "oun": 1004,
      "Ġsm": 1005,
      "Ġappro": 1006,
      "Ġmost": 1007,
      "ĠAd": 1008,
      "ft": 1009,
      "Ġstrateg": 1010,
      "Ġbu": 1011,
      "Ġdetail": 1012,
      "Ġjust": 1013,
      "Ġty": 1014,
      "ages": 1015,
      "ands": 1016,
      "ath": 1017,
      "Ġche": 1018,
      "Ġprogram": 1019,
      "Ġmain": 1020,
      "**:": 1021,
      "EN": 1022,
      "Ġext": 1023,
      "ublic": 1024,
      "Ġdel": 1025,
      "led": 1026,
      "ism": 1027,
      "urther": 1028,
      "Ġresp": 1029,
      "Ġexpl": 1030,
      "Ġpass": 1031,
      "Ġbec": 1032,
      "Ġmin": 1033,
      "arm": 1034,
      "ording": 1035,
      "ars": 1036,
      "Ġdifferent": 1037,
      "Ġbetween": 1038,
      "Ġcomple": 1039,
      "ĠHow": 1040,
      "ividual": 1041,
      "und": 1042,
      "cl": 1043,
      "Ġpeople": 1044,
      "Ġhad": 1045,
      "ability": 1046,
      "Ġresearch": 1047,
      "air": 1048,
      "enef": 1049,
      "Ġorgan": 1050,
      "wn": 1051,
      "AS": 1052,
      "Ġget": 1053,
      "Ġteam": 1054,
      "Ġmarketing": 1055,
      "sel": 1056,
      "ty": 1057,
      "urn": 1058,
      "Ġent": 1059,
      "ins": 1060,
      "iron": 1061,
      "ict": 1062,
      "ier": 1063,
      "ify": 1064,
      "lease": 1065,
      "fore": 1066,
      "ĠOF": 1067,
      "âĢĿ": 1068,
      "ĠHe": 1069,
      "Ġsur": 1070,
      "Ġpotential": 1071,
      "Ġear": 1072,
      "hen": 1073,
      "eng": 1074,
      "Ġsocial": 1075,
      "ĠTO": 1076,
      "Ġfirst": 1077,
      "Ġprom": 1078,
      "Ġgu": 1079,
      "##": 1080,
      "ix": 1081,
      "Ġval": 1082,
      "ng": 1083,
      "ES": 1084,
      "ec": 1085,
      "erest": 1086,
      "agement": 1087,
      "Ġfocus": 1088,
      "ced": 1089,
      "Ġimportant": 1090,
      "Ġfollow": 1091,
      "Ġprev": 1092,
      "AR": 1093,
      "Ġcur": 1094,
      "app": 1095,
      "Ġduring": 1096,
      "ights": 1097,
      "Ġindividual": 1098,
      "erg": 1099,
      "by": 1100,
      "Ġno": 1101,
      "ining": 1102,
      "ven": 1103,
      "ING": 1104,
      "ization": 1105,
      "Ġtwo": 1106,
      "Ġimpro": 1107,
      "OR": 1108,
      "io": 1109,
      "Ġexam": 1110,
      "Ġwhile": 1111,
      "Ġsim": 1112,
      "hor": 1113,
      "me": 1114,
      "day": 1115,
      "Ġpur": 1116,
      "Ġusing": 1117,
      "Ġbenef": 1118,
      "Ġgener": 1119,
      "ĠAND": 1120,
      "ause": 1121,
      "Ġstudents": 1122,
      "Ġwebsite": 1123,
      "cial": 1124,
      "viron": 1125,
      "Ġallow": 1126,
      "Ġboth": 1127,
      "ants": 1128,
      "Ġchar": 1129,
      "Ġimpact": 1130,
      "IT": 1131,
      "Ġenh": 1132,
      "olut": 1133,
      "you": 1134,
      "ources": 1135,
      "Ġwithin": 1136,
      "Ġdep": 1137,
      "Ġessay": 1138,
      "ffic": 1139,
      "read": 1140,
      "por": 1141,
      "iel": 1142,
      "ĠThey": 1143,
      "ency": 1144,
      "ĠTH": 1145,
      "roup": 1146,
      "Ġmem": 1147,
      "Ġeach": 1148,
      "Ġincre": 1149,
      "view": 1150,
      "Ġlear": 1151,
      "Ġshe": 1152,
      "ax": 1153,
      "Ġdist": 1154,
      "Ġperform": 1155,
      "Ġcare": 1156,
      "Ġbeing": 1157,
      "Ġmany": 1158,
      "Ġservices": 1159,
      "ccess": 1160,
      "AN": 1161,
      "cer": 1162,
      "Ġeduc": 1163,
      "Ġthose": 1164,
      "Ġafter": 1165,
      "Ġsal": 1166,
      "Ġread": 1167,
      "Ġdirect": 1168,
      "Ġgl": 1169,
      "Ġcontin": 1170,
      "ason": 1171,
      "Ġunderstand": 1172,
      "Ġshow": 1173,
      "Ġlife": 1174,
      "ĊĊ": 1175,
      "Ġconsid": 1176,
      "Ġcar": 1177,
      "Ġ4": 1178,
      "Ġpract": 1179,
      "meric": 1180,
      "Ġcle": 1181,
      "Ġvarious": 1182,
      "Ġsaid": 1183,
      "uch": 1184,
      "Ġpersonal": 1185,
      "cept": 1186,
      "ploy": 1187,
      "Ġsee": 1188,
      "Ġcontent": 1189,
      "Ġsugg": 1190,
      "Ġlet": 1191,
      "ock": 1192,
      "Ġrole": 1193,
      "ĠPro": 1194,
      "Ġown": 1195,
      "ather": 1196,
      "rent": 1197,
      "ĠThese": 1198,
      "ique": 1199,
      "Ġbel": 1200,
      "Ġ5": 1201,
      "Ġco": 1202,
      "ients": 1203,
      "ble": 1204,
      "Ġoften": 1205,
      "ences": 1206,
      "Ġmade": 1207,
      "ately": 1208,
      "Ġgrow": 1209,
      "Ġagain": 1210,
      "ross": 1211,
      "Ġkey": 1212,
      "Ġcult": 1213,
      "ash": 1214,
      "ner": 1215,
      "Ġproject": 1216,
      "Ġinterest": 1217,
      "LL": 1218,
      "ĠRe": 1219,
      "vironment": 1220,
      "ield": 1221,
      "ĠFor": 1222,
      "nce": 1223,
      "Ġfam": 1224,
      "Ġinclude": 1225,
      "overn": 1226,
      "),": 1227,
      "iving": 1228,
      "angu": 1229,
      "urning": 1230,
      "Ġeffective": 1231,
      "Ġmight": 1232,
      "Ġhand": 1233,
      "Ġworld": 1234,
      "Ġhist": 1235,
      "raph": 1236,
      "ted": 1237,
      "pr": 1238,
      "Ġstate": 1239,
      "Ġway": 1240,
      "Ġmean": 1241,
      "Ġanal": 1242,
      "Ġexperience": 1243,
      "lu": 1244,
      "Ġfac": 1245,
      "Ġdiscussion": 1246,
      "Ġcount": 1247,
      "Ġindust": 1248,
      "Ġwater": 1249,
      "more": 1250,
      "Ġcompany": 1251,
      "Ġret": 1252,
      "igin": 1253,
      "Ġeven": 1254,
      "wh": 1255,
      "Ġiss": 1256,
      "iver": 1257,
      "Ġcour": 1258,
      "ision": 1259,
      "inc": 1260,
      "Ġfun": 1261,
      "sh": 1262,
      "Ġlong": 1263,
      "aging": 1264,
      "Ġtell": 1265,
      "Ġmaking": 1266,
      ").": 1267,
      "Ġnum": 1268,
      "less": 1269,
      "Ġmon": 1270,
      "Ġonline": 1271,
      "Ġhere": 1272,
      "20": 1273,
      "Ġap": 1274,
      "itive": 1275,
      "ĠIN": 1276,
      "Ġschool": 1277,
      "iversity": 1278,
      "conom": 1279,
      "Ġactiv": 1280,
      "Ġcontribut": 1281,
      "Ġavail": 1282,
      "Ġreport": 1283,
      "ĠĊ": 1284,
      "ĠYou": 1285,
      "Ġcap": 1286,
      "Ġpat": 1287,
      "ising": 1288,
      "ware": 1289,
      "ruction": 1290,
      "Ġinvest": 1291,
      "itions": 1292,
      "Ġevery": 1293,
      "not": 1294,
      "ple": 1295,
      "Ġchild": 1296,
      "Ġredu": 1297,
      "Ġsum": 1298,
      "Ġdr": 1299,
      "Ġbefore": 1300,
      "az": 1301,
      "ense": 1302,
      "Ġob": 1303,
      "nect": 1304,
      "ases": 1305,
      "ĠTh": 1306,
      "man": 1307,
      "Ġser": 1308,
      "Ġcent": 1309,
      "light": 1310,
      "Ġmedia": 1311,
      "akes": 1312,
      "Ġwriting": 1313,
      "Ġrequire": 1314,
      "ffor": 1315,
      "Ġend": 1316,
      "iety": 1317,
      "ĠHowever": 1318,
      "Ġpublic": 1319,
      "ets": 1320,
      ".\"": 1321,
      "Ġop": 1322,
      ":**": 1323,
      "Ġtyp": 1324,
      "Ġbest": 1325,
      "Ġcru": 1326,
      "Ġconf": 1327,
      "Ġsec": 1328,
      "ists": 1329,
      "ration": 1330,
      "ills": 1331,
      "Ġquest": 1332,
      "Ġlar": 1333,
      "Ġpar": 1334,
      "Ġdem": 1335,
      "Ġyears": 1336,
      "Ġaddition": 1337,
      "Ġdon": 1338,
      "Ġdevelopment": 1339,
      "izing": 1340,
      "Ġsuccess": 1341,
      "ĠAl": 1342,
      "Ġgood": 1343,
      "Ġplan": 1344,
      "Ġinvolv": 1345,
      "ms": 1346,
      "Ġlangu": 1347,
      "ooking": 1348,
      "Ġdetails": 1349,
      "Ġfurther": 1350,
      "Ġexamples": 1351,
      "hod": 1352,
      "pos": 1353,
      "Ġide": 1354,
      ",\"": 1355,
      "Ġcrit": 1356,
      "Ġmat": 1357,
      "Ġstand": 1358,
      "Ġhum": 1359,
      "about": 1360,
      "ĠCan": 1361,
      "cent": 1362,
      "Ġoffer": 1363,
      "po": 1364,
      "Ġmention": 1365,
      "tle": 1366,
      "Ġmodel": 1367,
      "Ġenvironment": 1368,
      "Ġchall": 1369,
      "ined": 1370,
      "Ġorigin": 1371,
      "ling": 1372,
      "ĠAmeric": 1373,
      "Ġcor": 1374,
      "Ġoper": 1375,
      "Ġcamp": 1376,
      "ĠWe": 1377,
      "Ġfound": 1378,
      "der": 1379,
      "Ġlist": 1380,
      "ĠĠ": 1381,
      "Ġest": 1382,
      "ared": 1383,
      "omet": 1384,
      "ĠHere": 1385,
      "Ġbased": 1386,
      "ries": 1387,
      "ances": 1388,
      "Ġtopic": 1389,
      "work": 1390,
      "Ġcrucial": 1391,
      "Ġservice": 1392,
      "ĠâĢľ": 1393,
      "fe": 1394,
      "Ġca": 1395,
      "Ġpop": 1396,
      "ĠAn": 1397,
      "Ġprot": 1398,
      "Ġbro": 1399,
      "ems": 1400,
      "ert": 1401,
      "Ġprofess": 1402,
      "Ġfact": 1403,
      "Ġve": 1404,
      "Ġgroup": 1405,
      "Ġident": 1406,
      "Ġthen": 1407,
      "Ġterm": 1408,
      "port": 1409,
      "Ġleg": 1410,
      "It": 1411,
      "duct": 1412,
      "Ġmus": 1413,
      "ĠAs": 1414,
      "Ġaud": 1415,
      "ium": 1416,
      "Ġsuggest": 1417,
      "Ġlevel": 1418,
      "itut": 1419,
      "Ġgreat": 1420,
      "ank": 1421,
      "Ġstart": 1422,
      "Ġauthor": 1423,
      "land": 1424,
      "Ġensure": 1425,
      "Sure": 1426,
      "imes": 1427,
      "oot": 1428,
      "ral": 1429,
      "abor": 1430,
      "Ġavailable": 1431,
      "Ġ$": 1432,
      "Ġinit": 1433,
      "ards": 1434,
      "Ġtake": 1435,
      "ior": 1436,
      "way": 1437,
      "ĠAr": 1438,
      "ually": 1439,
      "Ġreal": 1440,
      "lection": 1441,
      "Ġgr": 1442,
      "Ġlanguage": 1443,
      "Ġcommunity": 1444,
      "lish": 1445,
      "ĠInd": 1446,
      "ibility": 1447,
      "cond": 1448,
      "Ġgra": 1449,
      "oft": 1450,
      "Ġplease": 1451,
      "Ġparticular": 1452,
      "ished": 1453,
      "ample": 1454,
      "Ġposs": 1455,
      "atform": 1456,
      "Ġpower": 1457,
      "ale": 1458,
      "Ġrecomm": 1459,
      "Ġrecommend": 1460,
      "vert": 1461,
      "Ġdown": 1462,
      "Ġapplic": 1463,
      "ication": 1464,
      "ips": 1465,
      "Ġmethod": 1466,
      "Ġleft": 1467,
      "hing": 1468,
      "Ġenc": 1469,
      "ek": 1470,
      "Ġeas": 1471,
      "lev": 1472,
      "Ġemploy": 1473,
      "icle": 1474,
      "ead": 1475,
      "Ġintern": 1476,
      "wards": 1477,
      "Ġgovern": 1478,
      "veral": 1479,
      "ilities": 1480,
      "Ġtool": 1481,
      "bers": 1482,
      "Ġaround": 1483,
      "ouse": 1484,
      "Ġcall": 1485,
      "Ġsearch": 1486,
      "Ġaccording": 1487,
      "par": 1488,
      "Ġwant": 1489,
      "aign": 1490,
      "OM": 1491,
      "Ġfew": 1492,
      "Ġequ": 1493,
      "oring": 1494,
      "ton": 1495,
      "Ġfil": 1496,
      "ending": 1497,
      "Ġpromot": 1498,
      "Ġagainst": 1499,
      "Ġcr": 1500,
      "How": 1501,
      "uing": 1502,
      "Ġapproach": 1503,
      "Ġplace": 1504,
      "ories": 1505,
      "ends": 1506,
      "Ġeconom": 1507,
      "pportun": 1508,
      "orts": 1509,
      "Ġclass": 1510,
      "Ġcost": 1511,
      "Ġlit": 1512,
      "br": 1513,
      "Ġimprove": 1514,
      "ody": 1515,
      "Ġbeh": 1516,
      "atures": 1517,
      "Ġbuild": 1518,
      "ĠSh": 1519,
      "Ġcreate": 1520,
      "Ġfood": 1521,
      "self": 1522,
      "ah": 1523,
      "ipe": 1524,
      "Ġgive": 1525,
      "AD": 1526,
      "Ġinflu": 1527,
      "Ġseveral": 1528,
      "ĠNew": 1529,
      "Ġcontro": 1530,
      "ially": 1531,
      "Ġspe": 1532,
      "ron": 1533,
      "Ġlocal": 1534,
      "med": 1535,
      "Ġpie": 1536,
      "Ġwithout": 1537,
      "ince": 1538,
      "can": 1539,
      "Ġsmall": 1540,
      "Ġlaw": 1541,
      "Ġplatform": 1542,
      "aving": 1543,
      "reen": 1544,
      "aper": 1545,
      "aut": 1546,
      "ull": 1547,
      "Ġcurrent": 1548,
      "vers": 1549,
      "ination": 1550,
      "Ġconnect": 1551,
      "ertainly": 1552,
      "oh": 1553,
      "Ġproducts": 1554,
      "chie": 1555,
      "Ġunt": 1556,
      "Ġindustry": 1557,
      "ĠSe": 1558,
      "aj": 1559,
      "cing": 1560,
      "IC": 1561,
      "igital": 1562,
      "Ġresources": 1563,
      "ok": 1564,
      "ps": 1565,
      "Ġpassage": 1566,
      "Ġbo": 1567,
      "illion": 1568,
      "ently": 1569,
      "arget": 1570,
      "Yes": 1571,
      "fer": 1572,
      "ilit": 1573,
      "acy": 1574,
      "Ġdid": 1575,
      "Ġproper": 1576,
      "ves": 1577,
      "ork": 1578,
      "Ġfree": 1579,
      "Ġneeds": 1580,
      "Ġunique": 1581,
      "Ġpost": 1582,
      "ancial": 1583,
      "ret": 1584,
      "Ġword": 1585,
      "ission": 1586,
      "\"?": 1587,
      "ames": 1588,
      "ext": 1589,
      "Ġ6": 1590,
      "ogn": 1591,
      "ĠIf": 1592,
      "ored": 1593,
      "Ġfeel": 1594,
      "iences": 1595,
      "LE": 1596,
      "onse": 1597,
      "here": 1598,
      "Ġstep": 1599,
      "Ġquality": 1600,
      "arding": 1601,
      "ĠSc": 1602,
      "Ġcompet": 1603,
      "Ġsumm": 1604,
      "Ġbenefits": 1605,
      "Ġeffor": 1606,
      "Ġhome": 1607,
      "Ġchalleng": 1608,
      "Ġevent": 1609,
      "Ġrest": 1610,
      "icial": 1611,
      "adem": 1612,
      "Ġdev": 1613,
      "Ġday": 1614,
      "Ġuntil": 1615,
      "ĠCl": 1616,
      "Ġoffers": 1617,
      "Ġopportun": 1618,
      "Ġelect": 1619,
      "back": 1620,
      "Ġcampaign": 1621,
      "Ġconsider": 1622,
      "Ġanother": 1623,
      "Ġappe": 1624,
      "Ġhim": 1625,
      "avor": 1626,
      "do": 1627,
      "fort": 1628,
      "let": 1629,
      "su": 1630,
      "go": 1631,
      "Ġindividuals": 1632,
      "Ġmult": 1633,
      "Ġsit": 1634,
      "ned": 1635,
      "oci": 1636,
      "Ret": 1637,
      "Ġperformance": 1638,
      "Ġlight": 1639,
      "000": 1640,
      "Ġpresent": 1641,
      "Ġachie": 1642,
      "ĠBE": 1643,
      "oss": 1644,
      "Ġbecause": 1645,
      "iting": 1646,
      "ified": 1647,
      "Ġtechnology": 1648,
      "Ġacross": 1649,
      "Ġcontact": 1650,
      "ergy": 1651,
      "ograph": 1652,
      "lement": 1653,
      "ption": 1654,
      "Ġcook": 1655,
      "Ġopen": 1656,
      "Ġaim": 1657,
      "min": 1658,
      "Ġmeas": 1659,
      "Ġfund": 1660,
      "asing": 1661,
      "gr": 1662,
      "ructure": 1663,
      "fact": 1664,
      "sc": 1665,
      "ger": 1666,
      "Ġgiven": 1667,
      "OT": 1668,
      "Ġprovides": 1669,
      "ĠWh": 1670,
      "Ġconst": 1671,
      "Ġaddress": 1672,
      "use": 1673,
      "ways": 1674,
      "ĠLe": 1675,
      "urity": 1676,
      "Ġbre": 1677,
      "olution": 1678,
      "Ġlast": 1679,
      "Ġstrategies": 1680,
      "sp": 1681,
      "ĠHE": 1682,
      "Ġcharact": 1683,
      "ection": 1684,
      "from": 1685,
      "Ġthough": 1686,
      "oura": 1687,
      "ĠDe": 1688,
      "ury": 1689,
      "Ġnow": 1690,
      "Ġes": 1691,
      "Ġrange": 1692,
      "Ġgrowth": 1693,
      "Ġstudy": 1694,
      "SE": 1695,
      "arr": 1696,
      "Ġkeep": 1697,
      "atural": 1698,
      "Ġel": 1699,
      "ides": 1700,
      "ats": 1701,
      "Ġsupp": 1702,
      "rehe": 1703,
      "Ġmanagement": 1704,
      "ĠBe": 1705,
      "Ġessential": 1706,
      "Ġunderstanding": 1707,
      "Ġclear": 1708,
      "Ġthree": 1709,
      "Ġskills": 1710,
      "Ġrece": 1711,
      "Ġmaintain": 1712,
      "St": 1713,
      "wit": 1714,
      "Ġchang": 1715,
      "ney": 1716,
      "time": 1717,
      "ints": 1718,
      "As": 1719,
      "Ġpolic": 1720,
      "..": 1721,
      "Ġmove": 1722,
      "els": 1723,
      "Ġnet": 1724,
      "yle": 1725,
      "nam": 1726,
      "Ġnumber": 1727,
      "Ġbrand": 1728,
      "mb": 1729,
      "Ġeducation": 1730,
      "anies": 1731,
      "Ġbetter": 1732,
      "ching": 1733,
      "based": 1734,
      "To": 1735,
      "Ġgovernment": 1736,
      "Ġhuman": 1737,
      "ains": 1738,
      "Ġrun": 1739,
      "Ġris": 1740,
      "Ġlearning": 1741,
      "ired": 1742,
      "Ġpast": 1743,
      "your": 1744,
      "Ġmuch": 1745,
      "Ġdefin": 1746,
      "Ġlove": 1747,
      "ĠQ": 1748,
      "Ġprim": 1749,
      "ĠBy": 1750,
      "Ġsl": 1751,
      "Ġview": 1752,
      "ĠâĢĵ": 1753,
      "orth": 1754,
      "uro": 1755,
      "Ġprovided": 1756,
      "ream": 1757,
      "ults": 1758,
      "wer": 1759,
      "Ġgame": 1760,
      "ug": 1761,
      "just": 1762,
      "was": 1763,
      "Ġprevious": 1764,
      "Ġmust": 1765,
      "Ġtest": 1766,
      "iod": 1767,
      "ĠIT": 1768,
      "Ġeffic": 1769,
      "Ġfinancial": 1770,
      "aid": 1771,
      "ann": 1772,
      "This": 1773,
      "elf": 1774,
      "Ġamong": 1775,
      "Ġvery": 1776,
      "atic": 1777,
      "ived": 1778,
      "Ġtarget": 1779,
      "ditionally": 1780,
      "Ġfamily": 1781,
      "oad": 1782,
      "omen": 1783,
      "ID": 1784,
      "AC": 1785,
      "Certainly": 1786,
      "19": 1787,
      "Ġcomb": 1788,
      "Ġspecial": 1789,
      "Ġmentioned": 1790,
      "cri": 1791,
      "Ġhistory": 1792,
      "ĠCon": 1793,
      "uture": 1794,
      "ables": 1795,
      "Ġtem": 1796,
      "###": 1797,
      "Ġmeaning": 1798,
      "Ġphys": 1799,
      "ership": 1800,
      "Ġknown": 1801,
      "Ġdue": 1802,
      "ysis": 1803,
      "orn": 1804,
      "Ġless": 1805,
      "Ġconcer": 1806,
      "Ġlook": 1807,
      "Ġinte": 1808,
      "OW": 1809,
      "have": 1810,
      "ĠPl": 1811,
      "Ġconsum": 1812,
      "Ġissues": 1813,
      "Ġright": 1814,
      "Ġchildren": 1815,
      "gu": 1816,
      "Ġrelations": 1817,
      "ved": 1818,
      "ditional": 1819,
      "Ġfield": 1820,
      "Returning": 1821,
      "Ġbook": 1822,
      "Ġnecess": 1823,
      "resent": 1824,
      "nov": 1825,
      "ik": 1826,
      "co": 1827,
      "Ġmeans": 1828,
      "ern": 1829,
      "Ġrespons": 1830,
      "Ġexample": 1831,
      "Ġlim": 1832,
      "Ġtre": 1833,
      "ontin": 1834,
      "utes": 1835,
      "Ġcustomer": 1836,
      "Ġbelie": 1837,
      "ges": 1838,
      "ĠEng": 1839,
      "gin": 1840,
      "comp": 1841,
      "Ġemail": 1842,
      "Ġair": 1843,
      "Ġlarge": 1844,
      "Ġfollowing": 1845,
      "Ġrecipe": 1846,
      "Ġseason": 1847,
      "ulation": 1848,
      "ape": 1849,
      "ator": 1850,
      "Ġevents": 1851,
      "ental": 1852,
      "outh": 1853,
      "Ġquestion": 1854,
      "rans": 1855,
      "Ġcho": 1856,
      "ST": 1857,
      "ird": 1858,
      "Ġfeatures": 1859,
      "âĢĶ": 1860,
      "Ġpay": 1861,
      "Ġareas": 1862,
      "pped": 1863,
      "Ġcourse": 1864,
      "Ġworks": 1865,
      "Ġactivities": 1866,
      "ray": 1867,
      "ĠCol": 1868,
      "ĠTo": 1869,
      "Ġ200": 1870,
      "ĠRes": 1871,
      "ĠAnd": 1872,
      "Ġarea": 1873,
      "'re": 1874,
      "Ġexpect": 1875,
      "Ġ10": 1876,
      "UT": 1877,
      "ooks": 1878,
      "obal": 1879,
      "anced": 1880,
      "Ġoil": 1881,
      "Ġpolit": 1882,
      "Ġincludes": 1883,
      "ĠCom": 1884,
      "Ġdigital": 1885,
      "Ġcoll": 1886,
      "Ġ7": 1887,
      "We": 1888,
      "Ġsecond": 1889,
      "my": 1890,
      "Ġparticip": 1891,
      "cle": 1892,
      "Ġproviding": 1893,
      "Ġsoft": 1894,
      "ember": 1895,
      "Ġcustomers": 1896,
      "Ġenhance": 1897,
      "10": 1898,
      "Wh": 1899,
      "ource": 1900,
      "will": 1901,
      "Ġregarding": 1902,
      "mon": 1903,
      "rist": 1904,
      "ĠEx": 1905,
      "this": 1906,
      "rehens": 1907,
      "oid": 1908,
      "Ġenergy": 1909,
      "lege": 1910,
      "ĠWAS": 1911,
      "ĠBl": 1912,
      "Ġdesigned": 1913,
      "Ġsomet": 1914,
      "orpor": 1915,
      "Ġsame": 1916,
      "'m": 1917,
      "Ġfunction": 1918,
      "Ġvide": 1919,
      "ley": 1920,
      "Ġbroad": 1921,
      "ancing": 1922,
      "joy": 1923,
      "ledge": 1924,
      "ball": 1925,
      "Ġmar": 1926,
      "ĠUnited": 1927,
      "ety": 1928,
      "Ġaudience": 1929,
      "Ġresponse": 1930,
      "LD": 1931,
      "ĠAmerican": 1932,
      "ET": 1933,
      "ane": 1934,
      "Ġnon": 1935,
      "Ġmusic": 1936,
      "aring": 1937,
      "ĠIs": 1938,
      "ged": 1939,
      "gether": 1940,
      "Ġcommon": 1941,
      "Ġensuring": 1942,
      "ivity": 1943,
      "str": 1944,
      "Ġstill": 1945,
      "Ġadvert": 1946,
      "ery": 1947,
      "Ġreview": 1948,
      "Ġsignificantly": 1949,
      "ĠThere": 1950,
      "ological": 1951,
      "rodu": 1952,
      "Ġoptions": 1953,
      "Ġwin": 1954,
      "Ġcompanies": 1955,
      "Ġsystems": 1956,
      "Ġ8": 1957,
      "ĠTe": 1958,
      "ĠUS": 1959,
      "ditions": 1960,
      "rec": 1961,
      "ĠSp": 1962,
      "ised": 1963,
      "ilar": 1964,
      "izes": 1965,
      "ajor": 1966,
      "Ġreach": 1967,
      "Ġalong": 1968,
      "IM": 1969,
      "hers": 1970,
      "Ġaffect": 1971,
      "Ġfuture": 1972,
      "oney": 1973,
      "Ġtowards": 1974,
      "Ġprofessional": 1975,
      "ademic": 1976,
      "Ġstory": 1977,
      "Ġcontrol": 1978,
      "year": 1979,
      "Ġsubject": 1980,
      "rain": 1981,
      "Ġmeet": 1982,
      "AL": 1983,
      "ests": 1984,
      "Ġstrong": 1985,
      "ump": 1986,
      "ores": 1987,
      "Ġhig": 1988,
      "Ġadditional": 1989,
      "ina": 1990,
      "Ġtry": 1991,
      "Ġnatural": 1992,
      "ĠEn": 1993,
      "fety": 1994,
      "err": 1995,
      "ift": 1996,
      "Ġarticle": 1997,
      "Ġpoint": 1998,
      "phas": 1999,
      "Ġcommit": 2000,
      "ĠWH": 2001,
      "nces": 2002,
      "ours": 2003,
      "VE": 2004,
      "Ġ&": 2005,
      "Ġnote": 2006,
      "ensive": 2007,
      "play": 2008,
      "LY": 2009,
      "rop": 2010,
      "Ġant": 2011,
      "Ġmov": 2012,
      "Ġtreat": 2013,
      "pite": 2014,
      "Ġassist": 2015,
      "Ġinteract": 2016,
      "bo": 2017,
      "uation": 2018,
      "Ġmaterials": 2019,
      "ope": 2020,
      "ĠFr": 2021,
      "ĠTHAT": 2022,
      "care": 2023,
      "Ġpiece": 2024,
      "Ġcontinue": 2025,
      "book": 2026,
      "ably": 2027,
      "Ġcomplex": 2028,
      "Ġrelationship": 2029,
      "GH": 2030,
      "Ġpoem": 2031,
      "Ġtraining": 2032,
      "ĠZ": 2033,
      "imate": 2034,
      "Ġcomprehens": 2035,
      "Ġcritical": 2036,
      "Ġchange": 2037,
      "Ġchallenges": 2038,
      "Ġabove": 2039,
      "istic": 2040,
      "Ġproble": 2041,
      "side": 2042,
      "ĠUniversity": 2043,
      "Ġsure": 2044,
      "Ġvisit": 2045,
      "Ġothers": 2046,
      "Ġjour": 2047,
      "Contin": 2048,
      "Ġut": 2049,
      "ites": 2050,
      "ids": 2051,
      "Ġmembers": 2052,
      "aster": 2053,
      "pping": 2054,
      "Ġmess": 2055,
      "ving": 2056,
      "âĢľ": 2057,
      "lier": 2058,
      "Ġbas": 2059,
      "Ġresult": 2060,
      "olve": 2061,
      "mit": 2062,
      "ese": 2063,
      "urs": 2064,
      "Ġemot": 2065,
      "gar": 2066,
      "Ġdefinition": 2067,
      "Ġname": 2068,
      "Ġpaper": 2069,
      "aste": 2070,
      "know": 2071,
      "new": 2072,
      "apt": 2073,
      "ference": 2074,
      "ging": 2075,
      "Ġparticularly": 2076,
      "Ġvalue": 2077,
      "icking": 2078,
      "etry": 2079,
      "Ġable": 2080,
      "Ġestab": 2081,
      "idence": 2082,
      "Ġencoura": 2083,
      "Ġability": 2084,
      "rap": 2085,
      "atives": 2086,
      "how": 2087,
      "Ġrecogn": 2088,
      "Ġmonth": 2089,
      "lished": 2090,
      "ĠON": 2091,
      "arketing": 2092,
      "resh": 2093,
      "osp": 2094,
      "ENT": 2095,
      "Ġjob": 2096,
      "Ġcharacter": 2097,
      "Ġfore": 2098,
      "Ġobject": 2099,
      "Ġemphas": 2100,
      "IR": 2101,
      "ĠSE": 2102,
      "Ġanalysis": 2103,
      "Ġann": 2104,
      "ene": 2105,
      "ots": 2106,
      "ended": 2107,
      "Ġocc": 2108,
      "Ġvers": 2109,
      "Ġshare": 2110,
      "ote": 2111,
      "Ġpurch": 2112,
      "Ġhighlight": 2113,
      "Ġtogether": 2114,
      "ones": 2115,
      "orm": 2116,
      "ĠAdditionally": 2117,
      "ators": 2118,
      "ION": 2119,
      "Ġimportance": 2120,
      "Ġincrease": 2121,
      "Ġanaly": 2122,
      "like": 2123,
      "tt": 2124,
      "Ġfri": 2125,
      "Ġmot": 2126,
      "Ġways": 2127,
      "Ġprograms": 2128,
      "Ġbusinesses": 2129,
      "pecially": 2130,
      "Ġhapp": 2131,
      "sy": 2132,
      "Ġ9": 2133,
      "Ġwide": 2134,
      "cont": 2135,
      "ification": 2136,
      "Ġ18": 2137,
      "Ġefforts": 2138,
      "ĠPh": 2139,
      "ĠComm": 2140,
      "Ġeffectively": 2141,
      "used": 2142,
      "Ġnext": 2143,
      "ding": 2144,
      "Ġlow": 2145,
      "ocu": 2146,
      "yond": 2147,
      "Ġtools": 2148,
      "aim": 2149,
      "Ġminutes": 2150,
      "elling": 2151,
      "Ch": 2152,
      "Ġattention": 2153,
      "pper": 2154,
      "Ġstrategy": 2155,
      "Ġtips": 2156,
      "Ġline": 2157,
      "Ġguid": 2158,
      "Ġdeep": 2159,
      "Ġfour": 2160,
      "iple": 2161,
      "Ġpopular": 2162,
      "Ġallows": 2163,
      "Ġorder": 2164,
      "Ġcreating": 2165,
      "off": 2166,
      "fect": 2167,
      "aces": 2168,
      "Ġdirectly": 2169,
      "Ġhead": 2170,
      "Ġtraditional": 2171,
      "coming": 2172,
      "eral": 2173,
      "Ġcheck": 2174,
      "Ġcra": 2175,
      "Ġinnov": 2176,
      "ĠAS": 2177,
      "gle": 2178,
      "mat": 2179,
      "ications": 2180,
      "Ġbody": 2181,
      "redients": 2182,
      "Ġphot": 2183,
      "Ġing": 2184,
      "Ġrecord": 2185,
      "isc": 2186,
      "Ġcountry": 2187,
      "Ġoverall": 2188,
      "Ġaspect": 2189,
      "ĠCent": 2190,
      "Ġacademic": 2191,
      "Ġeconomic": 2192,
      "Ġund": 2193,
      "Ġupd": 2194,
      "Ġexperiences": 2195,
      "Ġperiod": 2196,
      "Ġ'": 2197,
      "Ġpossible": 2198,
      "ows": 2199,
      "ott": 2200,
      "Ġcomprehensive": 2201,
      "Ġnut": 2202,
      "Ġweek": 2203,
      "alk": 2204,
      "AM": 2205,
      "Ġmind": 2206,
      "iate": 2207,
      "arize": 2208,
      "Ġcity": 2209,
      "Ġexpress": 2210,
      "Ġcover": 2211,
      "Ġcal": 2212,
      "oose": 2213,
      "Ġresults": 2214,
      "50": 2215,
      "Ġpress": 2216,
      "Ġleading": 2217,
      "Ġcontext": 2218,
      "rel": 2219,
      "reg": 2220,
      "rior": 2221,
      "ĠShe": 2222,
      "Ġcome": 2223,
      "att": 2224,
      "their": 2225,
      "ĠMar": 2226,
      "usion": 2227,
      "Ġbecome": 2228,
      "ees": 2229,
      "Ġprevent": 2230,
      "cy": 2231,
      "Ġinvolves": 2232,
      "fl": 2233,
      "Ġsince": 2234,
      "Ġshort": 2235,
      "Ġsignificance": 2236,
      "Ġdra": 2237,
      "Ġcommunication": 2238,
      "ĠMan": 2239,
      "irm": 2240,
      "comes": 2241,
      "Continuing": 2242,
      "ĠST": 2243,
      "stitut": 2244,
      "Ġoptim": 2245,
      "Ġconditions": 2246,
      "ole": 2247,
      "Ġengine": 2248,
      "Ġoffering": 2249,
      "AY": 2250,
      "ires": 2251,
      "Ġsuccessful": 2252,
      "Given": 2253,
      "erson": 2254,
      "ĠWhat": 2255,
      "place": 2256,
      "Ġsecurity": 2257,
      "Ġusers": 2258,
      "but": 2259,
      "Ġworking": 2260,
      "Ġmajor": 2261,
      "Ġearly": 2262,
      "Ġorganiz": 2263,
      "Ġcase": 2264,
      "ele": 2265,
      "Ġself": 2266,
      "pre": 2267,
      "Ġpractices": 2268,
      "Ġfre": 2269,
      "Ġcultural": 2270,
      "ĠAI": 2271,
      "Ġvariety": 2272,
      "thing": 2273,
      "Ġprimary": 2274,
      "artment": 2275,
      "atch": 2276,
      "Ġsafety": 2277,
      "ively": 2278,
      "obile": 2279,
      "Ġproduction": 2280,
      "Ġtoo": 2281,
      "Ġreflect": 2282,
      "Ġbehav": 2283,
      "Ġsetting": 2284,
      "ibr": 2285,
      "lt": 2286,
      "Ġtypes": 2287,
      "enerate": 2288,
      "Ġsay": 2289,
      "Ġassoci": 2290,
      "Ġdi": 2291,
      "agn": 2292,
      "Ġknowledge": 2293,
      "Ġbi": 2294,
      "Ġuser": 2295,
      "Ġcollabor": 2296,
      "ĠWor": 2297,
      "has": 2298,
      "Ġtype": 2299,
      "pose": 2300,
      "stain": 2301,
      "iques": 2302,
      "struction": 2303,
      "Ġcomplete": 2304,
      "ee": 2305,
      "Ġphysical": 2306,
      "rict": 2307,
      "Ġimplement": 2308,
      "ĠYOU": 2309,
      "Un": 2310,
      "iverse": 2311,
      "An": 2312,
      "Ġespecially": 2313,
      "Ġfost": 2314,
      "Ġachieve": 2315,
      "ode": 2316,
      "Ġmillion": 2317,
      "Ġnature": 2318,
      "urope": 2319,
      "aff": 2320,
      "Ġpain": 2321,
      "Ġsing": 2322,
      "Ġele": 2323,
      "Ġfull": 2324,
      "Ġearlier": 2325,
      "Ġconduct": 2326,
      "Ġalways": 2327,
      "Ġcut": 2328,
      "put": 2329,
      "Ġport": 2330,
      "Ġhelps": 2331,
      "cise": 2332,
      "ush": 2333,
      "ufact": 2334,
      "most": 2335,
      "Ġglobal": 2336,
      "Ġhowever": 2337,
      "CE": 2338,
      "Ġhold": 2339,
      "Ġrisk": 2340,
      "olid": 2341,
      "Ġmix": 2342,
      "Ġenjoy": 2343,
      "ev": 2344,
      "word": 2345,
      "eed": 2346,
      "Ġiniti": 2347,
      "Ġnecessary": 2348,
      "Ġopportunities": 2349,
      "Ġchanges": 2350,
      "Ġlegal": 2351,
      "Ġsustain": 2352,
      "Ġpolitical": 2353,
      "Ġsound": 2354,
      "cell": 2355,
      "Ġdiff": 2356,
      ".,": 2357,
      "Ġaccount": 2358,
      "Ġhard": 2359,
      "Ġtimes": 2360,
      "illed": 2361,
      "ĠStates": 2362,
      "Ġprotect": 2363,
      "Ġliter": 2364,
      "aling": 2365,
      "ĠAll": 2366,
      "Ġfactors": 2367,
      "Ġneg": 2368,
      "Th": 2369,
      "Ġsales": 2370,
      "Ġselect": 2371,
      "lex": 2372,
      "ĠRep": 2373,
      "Ġrepresent": 2374,
      "Ġpriv": 2375,
      "Ġidentify": 2376,
      "Ġgen": 2377,
      "ĠSchool": 2378,
      "ĠWith": 2379,
      "Ġi": 2380,
      "Ġintrodu": 2381,
      "UR": 2382,
      "Ġvol": 2383,
      "ĠMed": 2384,
      "Ġpositive": 2385,
      "iation": 2386,
      "ifically": 2387,
      "Ġcred": 2388,
      "oes": 2389,
      "Ġimm": 2390,
      "ender": 2391,
      "Ġrelated": 2392,
      "oogle": 2393,
      "Ġlearn": 2394,
      "Ġsoftware": 2395,
      "Ġmethods": 2396,
      "Ġanim": 2397,
      "Ġstructure": 2398,
      "icult": 2399,
      "Ġsteps": 2400,
      "Ġwhy": 2401,
      "ww": 2402,
      "gra": 2403,
      "Ġpric": 2404,
      "Ġorganization": 2405,
      "Ġstat": 2406,
      "ival": 2407,
      "ises": 2408,
      "rast": 2409,
      "Ġturn": 2410,
      "ĠDes": 2411,
      "Ġhistor": 2412,
      "Ġregul": 2413,
      "ĠOr": 2414,
      "une": 2415,
      "ians": 2416,
      "Ġtru": 2417,
      "ĠPr": 2418,
      "face": 2419,
      "Ġfr": 2420,
      "ITH": 2421,
      "Ġinsights": 2422,
      "Ġtypically": 2423,
      "He": 2424,
      "Ġspace": 2425,
      "Ġdocu": 2426,
      "aged": 2427,
      "Ġsomething": 2428,
      "Ġcertain": 2429,
      "Ġsite": 2430,
      "ured": 2431,
      "aps": 2432,
      "ĠHIS": 2433,
      "des": 2434,
      "TER": 2435,
      "Ġput": 2436,
      "ĠBut": 2437,
      "aken": 2438,
      "Ġrelev": 2439,
      "ĠRE": 2440,
      "Ġpub": 2441,
      "Ġgoals": 2442,
      "Ġadvertising": 2443,
      "Ġtax": 2444,
      "arc": 2445,
      "aren": 2446,
      "Ġtas": 2447,
      "Ġsent": 2448,
      "Ġcomput": 2449,
      "Ġstyle": 2450,
      "Ġdecision": 2451,
      "Ad": 2452,
      "201": 2453,
      ",âĢĿ": 2454,
      "osed": 2455,
      "AND": 2456,
      "enn": 2457,
      "cre": 2458,
      "Ġvideo": 2459,
      "Ġdeterm": 2460,
      "che": 2461,
      "Ġlink": 2462,
      "Ġposition": 2463,
      "weet": 2464,
      "Ġhigher": 2465,
      "Ġlikely": 2466,
      "VER": 2467,
      "Ġcomes": 2468,
      "room": 2469,
      "Ġapplication": 2470,
      "ĠFOR": 2471,
      "Ġcollect": 2472,
      "Ġill": 2473,
      "ister": 2474,
      "acc": 2475,
      "Ġcup": 2476,
      "Ġfeed": 2477,
      "Ġfeature": 2478,
      "alf": 2479,
      "earch": 2480,
      "reng": 2481,
      "isions": 2482,
      "ried": 2483,
      "Ġwomen": 2484,
      "Ġofficial": 2485,
      "imately": 2486,
      "Ġsimilar": 2487,
      "Ġenvironmental": 2488,
      "Ġintegr": 2489,
      "Ġhy": 2490,
      "icro": 2491,
      "Ġwhether": 2492,
      "ler": 2493,
      "Ġlevels": 2494,
      "ĠCar": 2495,
      "Ġbal": 2496,
      "they": 2497,
      "Ġcolor": 2498,
      "Ġsense": 2499,
      "ĠChrist": 2500,
      "Ġmakes": 2501,
      "Ġbeaut": 2502,
      "Ġemb": 2503,
      "though": 2504,
      "Ġbuilding": 2505,
      "ring": 2506,
      "hold": 2507,
      "uable": 2508,
      "ison": 2509,
      "Ġseries": 2510,
      "aun": 2511,
      "part": 2512,
      "Ġincorpor": 2513,
      "ĠSy": 2514,
      "Ġlooking": 2515,
      "Ġquick": 2516,
      "come": 2517,
      "Ġpoints": 2518,
      "iency": 2519,
      "atory": 2520,
      "Ġside": 2521,
      "Ġbrow": 2522,
      "hy": 2523,
      "Ġprojects": 2524,
      "Ġcir": 2525,
      "idd": 2526,
      "olutions": 2527,
      "ony": 2528,
      "enced": 2529,
      "Ġsens": 2530,
      "lying": 2531,
      "imin": 2532,
      "iol": 2533,
      "For": 2534,
      "ologies": 2535,
      "ĠEurope": 2536,
      "Ġfoot": 2537,
      "rite": 2538,
      "Ġpage": 2539,
      "Ġremain": 2540,
      "Ġutil": 2541,
      "Could": 2542,
      "Generate": 2543,
      "Ġsize": 2544,
      "Ġreduce": 2545,
      "Ġenhancing": 2546,
      "Ġclean": 2547,
      "Ġplatforms": 2548,
      "ĊĠĠ": 2549,
      "Ġmedical": 2550,
      "Ġlay": 2551,
      "Ġste": 2552,
      "ĠWITH": 2553,
      "oint": 2554,
      "ears": 2555,
      "Ġyoung": 2556,
      "ecut": 2557,
      "If": 2558,
      "Ġheart": 2559,
      "Ġz": 2560,
      "Ġmom": 2561,
      "ĠSu": 2562,
      "ider": 2563,
      "Ġtou": 2564,
      "Ġbring": 2565,
      "Ġconsist": 2566,
      "Ġworth": 2567,
      "ĠWhen": 2568,
      "Ġinvolved": 2569,
      "You": 2570,
      "Ġprior": 2571,
      "Ġaction": 2572,
      "Ġheat": 2573,
      "hib": 2574,
      "Ġsect": 2575,
      "Ġbeyond": 2576,
      "Ã©": 2577,
      "irt": 2578,
      "ĠHER": 2579,
      "Ġfresh": 2580,
      "ĠIS": 2581,
      "Ġtechniques": 2582,
      "ĠAf": 2583,
      "Ġmanufact": 2584,
      "Ġthink": 2585,
      "ster": 2586,
      "uck": 2587,
      "Ġeasy": 2588,
      "Ġnear": 2589,
      "Ġcell": 2590,
      "ĠTr": 2591,
      "Ġideas": 2592,
      "Ġgre": 2593,
      "There": 2594,
      "Ġperfect": 2595,
      "Ġexist": 2596,
      "Ġsummarize": 2597,
      "ither": 2598,
      "Ġland": 2599,
      "sequ": 2600,
      "Ġpropos": 2601,
      "ĠNational": 2602,
      "ties": 2603,
      "ĠOn": 2604,
      "Ġthings": 2605,
      "ferences": 2606,
      "Ġterms": 2607,
      "bl": 2608,
      "Ġfilm": 2609,
      "Ġeducational": 2610,
      "aly": 2611,
      "Ġculture": 2612,
      "vey": 2613,
      "ccording": 2614,
      "itor": 2615,
      "Ġdise": 2616,
      "orry": 2617,
      "Ġnarr": 2618,
      "Ġcompl": 2619,
      "Ġadjust": 2620,
      "Ġgoing": 2621,
      "ued": 2622,
      "Ġengagement": 2623,
      "Ġinfluence": 2624,
      "Ġbig": 2625,
      "some": 2626,
      "Ġingredients": 2627,
      "Ġcountries": 2628,
      "Ġcapt": 2629,
      "Ġsafe": 2630,
      "augh": 2631,
      "icated": 2632,
      "Ġweb": 2633,
      "eds": 2634,
      "ĠJoh": 2635,
      "Ġconvers": 2636,
      "ters": 2637,
      "ai": 2638,
      "Ġpractice": 2639,
      "Ġmil": 2640,
      "ĠIm": 2641,
      "Ġpolicy": 2642,
      "iam": 2643,
      "Ġold": 2644,
      "iance": 2645,
      "aches": 2646,
      "Ġnews": 2647,
      "Ġrequirements": 2648,
      "Ġsat": 2649,
      "ĠAss": 2650,
      "Ġpercent": 2651,
      "ĠAN": 2652,
      "Ġcareer": 2653,
      "ches": 2654,
      "Ġregular": 2655,
      "Ġgeneral": 2656,
      "US": 2657,
      "Ġur": 2658,
      "ening": 2659,
      "Ġclose": 2660,
      "Ġreally": 2661,
      "iveness": 2662,
      "Ġinternational": 2663,
      "Ġorganizations": 2664,
      "Ġprinc": 2665,
      "aching": 2666,
      "Ġstudent": 2667,
      "verage": 2668,
      "Ġhom": 2669,
      "Sh": 2670,
      "icles": 2671,
      "urthermore": 2672,
      "ĠAT": 2673,
      "Ġoriginal": 2674,
      "pective": 2675,
      "sing": 2676,
      "Ġinvestig": 2677,
      "Ġdetailed": 2678,
      "ocol": 2679,
      "Ġcannot": 2680,
      "Ġavoid": 2681,
      "Ġbuy": 2682,
      "Ġded": 2683,
      "Ġcalled": 2684,
      "Ġstreng": 2685,
      "Ġgar": 2686,
      "minist": 2687,
      "Ġsuper": 2688,
      "Ġpack": 2689,
      "Ġpoetry": 2690,
      "AP": 2691,
      "ground": 2692,
      "Ġdifficult": 2693,
      "Ġrefers": 2694,
      "Ġtemper": 2695,
      "Ġgroups": 2696,
      "Ġapplications": 2697,
      "Ġhaving": 2698,
      "Ġsources": 2699,
      "inct": 2700,
      "Ġdy": 2701,
      "which": 2702,
      "writ": 2703,
      "Ġaccur": 2704,
      "Ġdays": 2705,
      "Ġcy": 2706,
      "crib": 2707,
      "ĠCo": 2708,
      "ĠHAD": 2709,
      "ĠGoogle": 2710,
      "ĠAm": 2711,
      "Ġrecent": 2712,
      "astly": 2713,
      "uce": 2714,
      "oreover": 2715,
      "ready": 2716,
      "ivot": 2717,
      "Ġinsp": 2718,
      "Ġelements": 2719,
      "iment": 2720,
      "iring": 2721,
      "text": 2722,
      "GHT": 2723,
      "leg": 2724,
      "Ġcooking": 2725,
      "Ġaway": 2726,
      "Ġvisual": 2727,
      "30": 2728,
      "Ġtravel": 2729,
      "Ġinstitut": 2730,
      "ĠWorld": 2731,
      "ĠâĢĶ": 2732,
      "Ġrequired": 2733,
      "Ġhot": 2734,
      "abilities": 2735,
      "ners": 2736,
      "Ġled": 2737,
      "HER": 2738,
      "Ġscient": 2739,
      "Ġhealthcare": 2740,
      "Ġserve": 2741,
      "Ġdam": 2742,
      "Ġnational": 2743,
      "Ġwar": 2744,
      "Ġflavor": 2745,
      "aves": 2746,
      "selves": 2747,
      "Ġautom": 2748,
      "That": 2749,
      "icken": 2750,
      "lor": 2751,
      "tra": 2752,
      "Ġcele": 2753,
      "Ġissue": 2754,
      "erve": 2755,
      "CT": 2756,
      "Ġmultiple": 2757,
      "Ġlat": 2758,
      "Ġexpert": 2759,
      "inary": 2760,
      "etic": 2761,
      "âĢĵ": 2762,
      "ounts": 2763,
      "Ġbar": 2764,
      "ĠApp": 2765,
      "ocial": 2766,
      "itable": 2767,
      "ules": 2768,
      "ĠIntern": 2769,
      "Ġbelow": 2770,
      "ĠSouth": 2771,
      "Ġgoal": 2772,
      "Ġinitial": 2773,
      "mbol": 2774,
      "iable": 2775,
      "Ġmoney": 2776,
      "Ġgain": 2777,
      "Ġquestions": 2778,
      "ban": 2779,
      "acks": 2780,
      "Ġrelevant": 2781,
      "Ġnetwork": 2782,
      "ression": 2783,
      "urance": 2784,
      "Ġcollection": 2785,
      "Ġassess": 2786,
      "Ġblog": 2787,
      "Ġengaging": 2788,
      "Ġtit": 2789,
      "ĠNorth": 2790,
      "Ġobs": 2791,
      "Ġrev": 2792,
      "Ġspir": 2793,
      "Ġeth": 2794,
      "Ġrights": 2795,
      "what": 2796,
      "Ġful": 2797,
      "Ġfinal": 2798,
      "Ġred": 2799,
      "Ġlocation": 2800,
      "Ġplayers": 2801,
      "ĠNOT": 2802,
      "inking": 2803,
      "Ġexplain": 2804,
      "illing": 2805,
      "epend": 2806,
      "information": 2807,
      "Ġprep": 2808,
      "Ġdescri": 2809,
      "Picking": 2810,
      "Ġeffects": 2811,
      "Ġloss": 2812,
      "RI": 2813,
      "istics": 2814,
      "Ġground": 2815,
      "Ġscience": 2816,
      "Ġinform": 2817,
      "Ġthroughout": 2818,
      "Ġdoesn": 2819,
      "Ġwords": 2820,
      "Ġrates": 2821,
      "Ġsmo": 2822,
      "Ġmobile": 2823,
      "Ġreturn": 2824,
      "head": 2825,
      "ĠTra": 2826,
      "Ġfit": 2827,
      "aur": 2828,
      "Ġuses": 2829,
      "ĠUse": 2830,
      "Ġface": 2831,
      "ched": 2832,
      "Ġdiverse": 2833,
      "force": 2834,
      "Ġidea": 2835,
      "Ġveget": 2836,
      "Ġpan": 2837,
      "fully": 2838,
      "Ġaltern": 2839,
      "RO": 2840,
      "Ġpotentially": 2841,
      "aker": 2842,
      "fortun": 2843,
      "udget": 2844,
      "ĠHis": 2845,
      "ĠPo": 2846,
      "Ġsorry": 2847,
      "ĠEm": 2848,
      "avig": 2849,
      "uff": 2850,
      "ĠChe": 2851,
      "Ġminim": 2852,
      "quality": 2853,
      "Ġlive": 2854,
      "Based": 2855,
      "oon": 2856,
      "Ġdom": 2857,
      "ague": 2858,
      "oman": 2859,
      "af": 2860,
      "Ġexplore": 2861,
      "Ġey": 2862,
      "Ġwon": 2863,
      "Ġkind": 2864,
      "urch": 2865,
      "Ġfive": 2866,
      "Ġ12": 2867,
      "Ġpurpose": 2868,
      "Ġseen": 2869,
      "Ġinstruction": 2870,
      "Ġhours": 2871,
      "Ġalign": 2872,
      "ilitary": 2873,
      "Ġmen": 2874,
      "ĠOne": 2875,
      "icate": 2876,
      "Ġmodern": 2877,
      "Ġamount": 2878,
      "mission": 2879,
      "ilt": 2880,
      "Ġlower": 2881,
      "rug": 2882,
      "rest": 2883,
      "ze": 2884,
      "onstr": 2885,
      "Ġbehavior": 2886,
      "itud": 2887,
      "Ġdiscussing": 2888,
      "And": 2889,
      "mber": 2890,
      "Ġstay": 2891,
      "Ġdevices": 2892,
      "Ġtal": 2893,
      "using": 2894,
      "going": 2895,
      "erous": 2896,
      "ishing": 2897,
      "ixt": 2898,
      "vent": 2899,
      "Ġoption": 2900,
      "Ġinvolve": 2901,
      "Ġpred": 2902,
      "ming": 2903,
      "era": 2904,
      "pts": 2905,
      "Ġemerg": 2906,
      "aries": 2907,
      "Ġadvant": 2908,
      "Ġjourney": 2909,
      "val": 2910,
      "ĠBr": 2911,
      "Ġbat": 2912,
      "Ġcand": 2913,
      "astic": 2914,
      "Res": 2915,
      "Ġsolutions": 2916,
      "'ll": 2917,
      "ustr": 2918,
      "Ġdistribut": 2919,
      "ĠCal": 2920,
      "Ġmatter": 2921,
      "Ġlittle": 2922,
      "Ġclaim": 2923,
      "Ġadapt": 2924,
      "Ġtrust": 2925,
      "Ġpattern": 2926,
      "Ġchoice": 2927,
      "chan": 2928,
      "Ġfacilit": 2929,
      "Ġfram": 2930,
      "Ġneeded": 2931,
      "owl": 2932,
      "Ġunders": 2933,
      "ĠSome": 2934,
      "gram": 2935,
      "Ġsubst": 2936,
      "ĠAust": 2937,
      "Ġcontribute": 2938,
      "Ġtour": 2939,
      "Ġonce": 2940,
      "Ġefficient": 2941,
      "Ġgames": 2942,
      "Ġcoun": 2943,
      "Ġcirc": 2944,
      "OO": 2945,
      "Ġ15": 2946,
      "lear": 2947,
      "nal": 2948,
      "Ġbreak": 2949,
      "ĠFin": 2950,
      "ume": 2951,
      "iber": 2952,
      "key": 2953,
      "resident": 2954,
      "Ġrate": 2955,
      "ĠAfric": 2956,
      "inks": 2957,
      "Ġtrend": 2958,
      "Ġincluded": 2959,
      "'ve": 2960,
      "CH": 2961,
      "Ġbegin": 2962,
      "Ġfamil": 2963,
      "Ġremind": 2964,
      "12": 2965,
      "ĠHigh": 2966,
      "Ġprice": 2967,
      "load": 2968,
      "Ġlater": 2969,
      "Ġactions": 2970,
      "Ġask": 2971,
      "Ġimpl": 2972,
      "Ġeval": 2973,
      "Ġbehind": 2974,
      "ĠCount": 2975,
      "Ġsymbol": 2976,
      "Ġcompon": 2977,
      "Ġmeasures": 2978,
      "Ġtreatment": 2979,
      "Ġfire": 2980,
      "arter": 2981,
      "Ġlot": 2982,
      "Ġopp": 2983,
      "Ġtaking": 2984,
      "ops": 2985,
      "Ġtail": 2986,
      "Ġment": 2987,
      "oud": 2988,
      "Ġsugar": 2989,
      "Ġplans": 2990,
      "Ġcat": 2991,
      "gest": 2992,
      "serv": 2993,
      "Ġassociated": 2994,
      "eg": 2995,
      "Ġdeb": 2996,
      "hood": 2997,
      "Ġarch": 2998,
      "Ġvary": 2999,
      "who": 3000,
      "ager": 3001,
      "term": 3002,
      "Ġrather": 3003,
      "rem": 3004,
      "Ġblack": 3005,
      "Ġallowing": 3006,
      "Ġshowc": 3007,
      "Ġsimple": 3008,
      "Ġveh": 3009,
      "Swit": 3010,
      "Ġball": 3011,
      "Ġabs": 3012,
      "itation": 3013,
      "ĠAt": 3014,
      "Ġqual": 3015,
      "Ġroom": 3016,
      "Ġopportunity": 3017,
      "Ġessays": 3018,
      "Ġlog": 3019,
      "ĠDep": 3020,
      "Ġestablish": 3021,
      "ened": 3022,
      "uses": 3023,
      "Ġstatement": 3024,
      "Ġcampaigns": 3025,
      "ĠState": 3026,
      "Ġwind": 3027,
      "Ġfig": 3028,
      "Ġyet": 3029,
      "yl": 3030,
      "ĠGr": 3031,
      "ply": 3032,
      "ĠDr": 3033,
      "ctions": 3034,
      "chol": 3035,
      "Ġcosts": 3036,
      "ĠMay": 3037,
      "Ġpolicies": 3038,
      "Ġhistorical": 3039,
      "Ġfall": 3040,
      "ĠMin": 3041,
      "Ġregion": 3042,
      "Al": 3043,
      "ĠWhile": 3044,
      "Ġcream": 3045,
      "overed": 3046,
      "Ġthought": 3047,
      "ivil": 3048,
      "Ġtoday": 3049,
      "fortunately": 3050,
      "Ġproblem": 3051,
      "Ġhouse": 3052,
      "But": 3053,
      "Ġmor": 3054,
      "ruit": 3055,
      "idents": 3056,
      "Ġincreasing": 3057,
      "Ġliving": 3058,
      "Ġ30": 3059,
      "Ġsalt": 3060,
      "Ġsummary": 3061,
      "ceed": 3062,
      "Ġ199": 3063,
      "Ġsingle": 3064,
      "Ġaware": 3065,
      "arily": 3066,
      "ox": 3067,
      "issions": 3068,
      "Ġexecut": 3069,
      "Ġbase": 3070,
      "ĠAfter": 3071,
      "Ġextra": 3072,
      "ously": 3073,
      "Ġlands": 3074,
      "Ġsauce": 3075,
      "Ġage": 3076,
      "Ġrad": 3077,
      "rase": 3078,
      "Ġinstruct": 3079,
      "Ġsomeone": 3080,
      "Ġmark": 3081,
      "Ġviol": 3082,
      "also": 3083,
      "Ġincreased": 3084,
      "Ġadded": 3085,
      "Ġprogress": 3086,
      "Ġaspects": 3087,
      "These": 3088,
      "Ġmach": 3089,
      "Ġexer": 3090,
      "bon": 3091,
      "where": 3092,
      "Ġundersc": 3093,
      "Ġstress": 3094,
      "Ġgreen": 3095,
      "cking": 3096,
      "vest": 3097,
      "ĠMe": 3098,
      "Ġattract": 3099,
      "efore": 3100,
      "anks": 3101,
      "icip": 3102,
      "uild": 3103,
      "Ġrespect": 3104,
      "Ġsw": 3105,
      "Ġsource": 3106,
      "Ġdemonstr": 3107,
      "Ġstates": 3108,
      "Ġplayed": 3109,
      "Ġenough": 3110,
      "Ġult": 3111,
      "Ġcommunities": 3112,
      "ederal": 3113,
      "rief": 3114,
      "Ġengage": 3115,
      "top": 3116,
      "Ġpurchase": 3117,
      "Ġfail": 3118,
      "irl": 3119,
      "Ġvalues": 3120,
      "oving": 3121,
      "Ġinterested": 3122,
      "Ġdeath": 3123,
      "Ġhope": 3124,
      "Ġactivity": 3125,
      "Ġmessage": 3126,
      "Ġinstall": 3127,
      "Ġcollege": 3128,
      "ĠWar": 3129,
      "Ġhost": 3130,
      "Ġclients": 3131,
      "ĠMarketing": 3132,
      "olic": 3133,
      "Ġnavig": 3134,
      "Ġspecifically": 3135,
      "Ġdeg": 3136,
      "Ġarr": 3137,
      "Ġconcerns": 3138,
      "ĠMc": 3139,
      "roll": 3140,
      "Ġhighly": 3141,
      "ĠIndia": 3142,
      "Ġharm": 3143,
      "ervation": 3144,
      "Ġprocesses": 3145,
      "Ġeither": 3146,
      "ada": 3147,
      "Ġtot": 3148,
      "Ġwhite": 3149,
      "Ġpow": 3150,
      "Ġinvestment": 3151,
      "oph": 3152,
      "Ġchoose": 3153,
      "Ġpivot": 3154,
      "OULD": 3155,
      "ino": 3156,
      "Ġtouch": 3157,
      "oration": 3158,
      "Ġtri": 3159,
      "duc": 3160,
      "Ġexpected": 3161,
      "cast": 3162,
      "Ġstandards": 3163,
      "Ġvaluable": 3164,
      "uel": 3165,
      "Ġskin": 3166,
      "ĠStud": 3167,
      "encies": 3168,
      "sych": 3169,
      "Ġdone": 3170,
      "iar": 3171,
      "Ġcomfort": 3172,
      "Ġcreative": 3173,
      "being": 3174,
      "Ġchem": 3175,
      "free": 3176,
      "ief": 3177,
      "eper": 3178,
      "Ġcreated": 3179,
      "Ġplant": 3180,
      "Ġpoems": 3181,
      "Ġexcell": 3182,
      "Ġoperations": 3183,
      "estion": 3184,
      "Ġnever": 3185,
      "ipment": 3186,
      "ĠCity": 3187,
      "see": 3188,
      "Ġhalf": 3189,
      "Ġinj": 3190,
      "urt": 3191,
      "Ġdistinct": 3192,
      "ĠReg": 3193,
      "elt": 3194,
      "works": 3195,
      "Ġcontain": 3196,
      "Ġdish": 3197,
      "Pro": 3198,
      "Ġleast": 3199,
      "Ġrecip": 3200,
      "sec": 3201,
      "ĠYork": 3202,
      "dr": 3203,
      "Ġbudget": 3204,
      "Ġproperty": 3205,
      "ana": 3206,
      "Ġrefer": 3207,
      "Ġcapital": 3208,
      "fri": 3209,
      "Ġtaken": 3210,
      "ĠAct": 3211,
      "venue": 3212,
      "ifting": 3213,
      "ĠEnglish": 3214,
      "Ġpath": 3215,
      "Ġfeedback": 3216,
      "Ġfar": 3217,
      "prov": 3218,
      "Ġcommitment": 3219,
      "set": 3220,
      "Ġjo": 3221,
      "down": 3222,
      "Ġemotional": 3223,
      "apers": 3224,
      "Ġspirit": 3225,
      "Ġthird": 3226,
      "Ġdynam": 3227,
      "Ġefficiency": 3228,
      "Ġdemand": 3229,
      "Ġschools": 3230,
      "Ġgenerate": 3231,
      "acebook": 3232,
      "//": 3233,
      "amples": 3234,
      "ixture": 3235,
      "iding": 3236,
      "Ġstru": 3237,
      "opy": 3238,
      "aily": 3239,
      "ĠCons": 3240,
      "well": 3241,
      "Ġargu": 3242,
      "Ġfriends": 3243,
      "Ġwebsites": 3244,
      "ĠServ": 3245,
      "Ġcou": 3246,
      "ĠSal": 3247,
      "Ġplanning": 3248,
      "Ġalready": 3249,
      "rench": 3250,
      "Ġemployees": 3251,
      "ĠX": 3252,
      "Ġtrack": 3253,
      "overy": 3254,
      "Ġhon": 3255,
      "Ġevidence": 3256,
      "Ġsituation": 3257,
      "15": 3258,
      "ĠBar": 3259,
      "ĠInst": 3260,
      "vention": 3261,
      "Ġmeasure": 3262,
      "cape": 3263,
      "enge": 3264,
      "ĠGl": 3265,
      "Ġrich": 3266,
      "ils": 3267,
      "oost": 3268,
      "Ġsche": 3269,
      "Ġcause": 3270,
      "asons": 3271,
      "aced": 3272,
      "Ġsociety": 3273,
      "opt": 3274,
      "18": 3275,
      "Ġstudies": 3276,
      "Ġheav": 3277,
      "eria": 3278,
      "Ġtook": 3279,
      "add": 3280,
      "Ġlives": 3281,
      "Ġdeal": 3282,
      "comm": 3283,
      "idge": 3284,
      "Ġver": 3285,
      "\".": 3286,
      "Ġmilitary": 3287,
      "umb": 3288,
      "Ġconsidered": 3289,
      "Ġdecisions": 3290,
      "iction": 3291,
      "When": 3292,
      "Ġnight": 3293,
      "stud": 3294,
      "spec": 3295,
      "Ġstaff": 3296,
      "Ġexc": 3297,
      "Ġge": 3298,
      "Ġfavor": 3299,
      "Ġcheese": 3300,
      "Ġtopics": 3301,
      "Ġinternet": 3302,
      "Ġpromote": 3303,
      "stitute": 3304,
      "life": 3305,
      "rig": 3306,
      "Ġhealthy": 3307,
      "Ġappear": 3308,
      "ĠHealth": 3309,
      "oice": 3310,
      "iddle": 3311,
      "Here": 3312,
      "ĠGu": 3313,
      "AIN": 3314,
      "them": 3315,
      "Switching": 3316,
      "Ġcool": 3317,
      "iff": 3318,
      "Ġgradu": 3319,
      "Ġinstru": 3320,
      "Ġprofession": 3321,
      "Ġteac": 3322,
      "Ġreducing": 3323,
      "pri": 3324,
      "ipl": 3325,
      "right": 3326,
      "Ġvital": 3327,
      "Ġgears": 3328,
      "nswer": 3329,
      "ography": 3330,
      "Ġsou": 3331,
      "ama": 3332,
      "Ġmaintaining": 3333,
      "IL": 3334,
      "Ġsweet": 3335,
      "Ġpresence": 3336,
      "Ġrob": 3337,
      "ses": 3338,
      "Ġcard": 3339,
      "iful": 3340,
      "Ġitems": 3341,
      "Ġfrequ": 3342,
      "Ġstrategic": 3343,
      "Ġbroader": 3344,
      "Ġensures": 3345,
      "Ġflow": 3346,
      "ILL": 3347,
      "thern": 3348,
      "Ġprote": 3349,
      "ris": 3350,
      "vis": 3351,
      "ĠBased": 3352,
      "Ġlimited": 3353,
      "Ġtaste": 3354,
      "ĠHA": 3355,
      "Ġweight": 3356,
      "aph": 3357,
      "Ġmanage": 3358,
      "Ġteams": 3359,
      "Ġdocument": 3360,
      "icious": 3361,
      "Ġrelationships": 3362,
      "ĠSU": 3363,
      "Ġtransport": 3364,
      "OS": 3365,
      "prof": 3366,
      "ĠSH": 3367,
      "://": 3368,
      "sis": 3369,
      "Trans": 3370,
      "ma": 3371,
      "col": 3372,
      "ĠGe": 3373,
      "cil": 3374,
      "Ġthemes": 3375,
      "there": 3376,
      "ĠFurthermore": 3377,
      "Ġreceive": 3378,
      "said": 3379,
      "ĠAmerica": 3380,
      "Ġheld": 3381,
      "Ġwarm": 3382,
      "Ġnarrative": 3383,
      "Ġmovement": 3384,
      "bor": 3385,
      "ĠComp": 3386,
      "ĠResearch": 3387,
      "Ġreason": 3388,
      "making": 3389,
      "ĠCont": 3390,
      "Ġrelig": 3391,
      "Ġguide": 3392,
      "Ġbutter": 3393,
      "ĠSO": 3394,
      "endly": 3395,
      "Ġsports": 3396,
      "tics": 3397,
      "change": 3398,
      "Ġthemselves": 3399,
      "11": 3400,
      "EM": 3401,
      "asts": 3402,
      "ulate": 3403,
      "ĠCenter": 3404,
      "apan": 3405,
      "cons": 3406,
      "Now": 3407,
      "ĠSm": 3408,
      "Ġemp": 3409,
      "gen": 3410,
      "urer": 3411,
      "itect": 3412,
      "ĠNot": 3413,
      "lation": 3414,
      "under": 3415,
      "ĠPart": 3416,
      "Ġmechan": 3417,
      "eth": 3418,
      "ĠTheir": 3419,
      "Ġstandard": 3420,
      "ĠJohn": 3421,
      "ios": 3422,
      "Ġbooks": 3423,
      "into": 3424,
      "Ġexact": 3425,
      "ifying": 3426,
      "Ġans": 3427,
      "Ġremains": 3428,
      "Ġcelebr": 3429,
      "Ġlatest": 3430,
      "Ġbecame": 3431,
      "Is": 3432,
      "Ġeffort": 3433,
      "Ġconcept": 3434,
      "arent": 3435,
      "Ġgetting": 3436,
      "assage": 3437,
      "ung": 3438,
      "spect": 3439,
      "Ġrele": 3440,
      "Ġvict": 3441,
      "ĠWE": 3442,
      "reet": 3443,
      "ĠSHE": 3444,
      "Ġmoment": 3445,
      "iles": 3446,
      "ĠKe": 3447,
      "Ġstrength": 3448,
      "ocr": 3449,
      "Ġacqu": 3450,
      "reme": 3451,
      "oved": 3452,
      "ĠAdd": 3453,
      "Ġadvoc": 3454,
      "osing": 3455,
      "According": 3456,
      "rew": 3457,
      "essay": 3458,
      "Qu": 3459,
      "nes": 3460,
      "Ġexpand": 3461,
      "asc": 3462,
      "ĠBrit": 3463,
      "ension": 3464,
      "rect": 3465,
      "Ġwritten": 3466,
      "PE": 3467,
      "TH": 3468,
      "ham": 3469,
      "ĠAustral": 3470,
      "Ġpractical": 3471,
      "Ġsepar": 3472,
      "akers": 3473,
      "IF": 3474,
      "ute": 3475,
      "itioning": 3476,
      "ĠSo": 3477,
      "acity": 3478,
      "Ġimages": 3479,
      "Ġtemperature": 3480,
      "Ġsuggests": 3481,
      "peaking": 3482,
      "Ġpressure": 3483,
      "Ġsix": 3484,
      "Ġoffered": 3485,
      "arents": 3486,
      "Ġeasily": 3487,
      "Ġlack": 3488,
      "ĠInc": 3489,
      "Ġpatients": 3490,
      "ĠCounty": 3491,
      "Ġcentury": 3492,
      "Ġimmed": 3493,
      "abric": 3494,
      "ĠEd": 3495,
      "Ġreports": 3496,
      "Ġmixture": 3497,
      "Ġegg": 3498,
      "ĠHIM": 3499,
      "ĠPe": 3500,
      "standing": 3501,
      "Ġdelve": 3502,
      "Ġstrugg": 3503,
      "amed": 3504,
      "On": 3505,
      "Ġones": 3506,
      "were": 3507,
      "oe": 3508,
      "ession": 3509,
      "Ġusually": 3510,
      "fford": 3511,
      "Ġmatch": 3512,
      "avors": 3513,
      "Ġstore": 3514,
      "ALL": 3515,
      "Ġtraffic": 3516,
      "Ġbeneficial": 3517,
      "itude": 3518,
      "ĠNo": 3519,
      "help": 3520,
      "Ġdisplay": 3521,
      "Ġdeveloped": 3522,
      "ares": 3523,
      "Ġentire": 3524,
      "ĠEl": 3525,
      "inter": 3526,
      "Ġforms": 3527,
      "Ġwrite": 3528,
      "ĠMy": 3529,
      "200": 3530,
      "ades": 3531,
      "ĠSA": 3532,
      "Ġinnovative": 3533,
      "Ġstra": 3534,
      "ĠInt": 3535,
      "Ġadding": 3536,
      "\",": 3537,
      "Ġadminist": 3538,
      "had": 3539,
      "tic": 3540,
      "when": 3541,
      "Ġreceived": 3542,
      "Ġmonths": 3543,
      "Ġbit": 3544,
      "Ġchicken": 3545,
      "Ġproblems": 3546,
      "ĠOff": 3547,
      "Ġlaun": 3548,
      "Ġadvance": 3549,
      "ĠHar": 3550,
      "pan": 3551,
      "rick": 3552,
      "Ġlab": 3553,
      "lam": 3554,
      "Ġmental": 3555,
      "atively": 3556,
      "Ġstream": 3557,
      "ounds": 3558,
      "Ġphone": 3559,
      "Ġconflic": 3560,
      "Ġformer": 3561,
      "ception": 3562,
      "Ġequipment": 3563,
      "ocolate": 3564,
      "Ġpivotal": 3565,
      "Ġcompared": 3566,
      "Ġforward": 3567,
      "Ġimage": 3568,
      "AK": 3569,
      "Ġdraw": 3570,
      "Ġsecure": 3571,
      "Ġlocated": 3572,
      "IGHT": 3573,
      "Ġexperi": 3574,
      "ĠAg": 3575,
      "bet": 3576,
      "ĠFacebook": 3577,
      "Ġdevice": 3578,
      "Ġparty": 3579,
      "unt": 3580,
      "Ġrecommended": 3581,
      "iples": 3582,
      "ĠPresident": 3583,
      "Ġconsult": 3584,
      "ronic": 3585,
      "Ġshared": 3586,
      "Ġdeeper": 3587,
      "ĠIndian": 3588,
      "Ġindic": 3589,
      "Ġdrug": 3590,
      "ĠTechn": 3591,
      "Ġdisease": 3592,
      "oor": 3593,
      "Ġclar": 3594,
      "ran": 3595,
      "rupt": 3596,
      "Ġ16": 3597,
      "eb": 3598,
      "ask": 3599,
      "ĠPark": 3600,
      "Ġdeveloping": 3601,
      "Ġthereby": 3602,
      "Ġdry": 3603,
      "Ġcenter": 3604,
      "Ġdur": 3605,
      "Ġmis": 3606,
      "Ġleadership": 3607,
      "Ġdiv": 3608,
      "Ġtotal": 3609,
      "Ġ2018": 3610,
      "ĠRed": 3611,
      "Ġitself": 3612,
      "elines": 3613,
      "Ġlif": 3614,
      "Ġrequires": 3615,
      "Ġstri": 3616,
      "Ġrout": 3617,
      "Ġdeliver": 3618,
      "ampions": 3619,
      "through": 3620,
      "Ġexhib": 3621,
      "Ġoffice": 3622,
      "Ġdoing": 3623,
      "atur": 3624,
      "itors": 3625,
      "pril": 3626,
      "ESS": 3627,
      "hips": 3628,
      "Ġbalance": 3629,
      "Ġfra": 3630,
      "Ġblood": 3631,
      "ided": 3632,
      "Ġprofound": 3633,
      "olving": 3634,
      "ĠMoreover": 3635,
      "ĠGod": 3636,
      "Ġaccept": 3637,
      "Ġwhole": 3638,
      "Ġinteg": 3639,
      "Ġfarm": 3640,
      "Ġbur": 3641,
      "Ġdescrib": 3642,
      "orough": 3643,
      "Ġboost": 3644,
      "Ġpepper": 3645,
      "Ġannoun": 3646,
      "met": 3647,
      "Ġplays": 3648,
      "Ġsurround": 3649,
      "ĠSim": 3650,
      "Ġcontract": 3651,
      "Ġtasks": 3652,
      "Ġassistance": 3653,
      "Ġthreat": 3654,
      "Ġ17": 3655,
      "Ġbenefit": 3656,
      "amb": 3657,
      "Ġsolution": 3658,
      "Ġbaking": 3659,
      "Ġbackground": 3660,
      "Ġpoll": 3661,
      "Ġimproving": 3662,
      "Ġcompetition": 3663,
      "Ġessence": 3664,
      "Ġcomputer": 3665,
      "Ġpromoting": 3666,
      "Ġupon": 3667,
      "Ġinteresting": 3668,
      "However": 3669,
      "Ġsqu": 3670,
      "clusion": 3671,
      "Ġcases": 3672,
      "Ġtw": 3673,
      "Ġaff": 3674,
      "ĠME": 3675,
      "ĠHer": 3676,
      "Ġsatis": 3677,
      "Ġreve": 3678,
      "Ġreviews": 3679,
      "Ġupdates": 3680,
      "Ġchann": 3681,
      "Ġconnection": 3682,
      "Ġpublished": 3683,
      "Ġsurface": 3684,
      "velopment": 3685,
      "Ġinstance": 3686,
      "Ġstarted": 3687,
      "Ġpatient": 3688,
      "Ġcandid": 3689,
      "na": 3690,
      "ĠAc": 3691,
      "usive": 3692,
      "Ġsil": 3693,
      "ĠRob": 3694,
      "Ġclimate": 3695,
      "org": 3696,
      "Ġdest": 3697,
      "ĠEar": 3698,
      "oyal": 3699,
      "been": 3700,
      "aul": 3701,
      "Ġstands": 3702,
      "Ġspread": 3703,
      "Ġinterests": 3704,
      "Ġec": 3705,
      "ĠEss": 3706,
      "Ġappl": 3707,
      "ĠQu": 3708,
      "AG": 3709,
      "Ġgot": 3710,
      "would": 3711,
      "Ġactive": 3712,
      "ĠNE": 3713,
      "Ġcreation": 3714,
      "oms": 3715,
      "ĠArt": 3716,
      "Ġdepending": 3717,
      "order": 3718,
      "Ġinstead": 3719,
      "Ġremember": 3720,
      "ĠFR": 3721,
      "gment": 3722,
      "Ġsle": 3723,
      "Ġtechnologies": 3724,
      "Ġscientific": 3725,
      "Ph": 3726,
      "ait": 3727,
      "Ġoccur": 3728,
      "ĠThat": 3729,
      "Ġ0": 3730,
      "Ġappropri": 3731,
      "Ġoutside": 3732,
      "umn": 3733,
      "Ġprepar": 3734,
      "Ġcateg": 3735,
      "osure": 3736,
      "Ġagree": 3737,
      "Ġidentity": 3738,
      "Ġeconomy": 3739,
      "wide": 3740,
      "Ġever": 3741,
      "ails": 3742,
      "AB": 3743,
      "Ġ11": 3744,
      "Ġspecies": 3745,
      "Ġlaws": 3746,
      "ĠCollege": 3747,
      "ĠOnce": 3748,
      "Cl": 3749,
      "ework": 3750,
      "Ġdate": 3751,
      "Ġtakes": 3752,
      "Ġroad": 3753,
      "Ġcondition": 3754,
      "Ġgas": 3755,
      "Ġstories": 3756,
      "Ġaimed": 3757,
      "hel": 3758,
      "Ġreported": 3759,
      "Ġsays": 3760,
      "Ġcurrently": 3761,
      "ellig": 3762,
      "Ġmodels": 3763,
      "instruction": 3764,
      "Ġrelease": 3765,
      "ĠPar": 3766,
      "Ġcame": 3767,
      "ĠBUT": 3768,
      "ORE": 3769,
      "rim": 3770,
      "airs": 3771,
      "Ġcapabilities": 3772,
      "Ġconstruction": 3773,
      "Ġ100": 3774,
      "ached": 3775,
      "Ġjud": 3776,
      "rition": 3777,
      "Ġaccom": 3778,
      "Ġdamage": 3779,
      "Com": 3780,
      "Ġproperties": 3781,
      "verall": 3782,
      "Ġsyn": 3783,
      "Ġexpertise": 3784,
      "ials": 3785,
      "Ġnotable": 3786,
      "Ġimag": 3787,
      "Ġoutcomes": 3788,
      "words": 3789,
      "rol": 3790,
      "Ġindepend": 3791,
      "Ġproced": 3792,
      "Ġfabric": 3793,
      "no": 3794,
      "resp": 3795,
      "Ġbowl": 3796,
      "Ġtransfer": 3797,
      "ĠJapan": 3798,
      "osition": 3799,
      "ibly": 3800,
      "Ġpartn": 3801,
      "mar": 3802,
      "Ġprivate": 3803,
      "ille": 3804,
      "Ġtransform": 3805,
      "eter": 3806,
      "iforn": 3807,
      "Ġshap": 3808,
      "Ġincl": 3809,
      "Ġprotection": 3810,
      "Ġflex": 3811,
      "ultural": 3812,
      "cks": 3813,
      "Ġoffic": 3814,
      "Ġpict": 3815,
      "Ġpreferences": 3816,
      "Ġnumerous": 3817,
      "Ġtur": 3818,
      "Ġdead": 3819,
      "Ġretail": 3820,
      "porary": 3821,
      "ĠFrench": 3822,
      "ĠUN": 3823,
      "Ġcommer": 3824,
      "empt": 3825,
      "Ġcookies": 3826,
      "Ġdaily": 3827,
      "Ġpowerful": 3828,
      "ifications": 3829,
      "Ġtheme": 3830,
      "Ġparts": 3831,
      "Ġsustainable": 3832,
      "Ġlate": 3833,
      "ĠRec": 3834,
      "...": 3835,
      "Ġgold": 3836,
      "axim": 3837,
      "Ġyourself": 3838,
      "Ġreaders": 3839,
      "ĠCommun": 3840,
      "ĠSec": 3841,
      "Ġelectric": 3842,
      "Ġsol": 3843,
      "Ġsubs": 3844,
      "Ġsong": 3845,
      "Ġshows": 3846,
      "road": 3847,
      "Ġpsych": 3848,
      "Ġmember": 3849,
      "Ġprices": 3850,
      "board": 3851,
      "Ġmedium": 3852,
      "ĠCH": 3853,
      "ĠWill": 3854,
      "Ġserves": 3855,
      "Ġdifference": 3856,
      "--": 3857,
      "Ġvot": 3858,
      "ĠWest": 3859,
      "look": 3860,
      "ĠDespite": 3861,
      "than": 3862,
      "60": 3863,
      "ĠGerm": 3864,
      "Ġapprec": 3865,
      "Ġfostering": 3866,
      "Ġdrive": 3867,
      "action": 3868,
      "Ġinitiatives": 3869,
      "Ġfish": 3870,
      "Ġplayer": 3871,
      "antly": 3872,
      "ĠDepartment": 3873,
      "cholars": 3874,
      "overs": 3875,
      "ux": 3876,
      "Ġmiss": 3877,
      "ipped": 3878,
      "Ġquickly": 3879,
      "Ġaid": 3880,
      "Ġcredit": 3881,
      "Ġrunning": 3882,
      "Ġdiet": 3883,
      "?:": 3884,
      "Ġet": 3885,
      "Ġobtain": 3886,
      "ech": 3887,
      "ule": 3888,
      "Ġsell": 3889,
      "Ġlo": 3890,
      "ĠHouse": 3891,
      "rown": 3892,
      "Ġrespond": 3893,
      "Ġformat": 3894,
      "Ġevalu": 3895,
      "Ġinstructions": 3896,
      "ifornia": 3897,
      "useum": 3898,
      "house": 3899,
      "Ġcolors": 3900,
      "Ġresearc": 3901,
      "ĠDE": 3902,
      "ressive": 3903,
      "Ġmotiv": 3904,
      "Ġtable": 3905,
      "Ġongoing": 3906,
      "Ex": 3907,
      "Ġlonger": 3908,
      "make": 3909,
      "ĠDay": 3910,
      "Ġfat": 3911,
      "Ġreput": 3912,
      "Ġvia": 3913,
      "Ġassign": 3914,
      "Ġextensive": 3915,
      "ĠInternational": 3916,
      "Ġdou": 3917,
      "ĠDon": 3918,
      "includ": 3919,
      "ĠAnswer": 3920,
      "ĠSpec": 3921,
      "Ġtrade": 3922,
      "Ġhab": 3923,
      "ĠYour": 3924,
      "Ġ14": 3925,
      "ĠFl": 3926,
      "rastructure": 3927,
      "Ġfamilies": 3928,
      "Ġwood": 3929,
      "Ġ198": 3930,
      "person": 3931,
      "Ġexcellent": 3932,
      "Ġsimply": 3933,
      "Ġeffectiveness": 3934,
      "Ġthorough": 3935,
      "Ġfully": 3936,
      "ags": 3937,
      "ashing": 3938,
      "Ġpieces": 3939,
      "Ġban": 3940,
      "Ġchemical": 3941,
      "Ġdog": 3942,
      "ICH": 3943,
      "Ar": 3944,
      "ĠÂ": 3945,
      "Ġspeed": 3946,
      "Ġju": 3947,
      "ĠSte": 3948,
      "Ġadvice": 3949,
      "Ġguidance": 3950,
      "25": 3951,
      "Ġfocused": 3952,
      "Ġchallenge": 3953,
      "Ġbelief": 3954,
      "Ġprint": 3955,
      "iers": 3956,
      "Ġestablished": 3957,
      "ĠUK": 3958,
      "Ġprinciples": 3959,
      "raft": 3960,
      "Ġadvanced": 3961,
      "Ġmanaging": 3962,
      "Ġlimit": 3963,
      "Ġprofessionals": 3964,
      "ky": 3965,
      "cur": 3966,
      "Ġsmooth": 3967,
      "Speaking": 3968,
      "Ġsn": 3969,
      "ĠDav": 3970,
      "Ġclub": 3971,
      "lines": 3972,
      "ibrary": 3973,
      "Ġpopulation": 3974,
      "eries": 3975,
      "wood": 3976,
      "water": 3977,
      "Ġcomponents": 3978,
      "uming": 3979,
      "ĠChina": 3980,
      "Ġfunding": 3981,
      "ĠPer": 3982,
      "Ġcourt": 3983,
      "Ġsector": 3984,
      "Ġsharing": 3985,
      "Ġencourage": 3986,
      "Ġversion": 3987,
      "Ġsection": 3988,
      "Ġstatus": 3989,
      "fin": 3990,
      "Ġscreen": 3991,
      "ivery": 3992,
      "anging": 3993,
      "Ġbeautiful": 3994,
      "ĠSan": 3995,
      "Ġpeace": 3996,
      "Ġcapacity": 3997,
      "Ġready": 3998,
      "Ġfront": 3999,
      "Ġseeking": 4000,
      "Ġroles": 4001,
      "Ġprefer": 4002,
      "Ġlarger": 4003,
      "field": 4004,
      "ams": 4005,
      "ĠMus": 4006,
      "Ġserving": 4007,
      "Ġ.": 4008,
      "Ġstruct": 4009,
      "Ġcollaboration": 4010,
      "ĠEuropean": 4011,
      "pen": 4012,
      "Ġaverage": 4013,
      "Unfortunately": 4014,
      "Ġsubstant": 4015,
      "orage": 4016,
      "she": 4017,
      "asses": 4018,
      "illa": 4019,
      "Ġliterature": 4020,
      "Ġep": 4021,
      "ded": 4022,
      "ales": 4023,
      "Ġbrain": 4024,
      "working": 4025,
      "live": 4026,
      "EST": 4027,
      "people": 4028,
      "Ġarchitect": 4029,
      "Ġbrief": 4030,
      "Ġcontributions": 4031,
      "Ġmilk": 4032,
      "ĠAb": 4033,
      "Ġalternative": 4034,
      "uth": 4035,
      "ĠMY": 4036,
      "Ġinterview": 4037,
      "dom": 4038,
      "kin": 4039,
      "itoring": 4040,
      "Ġparents": 4041,
      "Ġindeed": 4042,
      "ashion": 4043,
      "Ġreading": 4044,
      "Ind": 4045,
      "ength": 4046,
      "ulated": 4047,
      "Ġpatterns": 4048,
      "Ġdespite": 4049,
      "ĠALL": 4050,
      "irth": 4051,
      "Ġsociet": 4052,
      "ĠBY": 4053,
      "Ġdat": 4054,
      "ĠEduc": 4055,
      "Ġcourses": 4056,
      "Ġeverything": 4057,
      "aks": 4058,
      "mp": 4059,
      "ibilities": 4060,
      "ĠMon": 4061,
      "OME": 4062,
      "ERE": 4063,
      "CC": 4064,
      "bre": 4065,
      "Ġfa": 4066,
      "One": 4067,
      "ĠUP": 4068,
      "Ġresponsible": 4069,
      "while": 4070,
      "Ġpages": 4071,
      "Ġflour": 4072,
      "Ġdetermine": 4073,
      "Ġrevenue": 4074,
      "ĠJan": 4075,
      "Ġexisting": 4076,
      "UL": 4077,
      "Ġbul": 4078,
      "ĠSen": 4079,
      "uman": 4080,
      "Ġfast": 4081,
      "rought": 4082,
      "lights": 4083,
      "Ġdress": 4084,
      "Ġsun": 4085,
      "Ġdriving": 4086,
      "ĠCON": 4087,
      "fee": 4088,
      "Ġrecommendations": 4089,
      "made": 4090,
      "With": 4091,
      "Ġprob": 4092,
      "Ġillustr": 4093,
      "point": 4094,
      "ĠAssoci": 4095,
      "lim": 4096,
      "inting": 4097,
      "Ġhtt": 4098,
      "ĠAB": 4099,
      "Ġbox": 4100,
      "Ġresist": 4101,
      "poon": 4102,
      "SS": 4103,
      "eks": 4104,
      "ĠTrump": 4105,
      "Ġtesting": 4106,
      "Ġconsumer": 4107,
      "Ġboard": 4108,
      "ocal": 4109,
      "ĠTV": 4110,
      "ĠApril": 4111,
      "Read": 4112,
      "Ġafford": 4113,
      "enses": 4114,
      "high": 4115,
      "Ġcivil": 4116,
      "izz": 4117,
      "Ġbelieve": 4118,
      "Ġsummer": 4119,
      "itc": 4120,
      "Ġconsequ": 4121,
      "Ġord": 4122,
      "ĠScience": 4123,
      "ford": 4124,
      "Ġnegative": 4125,
      "Ġnor": 4126,
      "Ġwriters": 4127,
      "Ġcam": 4128,
      "ĠThrough": 4129,
      "Ġfirm": 4130,
      "Ġlines": 4131,
      "Ġtim": 4132,
      "requ": 4133,
      "ulations": 4134,
      "umm": 4135,
      "Ġ2017": 4136,
      "gy": 4137,
      "Ġbillion": 4138,
      "ĠFirst": 4139,
      "Ġcode": 4140,
      "Ġpolice": 4141,
      "ellow": 4142,
      "Ġ13": 4143,
      "14": 4144,
      "rapy": 4145,
      "long": 4146,
      "Ġthus": 4147,
      "Ġhar": 4148,
      "Ġhit": 4149,
      "uk": 4150,
      "Ġrequest": 4151,
      "Ġtrue": 4152,
      "Ġpen": 4153,
      "Ġsold": 4154,
      "Ġcells": 4155,
      "Ġproduce": 4156,
      "Ġattend": 4157,
      "Ġtechnical": 4158,
      "Ġthing": 4159,
      "arks": 4160,
      "Se": 4161,
      "Ġ50": 4162,
      "Ġtrends": 4163,
      "Ġperspective": 4164,
      "istry": 4165,
      "river": 4166,
      "Ġhands": 4167,
      "ĠVal": 4168,
      "Ġrecipes": 4169,
      "Ġprec": 4170,
      "Ġwriter": 4171,
      "Ġregulations": 4172,
      "disc": 4173,
      "race": 4174,
      "Ġawareness": 4175,
      "rael": 4176,
      "organ": 4177,
      "Ġpick": 4178,
      "ĠMich": 4179,
      "Ġcommercial": 4180,
      "ution": 4181,
      "ĠLastly": 4182,
      "Ġscen": 4183,
      "Ġconsumers": 4184,
      "arant": 4185,
      "ought": 4186,
      "Ġobserv": 4187,
      "gl": 4188,
      "pret": 4189,
      "uries": 4190,
      "state": 4191,
      "ĠRem": 4192,
      "material": 4193,
      "Ġcert": 4194,
      "Ġfootball": 4195,
      "ulture": 4196,
      "lick": 4197,
      "Ġsem": 4198,
      "Ġcentral": 4199,
      "17": 4200,
      "den": 4201,
      "Ġprotein": 4202,
      "Con": 4203,
      "Ġsuitable": 4204,
      "Ġhelping": 4205,
      "Re": 4206,
      "idential": 4207,
      "ĠJust": 4208,
      "first": 4209,
      "ĠKing": 4210,
      "Ġserved": 4211,
      "Ġclin": 4212,
      "En": 4213,
      "Ġcancer": 4214,
      "onder": 4215,
      "ili": 4216,
      "Ġquite": 4217,
      "Ġisn": 4218,
      "By": 4219,
      "dule": 4220,
      "ĠâĢĺ": 4221,
      "effect": 4222,
      "ĠDo": 4223,
      "Ġapply": 4224,
      "Ġcross": 4225,
      "Ġrisks": 4226,
      "estern": 4227,
      "Ġacknow": 4228,
      "ĠPat": 4229,
      "Ġreleased": 4230,
      "Ġhous": 4231,
      "rich": 4232,
      "Ġinstrument": 4233,
      "oles": 4234,
      "Ġnovel": 4235,
      "Ġbegan": 4236,
      "Ġbeauty": 4237,
      "Des": 4238,
      "encing": 4239,
      "Ġslight": 4240,
      "Ġaward": 4241,
      "related": 4242,
      "Ġinstitutions": 4243,
      "Ġcit": 4244,
      "Ġimpacts": 4245,
      "Ġgrowing": 4246,
      "ĠDO": 4247,
      "Ġweather": 4248,
      "Ġsty": 4249,
      "ĠHAVE": 4250,
      "Ġenab": 4251,
      "hest": 4252,
      "Ġseem": 4253,
      "Ġleads": 4254,
      "hent": 4255,
      "Ġshape": 4256,
      "Ġ25": 4257,
      "Ġlandscape": 4258,
      "Ġclient": 4259,
      "ĠCook": 4260,
      "Ġcore": 4261,
      "ĠTHEY": 4262,
      "Ġcorrect": 4263,
      "ĠDem": 4264,
      "osy": 4265,
      "Ġmaxim": 4266,
      "aud": 4267,
      "Ġmicro": 4268,
      "Ġaccessible": 4269,
      "Ġfederal": 4270,
      "uary": 4271,
      "Ġhelped": 4272,
      "Ġunc": 4273,
      "Ġappropriate": 4274,
      "iling": 4275,
      "error": 4276,
      "Ġbrands": 4277,
      "Ġads": 4278,
      "ĠNet": 4279,
      "Ġuseful": 4280,
      "Ġgenerally": 4281,
      "Ġcharacters": 4282,
      "Ġslow": 4283,
      "ĠCalifornia": 4284,
      "Ġcompetitive": 4285,
      "anch": 4286,
      "ĠPol": 4287,
      "ael": 4288,
      "Ġoven": 4289,
      "Ġshift": 4290,
      "Ġbread": 4291,
      "ha": 4292,
      "ado": 4293,
      "Ġfinding": 4294,
      "Ġgreater": 4295,
      "ternal": 4296,
      "isms": 4297,
      "ĠOur": 4298,
      "Ġopin": 4299,
      "Ġimplications": 4300,
      "Ġrace": 4301,
      "Ġenter": 4302,
      "ĠOR": 4303,
      "Âł": 4304,
      "rad": 4305,
      "Ġbuilt": 4306,
      "lead": 4307,
      "ĠAut": 4308,
      "Ġguidelines": 4309,
      "16": 4310,
      "inent": 4311,
      "ĠEX": 4312,
      "ĠTHIS": 4313,
      "Ġbasic": 4314,
      "Ġroll": 4315,
      "eneral": 4316,
      "So": 4317,
      "such": 4318,
      "uous": 4319,
      "arian": 4320,
      "Ġmeeting": 4321,
      "char": 4322,
      "Ġideal": 4323,
      "Ġplaying": 4324,
      "Ġchallenging": 4325,
      "friendly": 4326,
      "bec": 4327,
      "alt": 4328,
      "Ġmanufacturer": 4329,
      "Transitioning": 4330,
      "door": 4331,
      "Ġemotions": 4332,
      "ĠBo": 4333,
      "Ġrestaur": 4334,
      "ĠTrans": 4335,
      "22": 4336,
      "Ġparticipants": 4337,
      "ARD": 4338,
      "MS": 4339,
      "Ġstarting": 4340,
      "IP": 4341,
      "Ġstop": 4342,
      "amin": 4343,
      "actions": 4344,
      "umin": 4345,
      "search": 4346,
      "Ġagency": 4347,
      "Ġcris": 4348,
      "Ġsitu": 4349,
      "ald": 4350,
      "list": 4351,
      "asting": 4352,
      "Ġdedicated": 4353,
      "Ġwall": 4354,
      "offee": 4355,
      "Ġchocolate": 4356,
      "rab": 4357,
      "det": 4358,
      "ament": 4359,
      "Ġincome": 4360,
      "inger": 4361,
      "Ġinsight": 4362,
      "Ġinfrastructure": 4363,
      "40": 4364,
      "ĠMarch": 4365,
      "ĠRuss": 4366,
      "Ġaims": 4367,
      "Ġwild": 4368,
      "sm": 4369,
      "Ġprem": 4370,
      "olved": 4371,
      "13": 4372,
      "Ġstar": 4373,
      "Ġclick": 4374,
      "need": 4375,
      "Ġdidn": 4376,
      "ATION": 4377,
      "uilding": 4378,
      "Ġdifferences": 4379,
      "Ġpreviously": 4380,
      "Ġquarter": 4381,
      "Ġtexture": 4382,
      "Ġleaders": 4383,
      "unch": 4384,
      "Ġdepth": 4385,
      "uge": 4386,
      "Ġsettings": 4387,
      "Ġvegetables": 4388,
      "Ġtailored": 4389,
      "Ġplants": 4390,
      "world": 4391,
      "Ġpersonalized": 4392,
      "equ": 4393,
      "ĠWERE": 4394,
      "ĠGroup": 4395,
      "Ġ197": 4396,
      "Ġsav": 4397,
      "witter": 4398,
      "Ġtitle": 4399,
      "Ġpartnership": 4400,
      "hand": 4401,
      "Ġwent": 4402,
      "soft": 4403,
      "Ġamb": 4404,
      "bur": 4405,
      "ros": 4406,
      "Ġhor": 4407,
      "rying": 4408,
      "Ġinsurance": 4409,
      "istory": 4410,
      "cap": 4411,
      "ĠWHE": 4412,
      "Ġfocusing": 4413,
      "While": 4414,
      "Ġnutrition": 4415,
      "Ġadvantage": 4416,
      "Ġsolid": 4417,
      "iter": 4418,
      "Ġfair": 4419,
      "ĠGree": 4420,
      "Ġunivers": 4421,
      "ront": 4422,
      "Ġmachine": 4423,
      "ago": 4424,
      "Ġ2016": 4425,
      "Ġdelivery": 4426,
      "ĠBlack": 4427,
      "Ġmission": 4428,
      "Ġlost": 4429,
      "Ġselection": 4430,
      "Ġeveryone": 4431,
      "ĠSw": 4432,
      "Ġtask": 4433,
      "olf": 4434,
      "Ġdig": 4435,
      "ifies": 4436,
      "Be": 4437,
      "Ġtrying": 4438,
      "Ġstage": 4439,
      "Ġflu": 4440,
      "Ġblock": 4441,
      "Ġactually": 4442,
      "Ġter": 4443,
      "tenance": 4444,
      "Ġcorpor": 4445,
      "writing": 4446,
      "Ġbatter": 4447,
      "Ġreligious": 4448,
      "Pl": 4449,
      "ancy": 4450,
      "ĠCO": 4451,
      "then": 4452,
      "Ġresearchers": 4453,
      "opping": 4454,
      "Ġteaching": 4455,
      "Ġresource": 4456,
      "Ġprecise": 4457,
      "Ġcontem": 4458,
      "ĠBritish": 4459,
      "Ġcul": 4460,
      "Ġmid": 4461,
      "www": 4462,
      "Ġlabor": 4463,
      "ĠAir": 4464,
      "ĠJu": 4465,
      "Ġexploration": 4466,
      "ollowing": 4467,
      "Ġwine": 4468,
      "Ġfight": 4469,
      "ida": 4470,
      "They": 4471,
      "Ġstock": 4472,
      "ĠCre": 4473,
      "Ġpowder": 4474,
      "level": 4475,
      "car": 4476,
      "Ġbecomes": 4477,
      "othing": 4478,
      "atin": 4479,
      "ĠAL": 4480,
      "ym": 4481,
      "Ġdepend": 4482,
      "Ġice": 4483,
      "Ġleave": 4484,
      "ĠFROM": 4485,
      "All": 4486,
      "Ġinnovation": 4487,
      "cient": 4488,
      "Ġsched": 4489,
      "ĠSEO": 4490,
      "Ġquant": 4491,
      "Ġsmart": 4492,
      "Ġcontributing": 4493,
      "after": 4494,
      "ondon": 4495,
      "Ġcarbon": 4496,
      "Ġinqu": 4497,
      "bum": 4498,
      "zz": 4499,
      "ĠWHICH": 4500,
      "elligence": 4501,
      "Ġdownload": 4502,
      "Ġpapers": 4503,
      "Ġeasier": 4504,
      "Ġeye": 4505,
      "Ġtransl": 4506,
      "business": 4507,
      "two": 4508,
      "Ġ2019": 4509,
      "Ġspect": 4510,
      "Ġgather": 4511,
      "Ġmother": 4512,
      "Ġnamed": 4513,
      "exper": 4514,
      "son": 4515,
      "Ġanswer": 4516,
      "Ġseems": 4517,
      "Ġsubmit": 4518,
      "Ġvoice": 4519,
      "Ġprimarily": 4520,
      "Ġanimals": 4521,
      "ober": 4522,
      "Ġsupply": 4523,
      "mosp": 4524,
      "tee": 4525,
      "Ġcopy": 4526,
      "iration": 4527,
      "Americ": 4528,
      "Ġfaced": 4529,
      "ctor": 4530,
      "ĠIts": 4531,
      "Ġsupporting": 4532,
      "UN": 4533,
      "Ġmemory": 4534,
      "Ġvirt": 4535,
      "Ġconce": 4536,
      "Ġuniversity": 4537,
      "mas": 4538,
      "ĠNO": 4539,
      "Ġworked": 4540,
      "Ġpricing": 4541,
      "Ġmag": 4542,
      "Ġmass": 4543,
      "ĠPal": 4544,
      "inst": 4545,
      "Ġmagn": 4546,
      "Ġdark": 4547,
      "Ġurban": 4548,
      "Ġattack": 4549,
      "RA": 4550,
      "dem": 4551,
      "Ġpet": 4552,
      "Ġgiving": 4553,
      "Ġcraft": 4554,
      "Ġcalc": 4555,
      "Ġregions": 4556,
      "ographic": 4557,
      "21": 4558,
      "ourse": 4559,
      "Ġobjectives": 4560,
      "Ġsuff": 4561,
      "Ġvit": 4562,
      "ĠLeague": 4563,
      "raw": 4564,
      "'d": 4565,
      "Ġmeat": 4566,
      "Ġmentions": 4567,
      "Ġ24": 4568,
      "Turning": 4569,
      "ula": 4570,
      "Ġsimpl": 4571,
      "Ġgarlic": 4572,
      "Ġthinking": 4573,
      "acing": 4574,
      "Ġupcoming": 4575,
      "IV": 4576,
      "No": 4577,
      "Ġethical": 4578,
      "estival": 4579,
      "Ġreliable": 4580,
      "vere": 4581,
      "ĠOct": 4582,
      "Ġcontrast": 4583,
      "Ġdelicious": 4584,
      "Ġmel": 4585,
      "iday": 4586,
      "fficient": 4587,
      "Ġglass": 4588,
      "ANT": 4589,
      "rial": 4590,
      "cal": 4591,
      "lands": 4592,
      "ipping": 4593,
      "rum": 4594,
      "Ġhosp": 4595,
      "Ġvehicle": 4596,
      "Ġfindings": 4597,
      "Ġstorage": 4598,
      "Ġprocessing": 4599,
      "Ġfine": 4600,
      "Ġfields": 4601,
      "known": 4602,
      "ĠII": 4603,
      "New": 4604,
      "ĠRepublic": 4605,
      "onic": 4606,
      "Ġrice": 4607,
      "ĠManagement": 4608,
      "pot": 4609,
      "Ġconcent": 4610,
      "Ġencomp": 4611,
      "inese": 4612,
      "Ġstir": 4613,
      "Ġchance": 4614,
      "Ġbond": 4615,
      "Ġdecre": 4616,
      "ĠONE": 4617,
      "Ġforce": 4618,
      "ouncil": 4619,
      "Ġvideos": 4620,
      "Ġanimal": 4621,
      "Ġfunctions": 4622,
      "Ġtechnique": 4623,
      "Ġple": 4624,
      "sub": 4625,
      "ĠMet": 4626,
      "ashington": 4627,
      "Ġphil": 4628,
      "Ġworksh": 4629,
      "ĠAR": 4630,
      "rics": 4631,
      "ĠSocial": 4632,
      "Ġannual": 4633,
      "Ġreasons": 4634,
      "ensions": 4635,
      "Ġspiritual": 4636,
      "may": 4637,
      "zing": 4638,
      "only": 4639,
      "Ġimproved": 4640,
      "unte": 4641,
      "ourt": 4642,
      "stems": 4643,
      "Ġextends": 4644,
      "edom": 4645,
      "Ġfruit": 4646,
      "Ġsounds": 4647,
      "ART": 4648,
      "ports": 4649,
      "Ġfeelings": 4650,
      "Ġdegree": 4651,
      "ingu": 4652,
      "Ġsometimes": 4653,
      "Ġversat": 4654,
      "ira": 4655,
      "market": 4656,
      "Ġbank": 4657,
      "Bl": 4658,
      "Ġsaw": 4659,
      "Ġexpans": 4660,
      "Ġsaying": 4661,
      "ĠNow": 4662,
      "Ġfashion": 4663,
      "estic": 4664,
      "Ġtargeted": 4665,
      "Ġonto": 4666,
      "ĠAP": 4667,
      "Ġnoting": 4668,
      "Ġadvis": 4669,
      "Ġproposed": 4670,
      "esion": 4671,
      "ĠDis": 4672,
      "ĠNe": 4673,
      "Ġtables": 4674,
      "Ġmit": 4675,
      "iced": 4676,
      "odies": 4677,
      "ĠChar": 4678,
      "Ġworkers": 4679,
      "Ġbott": 4680,
      "Ġmo": 4681,
      "ĠEast": 4682,
      "these": 4683,
      "Ġalmost": 4684,
      "Ġvari": 4685,
      "aphrase": 4686,
      "Ġpresented": 4687,
      "aint": 4688,
      "âĢ¦": 4689,
      "Ġultimately": 4690,
      "Ġwaste": 4691,
      "ube": 4692,
      "ugust": 4693,
      "icine": 4694,
      "Ġmonitoring": 4695,
      "Ġran": 4696,
      "commun": 4697,
      "ĠOb": 4698,
      "Ġexperienced": 4699,
      "rees": 4700,
      "Ġrules": 4701,
      "marketing": 4702,
      "rep": 4703,
      "Ġartists": 4704,
      "dis": 4705,
      "Question": 4706,
      "Ġcraf": 4707,
      "PS": 4708,
      "Ġrein": 4709,
      "according": 4710,
      "ovember": 4711,
      "Ġinside": 4712,
      "acking": 4713,
      "Ġblend": 4714,
      "Ġexercise": 4715,
      "omin": 4716,
      "vironments": 4717,
      "Ġaccurate": 4718,
      "itchen": 4719,
      "Ġbill": 4720,
      "aby": 4721,
      "IE": 4722,
      "Ġwat": 4723,
      "agram": 4724,
      "Ġhighlights": 4725,
      "Ġdiversity": 4726,
      "Ġdistribution": 4727,
      "Ġnation": 4728,
      "Ġcoming": 4729,
      "Ġleaves": 4730,
      "Ġreson": 4731,
      "ĠAng": 4732,
      "que": 4733,
      "find": 4734,
      "Ġbrown": 4735,
      "ĠIsrael": 4736,
      "Ġprompt": 4737,
      "Ġconversation": 4738,
      "ocks": 4739,
      "ĠNor": 4740,
      "Ġargument": 4741,
      "imp": 4742,
      "Ġspot": 4743,
      "Ġagric": 4744,
      "Ġtold": 4745,
      "Ġlargest": 4746,
      "Ġcombination": 4747,
      "Ġmoving": 4748,
      "Ġlinks": 4749,
      "Ġpresident": 4750,
      "verse": 4751,
      "dep": 4752,
      "Ġreader": 4753,
      "Ġanti": 4754,
      "night": 4755,
      "ico": 4756,
      "ĠMany": 4757,
      "Ġremove": 4758,
      "given": 4759,
      "Ġdatab": 4760,
      "Ġsites": 4761,
      "Instruction": 4762,
      "Ġhelpful": 4763,
      "ser": 4764,
      "ativity": 4765,
      "rong": 4766,
      "Ġauthent": 4767,
      "Ġguarant": 4768,
      "ĠEducation": 4769,
      "Ġhair": 4770,
      "Ġdiss": 4771,
      "Ġten": 4772,
      "cel": 4773,
      "irection": 4774,
      "iny": 4775,
      "Ġlegis": 4776,
      "ari": 4777,
      "Ġregist": 4778,
      "Ġsleep": 4779,
      "Ġserious": 4780,
      "want": 4781,
      "Ġthoughts": 4782,
      "ara": 4783,
      "Ġaffected": 4784,
      "Ġappeal": 4785,
      "Ġvisitors": 4786,
      "Ġexploring": 4787,
      "Ġplaces": 4788,
      "ĠUnder": 4789,
      "Ġweeks": 4790,
      "Ġsurv": 4791,
      "iors": 4792,
      "ĠEarth": 4793,
      "Ġproduced": 4794,
      "Ġcritic": 4795,
      "Ġround": 4796,
      "cling": 4797,
      "overnment": 4798,
      "Ġhappy": 4799,
      "amily": 4800,
      "Ġ2015": 4801,
      "Ġmarkets": 4802,
      "Ġrobust": 4803,
      "Ġlength": 4804,
      "Ġsubstantial": 4805,
      "win": 4806,
      "Ġextreme": 4807,
      "Ġconven": 4808,
      "Ġscholars": 4809,
      "Ġwidely": 4810,
      "CA": 4811,
      "THE": 4812,
      "Ġsen": 4813,
      "IST": 4814,
      "ptember": 4815,
      "cember": 4816,
      "Ġseek": 4817,
      "Ġdocuments": 4818,
      "Ġatmosp": 4819,
      "Ġjournal": 4820,
      "Ġschedule": 4821,
      "Ġdesired": 4822,
      "Ġfavorite": 4823,
      "Ġpotat": 4824,
      "ERS": 4825,
      "product": 4826,
      "Ġforeign": 4827,
      "Ġchannels": 4828,
      "Ġcounter": 4829,
      "ĠAM": 4830,
      "Ġslightly": 4831,
      "nings": 4832,
      "Ġcold": 4833,
      "olute": 4834,
      "Ġcoc": 4835,
      "Ġbrought": 4836,
      "ĠCor": 4837,
      "Ġhighlighting": 4838,
      "ĠAfrican": 4839,
      "arden": 4840,
      "net": 4841,
      "Ġconclusion": 4842,
      "ville": 4843,
      "Ġinteractions": 4844,
      "Ġarticles": 4845,
      "Â°": 4846,
      "Who": 4847,
      "Ġinitiative": 4848,
      "Ġsym": 4849,
      "lin": 4850,
      "Ġcompar": 4851,
      "Ġapprox": 4852,
      "Ġinvestigation": 4853,
      "Ġneigh": 4854,
      "Ġsmaller": 4855,
      "adv": 4856,
      "ferent": 4857,
      "Ġconsistent": 4858,
      "Ġinformed": 4859,
      "Ġenvironments": 4860,
      "oke": 4861,
      "Ġrepl": 4862,
      "Ġenhances": 4863,
      "Ġprivacy": 4864,
      "ĠInstitute": 4865,
      "Ġelse": 4866,
      "thetic": 4867,
      "essions": 4868,
      "Ġreaching": 4869,
      "Ġfunds": 4870,
      "Ġmovie": 4871,
      "IG": 4872,
      "Ġrock": 4873,
      "igr": 4874,
      "ĠAssociation": 4875,
      "ĠPR": 4876,
      "Ġexperts": 4877,
      "At": 4878,
      "Ġindustries": 4879,
      "Ġliqu": 4880,
      "Ġkids": 4881,
      "OP": 4882,
      "could": 4883,
      "ka": 4884,
      "ĠFE": 4885,
      "Ġallowed": 4886,
      "ĠChristian": 4887,
      "Ġblue": 4888,
      "OUS": 4889,
      "ica": 4890,
      "ĠBusiness": 4891,
      "ĠLet": 4892,
      "Ġcaused": 4893,
      "Ġsocietal": 4894,
      "Ġshoot": 4895,
      "ĠProgram": 4896,
      "ĠCanada": 4897,
      "Ġcommonly": 4898,
      "Ġsurrounding": 4899,
      "Passage": 4900,
      "lar": 4901,
      "Ġdecor": 4902,
      "Ġpriorit": 4903,
      "specific": 4904,
      "trans": 4905,
      "ĠMAN": 4906,
      "Ġalongside": 4907,
      "Ġenabling": 4908,
      "Ġcontinues": 4909,
      "ĠAv": 4910,
      "ĠMake": 4911,
      "Ġattempt": 4912,
      "ĠMod": 4913,
      "aught": 4914,
      "Ġmaintenance": 4915,
      "Ġconflict": 4916,
      "Ġmeal": 4917,
      "Ġtransportation": 4918,
      "Ġintegration": 4919,
      "many": 4920,
      "Ġlever": 4921,
      "mond": 4922,
      "band": 4923,
      "OUR": 4924,
      "ildren": 4925,
      "Ġexcept": 4926,
      "AST": 4927,
      "men": 4928,
      "Ġwal": 4929,
      "Ġrecently": 4930,
      "Ġconstruct": 4931,
      "Ġhttps": 4932,
      "Ġ[": 4933,
      "Ġsend": 4934,
      "Ġsoil": 4935,
      "iox": 4936,
      "Ġsoon": 4937,
      "Ġdepartment": 4938,
      "Ġarray": 4939,
      "Ġresil": 4940,
      "ault": 4941,
      "Ġinvolvement": 4942,
      "Ġbecoming": 4943,
      "Ġfoster": 4944,
      "Ġmanufacturing": 4945,
      "ĠAfrica": 4946,
      "ĠAustralia": 4947,
      "orge": 4948,
      "asy": 4949,
      "Ġorganic": 4950,
      "Ġcultures": 4951,
      "Ġhighest": 4952,
      "Ġcoverage": 4953,
      "Ġattribut": 4954,
      "oundation": 4955,
      "Ġsave": 4956,
      "Ġdetect": 4957,
      "Ġtomat": 4958,
      "omb": 4959,
      "Ġvisibility": 4960,
      "Ġconsidering": 4961,
      "Ġrecognition": 4962,
      "thlet": 4963,
      "Ġflavors": 4964,
      "Ġprepare": 4965,
      "UST": 4966,
      "Ġtalk": 4967,
      "Ġelev": 4968,
      "Ġdeeply": 4969,
      "Ġrecords": 4970,
      "umber": 4971,
      "Ġclasses": 4972,
      "low": 4973,
      "Ġscore": 4974,
      "ĠSAID": 4975,
      "ĠCong": 4976,
      "Ġdough": 4977,
      "Ġoperating": 4978,
      ".âĢĿ": 4979,
      "Ġir": 4980,
      "ĠJune": 4981,
      "TO": 4982,
      "should": 4983,
      "Ġregard": 4984,
      "Ġsuggestions": 4985,
      "ĠTwitter": 4986,
      "ken": 4987,
      "Ġbreat": 4988,
      "Ġofficials": 4989,
      "Ġpredict": 4990,
      "ishes": 4991,
      "prise": 4992,
      "dro": 4993,
      "ĠInter": 4994,
      "ormal": 4995,
      "ĠLondon": 4996,
      "ĠWHO": 4997,
      "onut": 4998,
      "Ġcloud": 4999,
      "Ġtransp": 5000,
      "craft": 5001,
      "Ġcharacteristics": 5002,
      "ups": 5003,
      "exas": 5004,
      "Ġsupports": 5005,
      "agraph": 5006,
      "sur": 5007,
      "Ġholid": 5008,
      "osen": 5009,
      "ĠWilliam": 5010,
      "school": 5011,
      "aled": 5012,
      "Ġgoods": 5013,
      "My": 5014,
      "ĠEN": 5015,
      "Ġinfluenced": 5016,
      "orthy": 5017,
      "23": 5018,
      "Ġliterary": 5019,
      "def": 5020,
      "AME": 5021,
      "Ġalbum": 5022,
      "Ġentertain": 5023,
      "good": 5024,
      "ini": 5025,
      "Ġconfirm": 5026,
      "Ġdishes": 5027,
      "Ġlayer": 5028,
      "Ġanyone": 5029,
      "azon": 5030,
      "ifferent": 5031,
      "Ġinterpret": 5032,
      "Ġfollowed": 5033,
      "ĠMicro": 5034,
      "Ġincident": 5035,
      "Ġintric": 5036,
      "Ġrecognized": 5037,
      "UM": 5038,
      "Ġexperiment": 5039,
      "Ġimprovement": 5040,
      "press": 5041,
      "active": 5042,
      "bit": 5043,
      "eworthy": 5044,
      "Ġgirl": 5045,
      "Ġhear": 5046,
      "ĠDirect": 5047,
      "Ġheavy": 5048,
      "orrow": 5049,
      "phone": 5050,
      "antic": 5051,
      "Ġmessages": 5052,
      "inf": 5053,
      "After": 5054,
      "Ġgrant": 5055,
      "Ġteachers": 5056,
      "ĠMr": 5057,
      "Ġfeeling": 5058,
      "Ġprepared": 5059,
      "nel": 5060,
      "Ġresponsibility": 5061,
      "Ġchopped": 5062,
      "Ġtruly": 5063,
      "ĠChinese": 5064,
      "levision": 5065,
      "inal": 5066,
      "Ġpaid": 5067,
      "alian": 5068,
      "ĠAD": 5069,
      "ander": 5070,
      "Ġexchange": 5071,
      "ĠGreen": 5072,
      "Ġfocuses": 5073,
      "Ġstructures": 5074,
      "Ġnavigate": 5075,
      "Ġden": 5076,
      "Lastly": 5077,
      "Ġox": 5078,
      "faction": 5079,
      "ĠLE": 5080,
      "ulum": 5081,
      "ATE": 5082,
      "à¤": 5083,
      "Ġsurvey": 5084,
      "Ġconducted": 5085,
      "Ġthr": 5086,
      "Ġexpectations": 5087,
      "ruption": 5088,
      "date": 5089,
      "run": 5090,
      "ĠOffice": 5091,
      "ny": 5092,
      "bel": 5093,
      "esides": 5094,
      "Ġdesigns": 5095,
      "pat": 5096,
      "icity": 5097,
      "Ġjuice": 5098,
      "ĠTHERE": 5099,
      "rical": 5100,
      "Ġtact": 5101,
      "Ġrenew": 5102,
      "ĠRO": 5103,
      "Ġforces": 5104,
      "fol": 5105,
      "Ġwealth": 5106,
      "OL": 5107,
      "hab": 5108,
      "ĠDel": 5109,
      "Ġkn": 5110,
      "Col": 5111,
      "ĠDist": 5112,
      "OUT": 5113,
      "Ġparties": 5114,
      "KE": 5115,
      "ĠEach": 5116,
      "iant": 5117,
      "IND": 5118,
      "Ġskill": 5119,
      "ooper": 5120,
      "izens": 5121,
      "Ġsea": 5122,
      "Ġago": 5123,
      "Ġinternal": 5124,
      "zer": 5125,
      "Ġload": 5126,
      "Ġlik": 5127,
      "Ġrise": 5128,
      "Ġstraight": 5129,
      "olit": 5130,
      "Ġnames": 5131,
      "Ġcry": 5132,
      "Ġtown": 5133,
      "yn": 5134,
      "Ġhomes": 5135,
      "Ġdynamic": 5136,
      "ae": 5137,
      "cean": 5138,
      "plan": 5139,
      "Ġreporting": 5140,
      "Ġvision": 5141,
      "Ġhandle": 5142,
      "ĠWashington": 5143,
      "haps": 5144,
      "answer": 5145,
      "every": 5146,
      "conomic": 5147,
      "Ġadvantages": 5148,
      "Ġecosy": 5149,
      "Ġcities": 5150,
      "ittle": 5151,
      "Ġbirth": 5152,
      "Ġreplace": 5153,
      "ĠProf": 5154,
      "eline": 5155,
      "80": 5156,
      "Sc": 5157,
      "fast": 5158,
      "Ġwoman": 5159,
      "Ġfacilities": 5160,
      "Ġloyal": 5161,
      "icit": 5162,
      "Ġsand": 5163,
      "Ġapplied": 5164,
      "Ġwatch": 5165,
      "Ġconvey": 5166,
      "Ġrap": 5167,
      "Ġviews": 5168,
      "Ġunderscores": 5169,
      "ruary": 5170,
      "techn": 5171,
      "Ġkeeping": 5172,
      "real": 5173,
      "Ġreality": 5174,
      "oves": 5175,
      "Ġreduced": 5176,
      "Ġclassic": 5177,
      "between": 5178,
      "NA": 5179,
      "Ġgram": 5180,
      "ĠFeb": 5181,
      "ulty": 5182,
      "Ġproperly": 5183,
      "icks": 5184,
      "ordin": 5185,
      "icul": 5186,
      "Ġnetworks": 5187,
      "iability": 5188,
      "Ġcovered": 5189,
      "Ġbra": 5190,
      "ĠGra": 5191,
      "Ġindustrial": 5192,
      "Ġcontroll": 5193,
      "Ġcoffee": 5194,
      "Ġextract": 5195,
      "take": 5196,
      "Ġdirector": 5197,
      "Ġpair": 5198,
      "Ġ196": 5199,
      "Ġviolence": 5200,
      "Ġfix": 5201,
      "ĠEssay": 5202,
      "Ġmere": 5203,
      "agiar": 5204,
      "Ġ40": 5205,
      "Ġconsequences": 5206,
      "even": 5207,
      "uy": 5208,
      "ĠAF": 5209,
      "Ġarg": 5210,
      "years": 5211,
      "sk": 5212,
      "Ġ/": 5213,
      "Ġnoteworthy": 5214,
      "rence": 5215,
      "Ġgoes": 5216,
      "hi": 5217,
      "Ġdial": 5218,
      "ĠSou": 5219,
      "custom": 5220,
      "Ġdang": 5221,
      "Ġlic": 5222,
      "Ġsuccessfully": 5223,
      "Ġestate": 5224,
      "ester": 5225,
      "Ġgraph": 5226,
      "Ġasked": 5227,
      "Our": 5228,
      "Ġolive": 5229,
      "ĠCouncil": 5230,
      "outs": 5231,
      "asted": 5232,
      "Ġspeaker": 5233,
      "Ġincorporating": 5234,
      "allow": 5235,
      "Ġresidents": 5236,
      "Ġcontinued": 5237,
      "Ġmitig": 5238,
      "Ġprop": 5239,
      "Ġengineering": 5240,
      "Ġintroduced": 5241,
      "hus": 5242,
      "health": 5243,
      "poses": 5244,
      "Ġelection": 5245,
      "unction": 5246,
      "Ġearth": 5247,
      "Ġson": 5248,
      "ĠAugust": 5249,
      "Ġanalytics": 5250,
      "ĠOctober": 5251,
      "ONG": 5252,
      "Ġexposure": 5253,
      "ulner": 5254,
      "onday": 5255,
      "iately": 5256,
      "forcement": 5257,
      "amental": 5258,
      "Ġestim": 5259,
      "ĠFriday": 5260,
      "ocratic": 5261,
      "Ġstores": 5262,
      "Ġende": 5263,
      "Ġavailability": 5264,
      "ountain": 5265,
      "Ġpayment": 5266,
      "design": 5267,
      "Ġleader": 5268,
      "Ġchanging": 5269,
      "ĠNovember": 5270,
      "Ġconnections": 5271,
      "Ġder": 5272,
      "Ġdream": 5273,
      "perform": 5274,
      "Ġdiscover": 5275,
      "Ġfuel": 5276,
      "Ġbad": 5277,
      "Ġband": 5278,
      "Ġalthough": 5279,
      "Ġlocations": 5280,
      "ommod": 5281,
      "ĠJuly": 5282,
      "itness": 5283,
      "anges": 5284,
      "examples": 5285,
      "iture": 5286,
      "Ġ2014": 5287,
      "istan": 5288,
      "Ġcreativity": 5289,
      "Ġgives": 5290,
      "umni": 5291,
      "page": 5292,
      "aked": 5293,
      "lets": 5294,
      "Ġprofile": 5295,
      "Ġparam": 5296,
      "Ġwel": 5297,
      "ĠOpen": 5298,
      "Ġaddressing": 5299,
      "ĠBel": 5300,
      "ĠApple": 5301,
      "Ġconference": 5302,
      "riculum": 5303,
      "best": 5304,
      "ket": 5305,
      "resents": 5306,
      "Ġoutdoor": 5307,
      "Ġintended": 5308,
      "icy": 5309,
      "ĠLa": 5310,
      "Ġdefense": 5311,
      "Ġnumbers": 5312,
      "Ġreputation": 5313,
      "Im": 5314,
      "law": 5315,
      "vious": 5316,
      "asion": 5317,
      "Ġframework": 5318,
      "ociety": 5319,
      "Ġanything": 5320,
      "Ġinteractive": 5321,
      "coh": 5322,
      "Ġparticipate": 5323,
      "ĠSuper": 5324,
      "Ġdescribed": 5325,
      "Ġetc": 5326,
      "Ġthesis": 5327,
      "Ġfather": 5328,
      "Ġaccompl": 5329,
      "Ġapproximately": 5330,
      "Resuming": 5331,
      "Ġstyles": 5332,
      "Ġwalk": 5333,
      "provide": 5334,
      "Ġphilos": 5335,
      "Ġenables": 5336,
      "Ġsevere": 5337,
      "Ġkeywords": 5338,
      "olec": 5339,
      "Ġvehicles": 5340,
      "pes": 5341,
      "Ġsport": 5342,
      "dent": 5343,
      "Ġremark": 5344,
      "Ġparaphrase": 5345,
      "Ġcriteria": 5346,
      "ĠLaw": 5347,
      "Ġanticip": 5348,
      "OOD": 5349,
      "ĠServices": 5350,
      "Ġfans": 5351,
      "Ġbound": 5352,
      "Ġrepe": 5353,
      "ĠThen": 5354,
      "ĠJanuary": 5355,
      "Ġpun": 5356,
      "ĠMary": 5357,
      "ĠPlan": 5358,
      "ognitive": 5359,
      "call": 5360,
      "anish": 5361,
      "Ġfile": 5362,
      "odes": 5363,
      "Ġagencies": 5364,
      "BA": 5365,
      "ĠDecember": 5366,
      "SEL": 5367,
      "ĠTherefore": 5368,
      "Ġtracking": 5369,
      "ĠWhite": 5370,
      "ĠDavid": 5371,
      "atically": 5372,
      "Ġproceed": 5373,
      "ivate": 5374,
      "ĠTHEIR": 5375,
      "Ġschedul": 5376,
      "ij": 5377,
      "wise": 5378,
      "ona": 5379,
      "expect": 5380,
      "lorida": 5381,
      "Ġmer": 5382,
      "ifts": 5383,
      "ĠTHEM": 5384,
      "Ġfinish": 5385,
      "Ġsets": 5386,
      "aughter": 5387,
      "ĠBro": 5388,
      "Ġjustice": 5389,
      "Ġconsumption": 5390,
      "Ġspending": 5391,
      "Ġinteraction": 5392,
      "Ġfaith": 5393,
      "Ġsituations": 5394,
      "don": 5395,
      "She": 5396,
      "report": 5397,
      "Ġcomment": 5398,
      "mark": 5399,
      "Ġdirection": 5400,
      "Ġelement": 5401,
      "suit": 5402,
      "Ġla": 5403,
      "ĠSuch": 5404,
      "Ġexpression": 5405,
      "Ġgeneration": 5406,
      "Ġfigures": 5407,
      "lies": 5408,
      "ĠFrom": 5409,
      "ria": 5410,
      "Ġslic": 5411,
      "igration": 5412,
      "Ġapproaches": 5413,
      "Ġfurn": 5414,
      "Ġspecifics": 5415,
      "100": 5416,
      "Ã³": 5417,
      "semb": 5418,
      "Ġsequ": 5419,
      "Ġcontains": 5420,
      "Ġexpansion": 5421,
      "aturing": 5422,
      "athy": 5423,
      "holders": 5424,
      "ogue": 5425,
      "Ġ2013": 5426,
      "Ġannounced": 5427,
      "does": 5428,
      "Ġfoods": 5429,
      "ĠCOM": 5430,
      "ptions": 5431,
      "clud": 5432,
      "gor": 5433,
      "ipp": 5434,
      "Ġshown": 5435,
      "Ġaccommod": 5436,
      "Ġtransition": 5437,
      "Ġcompletely": 5438,
      "Ġdiseases": 5439,
      "Ġcompleted": 5440,
      "Ġclosely": 5441,
      "Ġwear": 5442,
      "Ġreform": 5443,
      "Ġseam": 5444,
      "ĠSP": 5445,
      "Ġfriend": 5446,
      "edding": 5447,
      "enture": 5448,
      "ĠDevelopment": 5449,
      "Ġbus": 5450,
      "ceived": 5451,
      "Ġahead": 5452,
      "Ġfem": 5453,
      "ĠTur": 5454,
      "ulating": 5455,
      "Ġexcl": 5456,
      "class": 5457,
      "Ġconcepts": 5458,
      "Ġemphasizes": 5459,
      "ĠSeptember": 5460,
      "Ġgrand": 5461,
      "count": 5462,
      "ĠLear": 5463,
      "Ġinvolving": 5464,
      "Ġvolunte": 5465,
      "Ġsubsequ": 5466,
      "Ġcomplement": 5467,
      "ĠService": 5468,
      "pay": 5469,
      "Ġadopt": 5470,
      "Ġachieving": 5471,
      "asp": 5472,
      "start": 5473,
      "ache": 5474,
      "arsh": 5475,
      "Ġfamous": 5476,
      "Ġoperation": 5477,
      "Ġcouple": 5478,
      "mod": 5479,
      "Ġdim": 5480,
      "Ġexternal": 5481,
      "azing": 5482,
      "Ġmemor": 5483,
      "Ġfigure": 5484,
      "Ġscenar": 5485,
      "oosing": 5486,
      "dec": 5487,
      "asive": 5488,
      "Ġquesion": 5489,
      "Ġusage": 5490,
      "Ġbrings": 5491,
      "Ġdiagn": 5492,
      "ĠMichael": 5493,
      "sell": 5494,
      "Ġteas": 5495,
      "pass": 5496,
      "ĠGo": 5497,
      "Ġcircum": 5498,
      "Ġdiscussed": 5499,
      "ĠProv": 5500,
      "De": 5501,
      "connect": 5502,
      "ensity": 5503,
      "Ġscale": 5504,
      "Ġintelligence": 5505,
      "Ġcontributed": 5506,
      "bed": 5507,
      "Ġsnow": 5508,
      "Ġsample": 5509,
      "Ġdoll": 5510,
      "pectives": 5511,
      "Ġproviders": 5512,
      "worth": 5513,
      "24": 5514,
      "uclear": 5515,
      "ĠPlay": 5516,
      "Ġancient": 5517,
      "ota": 5518,
      "ĠEngland": 5519,
      "inner": 5520,
      "Ġspaces": 5521,
      "Ġatmosphere": 5522,
      "sim": 5523,
      "ĠJames": 5524,
      "GE": 5525,
      "Ġartist": 5526,
      "rote": 5527,
      "ĠSur": 5528,
      "Ġagreement": 5529,
      "ĠPL": 5530,
      "Ġimmediate": 5531,
      "omy": 5532,
      "!!": 5533,
      "Ġopening": 5534,
      "Ġunf": 5535,
      "Ġbeginning": 5536,
      "Ġvibr": 5537,
      "Ġjobs": 5538,
      "hether": 5539,
      "Ġchoices": 5540,
      "Ġmut": 5541,
      "Ġevolution": 5542,
      "Ġclaims": 5543,
      "Ġacknowled": 5544,
      "obe": 5545,
      "Ġrapid": 5546,
      "Ġsalad": 5547,
      "ĠĠĠĠ": 5548,
      "agiarism": 5549,
      "Ġdiscipl": 5550,
      "Ġidentifying": 5551,
      "Ġic": 5552,
      "Ġwonder": 5553,
      "urd": 5554,
      "ĠMarket": 5555,
      "Ġbag": 5556,
      "sem": 5557,
      "Ġcalls": 5558,
      "hors": 5559,
      "ĠBay": 5560,
      "ĠStreet": 5561,
      "empl": 5562,
      "Ġadministration": 5563,
      "Ġvan": 5564,
      "ĠUnion": 5565,
      "ademy": 5566,
      "Ġfundamental": 5567,
      "Ġupdate": 5568,
      "Ġaffordable": 5569,
      "Ġobjects": 5570,
      "ĠAnt": 5571,
      "ett": 5572,
      "Ġmanaged": 5573,
      "interest": 5574,
      "ursday": 5575,
      "Ġappearance": 5576,
      "IVE": 5577,
      "ĠTR": 5578,
      "Ġintroduction": 5579,
      "Ġwa": 5580,
      "Ġconv": 5581,
      "ĠClub": 5582,
      "PT": 5583,
      "ĠAre": 5584,
      "iminal": 5585,
      "week": 5586,
      "ĠAnother": 5587,
      "prene": 5588,
      "Ġactively": 5589,
      "Ġtend": 5590,
      "pet": 5591,
      "lessly": 5592,
      "Ġposts": 5593,
      "Ġhousing": 5594,
      "Ġmanner": 5595,
      "sign": 5596,
      "Ġhour": 5597,
      "uesday": 5598,
      "Ġtalent": 5599,
      "gorith": 5600,
      "Or": 5601,
      "bing": 5602,
      "Ġnegot": 5603,
      "Ġcomfortable": 5604,
      "ednes": 5605,
      "ĠMac": 5606,
      "rian": 5607,
      "Ġcombined": 5608,
      "Ġcovers": 5609,
      "OUND": 5610,
      "ĠCongress": 5611,
      "body": 5612,
      "ĠCould": 5613,
      "Ġappoint": 5614,
      "URE": 5615,
      "bal": 5616,
      "research": 5617,
      "eration": 5618,
      "Ġcertainly": 5619,
      "Ġcarry": 5620,
      "ĠMex": 5621,
      "Ġimpressive": 5622,
      "Ġmorning": 5623,
      "again": 5624,
      "Ġ21": 5625,
      "Ġpositions": 5626,
      "Of": 5627,
      "ĠTexas": 5628,
      "ĠGreat": 5629,
      "Ġnotes": 5630,
      "Overall": 5631,
      "reprene": 5632,
      "alysis": 5633,
      "Ġ--": 5634,
      "Ġfulf": 5635,
      "ĠGO": 5636,
      "Ġreduction": 5637,
      "ĠClass": 5638,
      "Ġreference": 5639,
      "ĠDesign": 5640,
      "lined": 5641,
      "amil": 5642,
      "ĠData": 5643,
      "Ġplastic": 5644,
      "Ġinvent": 5645,
      "Ġtone": 5646,
      "cription": 5647,
      "Ġmist": 5648,
      "Ġstake": 5649,
      "BC": 5650,
      "Ġextend": 5651,
      "Ġsustainability": 5652,
      "Ġteacher": 5653,
      "unday": 5654,
      "Ġcontemporary": 5655,
      "missions": 5656,
      "Ġarts": 5657,
      "Ġeight": 5658,
      "Ġpoly": 5659,
      "Ġhabit": 5660,
      "Some": 5661,
      "Ġseven": 5662,
      "Ġpassion": 5663,
      "mal": 5664,
      "Ġtheory": 5665,
      "Ġresistance": 5666,
      "lig": 5667,
      "Ġclos": 5668,
      "FL": 5669,
      "asure": 5670,
      "Ġcompelling": 5671,
      "enty": 5672,
      "Ġremaining": 5673,
      "ĠGold": 5674,
      "Ġwinter": 5675,
      "ĠFoundation": 5676,
      "ĠReport": 5677,
      "Ġclinical": 5678,
      "Ġshopping": 5679,
      "Ġoperational": 5680,
      "Ġmaster": 5681,
      "ĠMat": 5682,
      "ocation": 5683,
      "Ġprocedures": 5684,
      "Ġsearching": 5685,
      "Ġcater": 5686,
      "Ġcharge": 5687,
      "Ġparagraph": 5688,
      "Ġintegrity": 5689,
      "ĠKN": 5690,
      "ĠAlthough": 5691,
      "Ġdynamics": 5692,
      "Ġmoist": 5693,
      "hemat": 5694,
      "Ġcin": 5695,
      "Ġfacing": 5696,
      "Ġabsor": 5697,
      "Ġinjury": 5698,
      "uts": 5699,
      "Ġaccounts": 5700,
      "Ġperspectives": 5701,
      "program": 5702,
      "Ġpurposes": 5703,
      "Ġlemon": 5704,
      "ruits": 5705,
      "Ġmusical": 5706,
      "Ġincorporate": 5707,
      "Ġresulting": 5708,
      "oil": 5709,
      "Ġer": 5710,
      "ednesday": 5711,
      "bsite": 5712,
      "OUGH": 5713,
      "Ġpicture": 5714,
      "ounter": 5715,
      "Ġgender": 5716,
      "Te": 5717,
      "Ġtherapy": 5718,
      "ĠGood": 5719,
      "Ġinvestors": 5720,
      "Ġleaving": 5721,
      "ror": 5722,
      "oral": 5723,
      "Ġsusp": 5724,
      "Ġscr": 5725,
      "Ġexerc": 5726,
      "oys": 5727,
      "ĠWOULD": 5728,
      "Ġfreedom": 5729,
      "Ġsentence": 5730,
      "zy": 5731,
      "EL": 5732,
      "Ġvulner": 5733,
      "Ġcharges": 5734,
      "Ġhimself": 5735,
      "Â®": 5736,
      "Ġenhanced": 5737,
      "sa": 5738,
      "Ġthick": 5739,
      "Ġofferings": 5740,
      "Ġspeech": 5741,
      "Ġcandidates": 5742,
      "ĠAccording": 5743,
      "Ġaiming": 5744,
      "istor": 5745,
      "70": 5746,
      "Ġx": 5747,
      "Ġunit": 5748,
      "ĠPublic": 5749,
      "Ġresponsibilities": 5750,
      "oom": 5751,
      "Ġtack": 5752,
      "Ġspend": 5753,
      "Ġpartner": 5754,
      "Ġcarefully": 5755,
      "Ġflexibility": 5756,
      "Ġimplementing": 5757,
      "Ġowners": 5758,
      "ĠSa": 5759,
      "ĠGreek": 5760,
      "CO": 5761,
      "Ġsatisfaction": 5762,
      "Ġfear": 5763,
      "Ġrepresents": 5764,
      "before": 5765,
      "agers": 5766,
      "Ġfoundation": 5767,
      "aturday": 5768,
      "Ġextended": 5769,
      "Ġcooked": 5770,
      "PL": 5771,
      "ĠWind": 5772,
      "ptoms": 5773,
      "Ġfeet": 5774,
      "Ġemployment": 5775,
      "ĠUp": 5776,
      "Ġphotos": 5777,
      "service": 5778,
      "Ġhop": 5779,
      "Ġmonitor": 5780,
      "Ġdescription": 5781,
      "BS": 5782,
      "Ġmanager": 5783,
      "ĠSpr": 5784,
      "Ġcauses": 5785,
      "ournal": 5786,
      "ĠOver": 5787,
      "process": 5788,
      "Ġtrial": 5789,
      "ĠIF": 5790,
      "ORT": 5791,
      "Ġbottom": 5792,
      "Shifting": 5793,
      "ĠGeneral": 5794,
      "Ġaes": 5795,
      "ĠMIS": 5796,
      "ĠFebruary": 5797,
      "Ġemphasis": 5798,
      "ĠItalian": 5799,
      "Ġpresents": 5800,
      "Moreover": 5801,
      "ĠPRO": 5802,
      "Ġabilities": 5803,
      "Ġrecovery": 5804,
      "Ġpin": 5805,
      "99": 5806,
      "ĠFranc": 5807,
      "ĠWHEN": 5808,
      "Ġbol": 5809,
      "Ġenable": 5810,
      "post": 5811,
      "Ġreb": 5812,
      "Ġadop": 5813,
      "Ġrhy": 5814,
      "Ġanx": 5815,
      "Ã¡": 5816,
      "ĠPort": 5817,
      "Ġraised": 5818,
      "Ġsale": 5819,
      "Ġplaced": 5820,
      "Ġfiber": 5821,
      "orders": 5822,
      "wing": 5823,
      "Ġhandling": 5824,
      "ĠAlso": 5825,
      "Ġindependent": 5826,
      "Ġresilience": 5827,
      "ĠMal": 5828,
      "author": 5829,
      "Ġtick": 5830,
      "Ġcake": 5831,
      "ste": 5832,
      "Ġspecialized": 5833,
      "Ġemphasizing": 5834,
      "omas": 5835,
      "ĠĊĊ": 5836,
      "Ġstability": 5837,
      "ONE": 5838,
      "husi": 5839,
      "keep": 5840,
      "Ġwanted": 5841,
      "gers": 5842,
      "Ġappears": 5843,
      "Ġparticipation": 5844,
      "itely": 5845,
      "Do": 5846,
      "uis": 5847,
      "herent": 5848,
      "Ġachieved": 5849,
      "Ġbed": 5850,
      "otes": 5851,
      "Ġbutton": 5852,
      "Ġwhose": 5853,
      "Ġimmediately": 5854,
      "Ġnutritional": 5855,
      "ords": 5856,
      "Ġkitchen": 5857,
      "support": 5858,
      "Ġtrip": 5859,
      "Ġranking": 5860,
      "Ġfro": 5861,
      "Ġmulti": 5862,
      "ployment": 5863,
      "Ġnearly": 5864,
      "oma": 5865,
      "Ġprovider": 5866,
      "Ġeggs": 5867,
      "weight": 5868,
      "Ġselling": 5869,
      "ĠTy": 5870,
      "Ġimplementation": 5871,
      "la": 5872,
      "Ġheight": 5873,
      "rip": 5874,
      "Ġconfidence": 5875,
      "uty": 5876,
      "Ġfeaturing": 5877,
      "Ġliquid": 5878,
      "did": 5879,
      "ĠIM": 5880,
      "rooms": 5881,
      "Ġathlet": 5882,
      "ioned": 5883,
      "agon": 5884,
      "ĠRiver": 5885,
      "Ġencourages": 5886,
      "erry": 5887,
      "Ġstim": 5888,
      "Ġacid": 5889,
      "box": 5890,
      "ĠKeep": 5891,
      "Ġengines": 5892,
      "ĠAG": 5893,
      "home": 5894,
      "ya": 5895,
      "ĠChurch": 5896,
      "ĠFlorida": 5897,
      "Ġbasis": 5898,
      "Ġnutri": 5899,
      "Ġadds": 5900,
      "alle": 5901,
      "ĠWOR": 5902,
      "ĠKore": 5903,
      "Ġdescribe": 5904,
      "Ġdram": 5905,
      "Ġidentified": 5906,
      "Ġpal": 5907,
      "Ġborn": 5908,
      "Ġfactor": 5909,
      "ying": 5910,
      "ĠPlease": 5911,
      "ĠOUT": 5912,
      "ĠVis": 5913,
      "Ġ2012": 5914,
      "Ġvisiting": 5915,
      "Ġseparate": 5916,
      "Comm": 5917,
      "Ġscene": 5918,
      "ĠProject": 5919,
      "Ġexcess": 5920,
      "Ġmetal": 5921,
      "season": 5922,
      "Ġseeds": 5923,
      "Ġcurriculum": 5924,
      "Ġapart": 5925,
      "Don": 5926,
      "paper": 5927,
      "icago": 5928,
      "struct": 5929,
      "Ġyield": 5930,
      "ĠCourt": 5931,
      "Despite": 5932,
      "ĠBre": 5933,
      "Ġeyes": 5934,
      "Ġvictim": 5935,
      "Ġentry": 5936,
      "Ġdouble": 5937,
      "ean": 5938,
      "ĠARE": 5939,
      "Ġvast": 5940,
      "Ġsizes": 5941,
      "Ġchosen": 5942,
      "Ġtang": 5943,
      "Ġvalid": 5944,
      "Ġpurs": 5945,
      "Ġfrequently": 5946,
      "Ġmill": 5947,
      "ĠCare": 5948,
      "ston": 5949,
      "Ġassessment": 5950,
      "ITY": 5951,
      "Ġaccuracy": 5952,
      "bi": 5953,
      "Ġgift": 5954,
      "Ġtelevision": 5955,
      "uality": 5956,
      "Ġattacks": 5957,
      "ĠFrance": 5958,
      "stances": 5959,
      "step": 5960,
      "ĠMo": 5961,
      "osis": 5962,
      "Ġpoor": 5963,
      "Ġimplemented": 5964,
      "eless": 5965,
      "Ġreturning": 5966,
      "Ġfacilitate": 5967,
      "Ġwish": 5968,
      "Ġforget": 5969,
      "ĠOf": 5970,
      "Ġconcern": 5971,
      "ampionship": 5972,
      "Ġformal": 5973,
      "Ġclearly": 5974,
      "above": 5975,
      "ĠOther": 5976,
      "during": 5977,
      "found": 5978,
      "last": 5979,
      "Ġsessions": 5980,
      "Ġpul": 5981,
      "Ġencouraging": 5982,
      "sey": 5983,
      "Ġdiscussions": 5984,
      "Ġdebt": 5985,
      "ĠChristmas": 5986,
      "Ġpreparation": 5987,
      "olutely": 5988,
      "Ġbeliefs": 5989,
      "ppers": 5990,
      "Ġcoach": 5991,
      "power": 5992,
      "ÃŃ": 5993,
      "Ġpainting": 5994,
      "Ġvac": 5995,
      "Ġstring": 5996,
      "Ġcommunicate": 5997,
      "Ġcompliance": 5998,
      "profit": 5999,
      "Moving": 6000,
      "ĠSet": 6001,
      "ACE": 6002,
      "Ġdro": 6003,
      "ĠBra": 6004,
      "Ġcontrovers": 6005,
      "cohol": 6006,
      "Ġrelax": 6007,
      "Ġemployee": 6008,
      "American": 6009,
      "KED": 6010,
      "Ġcere": 6011,
      "35": 6012,
      "itch": 6013,
      "ĠCE": 6014,
      "Ġbright": 6015,
      "Ġsubjects": 6016,
      "Ġregularly": 6017,
      "Ġradio": 6018,
      "front": 6019,
      "Ġminor": 6020,
      "):": 6021,
      "spe": 6022,
      "ĠSub": 6023,
      "Int": 6024,
      "tical": 6025,
      "telling": 6026,
      "Ġmotor": 6027,
      "Ġlooks": 6028,
      "Ġlibrary": 6029,
      "Ġcolle": 6030,
      "OWN": 6031,
      "ette": 6032,
      "eles": 6033,
      "Ġalter": 6034,
      "ĠMem": 6035,
      "Ġcapture": 6036,
      "ĠSpanish": 6037,
      "Ġanalyze": 6038,
      "students": 6039,
      "orous": 6040,
      "ĠPaul": 6041,
      "apos": 6042,
      "PC": 6043,
      "ey": 6044,
      "Ġemergency": 6045,
      "Ġefficiently": 6046,
      "cles": 6047,
      "sts": 6048,
      "otic": 6049,
      "ĠLO": 6050,
      "Ġelabor": 6051,
      "aven": 6052,
      "aming": 6053,
      "Ġinstrumental": 6054,
      "Ġholiday": 6055,
      "ourage": 6056,
      "Ġcommitted": 6057,
      "Ġholds": 6058,
      "ĠAmazon": 6059,
      "Ġevident": 6060,
      "ĠPre": 6061,
      "plement": 6062,
      "month": 6063,
      "SA": 6064,
      "Ġsteel": 6065,
      "Ġdelight": 6066,
      "Ġimper": 6067,
      "Ġmarked": 6068,
      "ĠSk": 6069,
      "Ġengaged": 6070,
      "irgin": 6071,
      "Ġjoy": 6072,
      "ITT": 6073,
      "Ġthous": 6074,
      "rate": 6075,
      "Ġletter": 6076,
      "Ġcast": 6077,
      "produ": 6078,
      "Ġproductivity": 6079,
      "ĠBEEN": 6080,
      "Ġyog": 6081,
      "Ġcorner": 6082,
      "those": 6083,
      "Ġnoted": 6084,
      "ĠSl": 6085,
      "estyle": 6086,
      "ĠStar": 6087,
      "Ġcleaning": 6088,
      "Ġclarify": 6089,
      "sit": 6090,
      "Ġbird": 6091,
      "ailable": 6092,
      "including": 6093,
      "ĠMart": 6094,
      "PR": 6095,
      "eted": 6096,
      "ĠArab": 6097,
      "Ġenthusi": 6098,
      "Ġcomplexity": 6099,
      "ĠMonday": 6100,
      "ĠPhil": 6101,
      "gins": 6102,
      "ero": 6103,
      "Ġspl": 6104,
      "Ġconservation": 6105,
      "berry": 6106,
      "ĠInternet": 6107,
      "PA": 6108,
      "ĠTom": 6109,
      "Ġactual": 6110,
      "undred": 6111,
      "Ġtempl": 6112,
      "Ġselected": 6113,
      "ĠSun": 6114,
      "appe": 6115,
      "iled": 6116,
      "Ġspent": 6117,
      "Ġcas": 6118,
      "Ġenrich": 6119,
      "nson": 6120,
      "iller": 6121,
      "Ġ60": 6122,
      "ĠOrgan": 6123,
      "because": 6124,
      "Ġcoconut": 6125,
      "Ġmiddle": 6126,
      "Ġvine": 6127,
      "ĠPRE": 6128,
      "Ġtree": 6129,
      "Ġwrong": 6130,
      "oly": 6131,
      "Ġbeans": 6132,
      "ĠMor": 6133,
      "ĠEngine": 6134,
      "great": 6135,
      "arn": 6136,
      "ĠCamp": 6137,
      "Ġcausing": 6138,
      "Su": 6139,
      "Ġrecognize": 6140,
      "ĠOut": 6141,
      "oung": 6142,
      "Ġvolume": 6143,
      "Ġdomin": 6144,
      "ĠCL": 6145,
      "Ġspons": 6146,
      "ĠMedia": 6147,
      "Ġremarkable": 6148,
      "Ġregulatory": 6149,
      "Ġera": 6150,
      "Ġsoph": 6151,
      "Ġalgorith": 6152,
      "anta": 6153,
      "Ġregional": 6154,
      "ĠWrit": 6155,
      "ĠLatin": 6156,
      "Ġfollows": 6157,
      "Ġauthors": 6158,
      "pie": 6159,
      "ĠDuring": 6160,
      "Ġwilling": 6161,
      "azine": 6162,
      "Ġpossibly": 6163,
      "Ġhighlighted": 6164,
      "ventional": 6165,
      "Ġachievements": 6166,
      "Ġsectors": 6167,
      "esus": 6168,
      "ĠLife": 6169,
      "Ġerr": 6170,
      "Ġteach": 6171,
      "Ġphrase": 6172,
      "Ġworldwide": 6173,
      "much": 6174,
      "ĠMag": 6175,
      "Ġwinning": 6176,
      "grow": 6177,
      "Ġsuggested": 6178,
      "Ġ2010": 6179,
      "Why": 6180,
      "attle": 6181,
      "Ġoriginated": 6182,
      "Ġlux": 6183,
      "Ġcutting": 6184,
      "ustry": 6185,
      "ĠMad": 6186,
      "berg": 6187,
      "around": 6188,
      "ĠMiddle": 6189,
      "ĠStart": 6190,
      "Ġinval": 6191,
      "Ġcitizens": 6192,
      "Ġvirtual": 6193,
      "Ġcars": 6194,
      "Ġsurf": 6195,
      "Fin": 6196,
      "Sp": 6197,
      "Ġinput": 6198,
      "ĠHome": 6199,
      "Ġassets": 6200,
      "Ġcookie": 6201,
      "Ġfeatured": 6202,
      "Ġdegrees": 6203,
      "Ġcamera": 6204,
      "Ġapps": 6205,
      "Ġdepart": 6206,
      "Ġutilizing": 6207,
      "Ġmenu": 6208,
      "Ġalone": 6209,
      "Ġspring": 6210,
      "ĠAsia": 6211,
      "ĠFinally": 6212,
      "90": 6213,
      "Rem": 6214,
      "Ġrent": 6215,
      "roid": 6216,
      "75": 6217,
      "gent": 6218,
      "ĠCR": 6219,
      "essional": 6220,
      "ĠWeb": 6221,
      "Ġmovements": 6222,
      "TE": 6223,
      "fall": 6224,
      "ĠLou": 6225,
      "Ġemissions": 6226,
      "Ġincreases": 6227,
      "Ġelimin": 6228,
      "Add": 6229,
      "Ġpark": 6230,
      "Ġpreserv": 6231,
      "Ġcontributes": 6232,
      "stone": 6233,
      "Ġpsychological": 6234,
      "ĠSpecifically": 6235,
      "Ġcrow": 6236,
      "ĠCup": 6237,
      "ĠScott": 6238,
      "irms": 6239,
      "adian": 6240,
      "500": 6241,
      "van": 6242,
      "ĠMore": 6243,
      "Ġ22": 6244,
      "apter": 6245,
      "Ġuncertain": 6246,
      "isco": 6247,
      "Ġdecided": 6248,
      "ĠBank": 6249,
      "Ġroot": 6250,
      "Ġshares": 6251,
      "Ġtargeting": 6252,
      "Ġcorporate": 6253,
      "eal": 6254,
      "him": 6255,
      "udd": 6256,
      "Ġ2011": 6257,
      "Ġcro": 6258,
      "ĠPost": 6259,
      "Ġreflects": 6260,
      "clear": 6261,
      "CL": 6262,
      "icians": 6263,
      "ĠSch": 6264,
      "contin": 6265,
      "Ġshowcasing": 6266,
      "effective": 6267,
      "Ġsegment": 6268,
      "ĠInstagram": 6269,
      "lishing": 6270,
      "Ġpassed": 6271,
      "Ġpresentation": 6272,
      "team": 6273,
      "ĠStr": 6274,
      "Ġdedication": 6275,
      "Ġauthorities": 6276,
      "Ġelectronic": 6277,
      "ĠCommission": 6278,
      "Ġsession": 6279,
      "Ġnurs": 6280,
      "Ġprospect": 6281,
      "Ġculinary": 6282,
      "uit": 6283,
      "got": 6284,
      "educ": 6285,
      "import": 6286,
      "ĠRel": 6287,
      "ĠWHAT": 6288,
      "Ġ#": 6289,
      "ĠAward": 6290,
      "Ġcomments": 6291,
      "ĠIns": 6292,
      "nament": 6293,
      "Ġarrest": 6294,
      "Ġoverview": 6295,
      "Ġimagery": 6296,
      "duate": 6297,
      "Ġaudio": 6298,
      "Ġrestrict": 6299,
      "Ġbehaviors": 6300,
      "Ġmolec": 6301,
      "ophy": 6302,
      "company": 6303,
      "Ġdatabase": 6304,
      "ref": 6305,
      "ushing": 6306,
      "Ġmeticul": 6307,
      "Ġcapable": 6308,
      "Ġisol": 6309,
      "Ġrating": 6310,
      "berries": 6311,
      "ĠDet": 6312,
      "Ġrig": 6313,
      "THER": 6314,
      "oday": 6315,
      "Ġconnected": 6316,
      "uests": 6317,
      "Ġfunctionality": 6318,
      "CK": 6319,
      "ĠCur": 6320,
      "ĠWestern": 6321,
      "ĠGR": 6322,
      "Le": 6323,
      "ius": 6324,
      "Ġdoor": 6325,
      "Ġfilms": 6326,
      "Ġsymptoms": 6327,
      "acific": 6328,
      "Ġalumni": 6329,
      "ĠGermany": 6330,
      "Ġarchitecture": 6331,
      "Ġloyalty": 6332,
      "different": 6333,
      "isk": 6334,
      "ĠGRE": 6335,
      "ĠSM": 6336,
      "respond": 6337,
      "Ġcognitive": 6338,
      "ĠWater": 6339,
      "Ġchain": 6340,
      "ĠRobert": 6341,
      "Ġloved": 6342,
      "Ġresolution": 6343,
      "Ġsolar": 6344,
      "erate": 6345,
      "Ġconducting": 6346,
      "Ġtrou": 6347,
      "ingly": 6348,
      "merce": 6349,
      "Ġcircumstances": 6350,
      "camp": 6351,
      "erts": 6352,
      "Ġchoosing": 6353,
      "oop": 6354,
      "ĠSystem": 6355,
      "Ġdow": 6356,
      "Ġdistrict": 6357,
      "Ġfelt": 6358,
      "Ġdrop": 6359,
      "ĠHy": 6360,
      "Ġequipped": 6361,
      "First": 6362,
      "Ġaids": 6363,
      "Ġtoward": 6364,
      "Ġdivid": 6365,
      "Ġgun": 6366,
      "ellect": 6367,
      "Ġgreatly": 6368,
      "ĠAlex": 6369,
      "ĠBur": 6370,
      "ĠElect": 6371,
      "ĠRead": 6372,
      "ACK": 6373,
      "gener": 6374,
      "ola": 6375,
      "Ġexercises": 6376,
      "Ġsenior": 6377,
      "orter": 6378,
      "arp": 6379,
      "Ġinquir": 6380,
      "ĠTre": 6381,
      "ĠMO": 6382,
      "ĠBest": 6383,
      "ĠRich": 6384,
      "Ġinspiration": 6385,
      "Ġonion": 6386,
      "Ġtele": 6387,
      "Ġyouth": 6388,
      "ĠJew": 6389,
      "ĠMicrosoft": 6390,
      "ummer": 6391,
      "ĠLI": 6392,
      "ĠSociety": 6393,
      "Ġconcerning": 6394,
      "Ġtrees": 6395,
      "Ġprofit": 6396,
      "arency": 6397,
      "oir": 6398,
      "Ġpartners": 6399,
      "Ġteaspoon": 6400,
      "Ġnothing": 6401,
      "Ġinjuries": 6402,
      "Ġcrisis": 6403,
      "mes": 6404,
      "Ġnu": 6405,
      "forward": 6406,
      "Ġreflecting": 6407,
      "Ġmixed": 6408,
      "lymp": 6409,
      "Ġpenal": 6410,
      "Ġaf": 6411,
      "ads": 6412,
      "Ġalle": 6413,
      "Ġbarri": 6414,
      "acon": 6415,
      "never": 6416,
      "ĠLeg": 6417,
      "ien": 6418,
      "theless": 6419,
      "Ġpool": 6420,
      "Ġshot": 6421,
      "Ġdemands": 6422,
      "Ġrestaurant": 6423,
      "Ġworkshops": 6424,
      "Ġdesire": 6425,
      "Ġflat": 6426,
      "fit": 6427,
      "social": 6428,
      "Ġtechnological": 6429,
      "Ġpurchasing": 6430,
      "mentioned": 6431,
      "ĠNews": 6432,
      "Ġexecutive": 6433,
      "Ġarrange": 6434,
      "igen": 6435,
      "ĠCustom": 6436,
      "ĠWILL": 6437,
      "Ġtrain": 6438,
      "ĠProt": 6439,
      "Ġchanged": 6440,
      "Ġlinked": 6441,
      "Ġcomponent": 6442,
      "Ġanxiety": 6443,
      "ĠSing": 6444,
      "ĠThursday": 6445,
      "Ġcrafting": 6446,
      "Ġiron": 6447,
      "Ġce": 6448,
      "iments": 6449,
      "zen": 6450,
      "ĠAnaly": 6451,
      "sen": 6452,
      "Ġswit": 6453,
      "Ġlearned": 6454,
      "Ġemails": 6455,
      "Ġfasc": 6456,
      "Ġspr": 6457,
      "ĠIslam": 6458,
      "ala": 6459,
      "Ġdistance": 6460,
      "show": 6461,
      "Ġpackage": 6462,
      "CI": 6463,
      "print": 6464,
      "Ġfunctional": 6465,
      "Ġphen": 6466,
      "Ġproducing": 6467,
      "Ġoptimization": 6468,
      "Ġcompare": 6469,
      "Ġauthority": 6470,
      "Ġupdated": 6471,
      "Ġsex": 6472,
      "issue": 6473,
      "Ġshowing": 6474,
      "Ġpotatoes": 6475,
      "SELF": 6476,
      "Ġwitness": 6477,
      "Ġfill": 6478,
      "Ġcreates": 6479,
      "Ġfruits": 6480,
      "Ġsafegu": 6481,
      "Ġpossess": 6482,
      "cook": 6483,
      "ĠTW": 6484,
      "ĠÂ£": 6485,
      "Tra": 6486,
      "Ġast": 6487,
      "Ġbaby": 6488,
      "ĠFore": 6489,
      "online": 6490,
      "ĠMil": 6491,
      "Ġprobably": 6492,
      "expected": 6493,
      "ĠCOULD": 6494,
      "Ġeventually": 6495,
      "Ġbasket": 6496,
      "Ġstated": 6497,
      "ĠCompany": 6498,
      "del": 6499,
      "each": 6500,
      "ĠDef": 6501,
      "acter": 6502,
      "Ġintricate": 6503,
      "mem": 6504,
      "Ġwrote": 6505,
      "Ġchurch": 6506,
      "Ġsides": 6507,
      "points": 6508,
      "ĠSunday": 6509,
      "Ġartistic": 6510,
      "legal": 6511,
      "ĠSil": 6512,
      "Ġnotably": 6513,
      "Ġcards": 6514,
      "ĠCommunity": 6515,
      "isation": 6516,
      "ificial": 6517,
      "Ġelig": 6518,
      "ĠGerman": 6519,
      "ĠMuseum": 6520,
      "Ġbelieved": 6521,
      "Ġbuying": 6522,
      "Ġlaunched": 6523,
      "Ġwire": 6524,
      "Ġnuclear": 6525,
      "Ġnotice": 6526,
      "Ġsupported": 6527,
      "Ġsecret": 6528,
      "HED": 6529,
      "gery": 6530,
      "ĠCentral": 6531,
      "Ġportray": 6532,
      "Ġepis": 6533,
      "Ġweap": 6534,
      "current": 6535,
      "Ġexceptional": 6536,
      "ĠAdv": 6537,
      "ĠJapanese": 6538,
      "App": 6539,
      "vity": 6540,
      "Ġeat": 6541,
      "ĠAmericans": 6542,
      "Ġencompass": 6543,
      "Ġinvaluable": 6544,
      "Ġmir": 6545,
      "Ġmap": 6546,
      "comple": 6547,
      "Ġsurve": 6548,
      "Ġleveraging": 6549,
      "ĠCap": 6550,
      "Ġconversion": 6551,
      "ĠCam": 6552,
      "Ġfacility": 6553,
      "roph": 6554,
      "ĠFood": 6555,
      "26": 6556,
      "yan": 6557,
      "Ġhumans": 6558,
      "expl": 6559,
      "Ġcycle": 6560,
      "ĠInstead": 6561,
      "ĠBoard": 6562,
      "Ġfilled": 6563,
      "fulness": 6564,
      "Ġdriver": 6565,
      "ĠEV": 6566,
      "Ġjoin": 6567,
      "ĠTechnology": 6568,
      "grade": 6569,
      "services": 6570,
      "ĠPress": 6571,
      "taining": 6572,
      "Man": 6573,
      "miss": 6574,
      "wa": 6575,
      "ĠTuesday": 6576,
      "Ġpret": 6577,
      "Ġphase": 6578,
      "Ġprinciple": 6579,
      "Ġadvancements": 6580,
      "umes": 6581,
      "Ġcash": 6582,
      "often": 6583,
      "Ġpoet": 6584,
      "Ġlaunch": 6585,
      "ker": 6586,
      "taking": 6587,
      "Ġfishing": 6588,
      "Ġspin": 6589,
      "Ġlisted": 6590,
      "Ġoccup": 6591,
      "Ġvictory": 6592,
      "Ġsatisf": 6593,
      "Ġtests": 6594,
      "Ġwider": 6595,
      "rie": 6596,
      "ĠMont": 6597,
      "Ġnetworking": 6598,
      "45": 6599,
      "Ġpros": 6600,
      "Ġclim": 6601,
      "Ġgave": 6602,
      "rag": 6603,
      "Ġimprovements": 6604,
      "ĠSecurity": 6605,
      "love": 6606,
      "lis": 6607,
      "Ġtruth": 6608,
      "Ġperformances": 6609,
      "Ġturned": 6610,
      "Ġterror": 6611,
      "olly": 6612,
      "Ġadministr": 6613,
      "Ġlabel": 6614,
      "DA": 6615,
      "ĠOverall": 6616,
      "Ġselecting": 6617,
      "ĠAnn": 6618,
      "Rep": 6619,
      "ĠSam": 6620,
      "ĠDec": 6621,
      "Ġmoved": 6622,
      "Ġfilling": 6623,
      "ĠIr": 6624,
      "ĠNon": 6625,
      "Ġcriminal": 6626,
      "Ġvibrant": 6627,
      "Car": 6628,
      "main": 6629,
      "ERY": 6630,
      "Ġruns": 6631,
      "Ġvivid": 6632,
      "prove": 6633,
      "Ġraise": 6634,
      "Ġutilize": 6635,
      "Ġfant": 6636,
      "edia": 6637,
      "Ġvote": 6638,
      "Ġjoint": 6639,
      "ĠQue": 6640,
      "ĠObama": 6641,
      "Before": 6642,
      "Ġinstallation": 6643,
      "ĠAcademy": 6644,
      "ĠFL": 6645,
      "Ġtrig": 6646,
      "Ġinspired": 6647,
      "NT": 6648,
      "rey": 6649,
      "style": 6650,
      "Ġphoto": 6651,
      "Ġproof": 6652,
      "ĠHill": 6653,
      "Ġsoup": 6654,
      "data": 6655,
      "Ġsuit": 6656,
      "ĠBill": 6657,
      "ailing": 6658,
      "away": 6659,
      "Ġthoroughly": 6660,
      "Ġcooper": 6661,
      "ioxid": 6662,
      "han": 6663,
      "ethe": 6664,
      "Ġfort": 6665,
      "ĠIsland": 6666,
      "game": 6667,
      "kes": 6668,
      "Ġcoast": 6669,
      "ersonal": 6670,
      "Ġtow": 6671,
      "Ġmaximum": 6672,
      "Ġclothing": 6673,
      "Ġaudiences": 6674,
      "ĠExper": 6675,
      "Ġintegrated": 6676,
      "Ġentreprene": 6677,
      "Ġexpenses": 6678,
      "Ġevaluation": 6679,
      "ĠGeorge": 6680,
      "ocking": 6681,
      "Ġ23": 6682,
      "anguage": 6683,
      "Ġfaculty": 6684,
      "EP": 6685,
      "lo": 6686,
      "makers": 6687,
      "ĠHistory": 6688,
      "QU": 6689,
      "rid": 6690,
      "ĠOld": 6691,
      "Ġmoments": 6692,
      "Ġturning": 6693,
      "Ġther": 6694,
      "ĠWal": 6695,
      "Ġexpressed": 6696,
      "ĠSaturday": 6697,
      "AKE": 6698,
      "prom": 6699,
      "vertising": 6700,
      "Ġstruggle": 6701,
      "From": 6702,
      "exp": 6703,
      "Ġadvertise": 6704,
      "Ġutilized": 6705,
      "Ġdomestic": 6706,
      "ĠAustralian": 6707,
      "Ġroutine": 6708,
      "direct": 6709,
      "Ġpublication": 6710,
      "Ġtypical": 6711,
      "Ġopinions": 6712,
      "Ġtight": 6713,
      "abet": 6714,
      "ĠFe": 6715,
      "Ġampl": 6716,
      "Ġmetrics": 6717,
      "Ġfinished": 6718,
      "Ġemphasize": 6719,
      "ĠTime": 6720,
      "Ġstick": 6721,
      "ĠWood": 6722,
      "Ġlanguages": 6723,
      "ĠWednesday": 6724,
      "Ġorganized": 6725,
      "Ġdistingu": 6726,
      "Ġprinting": 6727,
      "Ġspectrum": 6728,
      "ĠTIM": 6729,
      "ĠChicago": 6730,
      "borhood": 6731,
      "inv": 6732,
      "ĠDan": 6733,
      "Ġcorn": 6734,
      "Ġtreatments": 6735,
      "Ġhospital": 6736,
      "Ġconclud": 6737,
      "vironmental": 6738,
      "Ġobjective": 6739,
      "IA": 6740,
      "UD": 6741,
      "ĠTop": 6742,
      "ighter": 6743,
      "ĠEVER": 6744,
      "Ġcontinuous": 6745,
      "Ġthreats": 6746,
      "HING": 6747,
      "Ġhun": 6748,
      "istical": 6749,
      "Ġshowcase": 6750,
      "Ġnormal": 6751,
      "ĠAtt": 6752,
      "Ġmeaningful": 6753,
      "mitted": 6754,
      "Ġmajority": 6755,
      "details": 6756,
      "Ġvir": 6757,
      "ĠFire": 6758,
      "Ġbuildings": 6759,
      "Ġdistinctive": 6760,
      "Ġversatile": 6761,
      "aceted": 6762,
      "Ġsole": 6763,
      "Ġminimum": 6764,
      "ĠSmith": 6765,
      "Ġdoub": 6766,
      "pur": 6767,
      "Ġnurt": 6768,
      "Ġrule": 6769,
      "ĠRussia": 6770,
      "Ġasp": 6771,
      "Ġproposal": 6772,
      "Ġlies": 6773,
      "INE": 6774,
      "project": 6775,
      "cor": 6776,
      "inating": 6777,
      "ĠBR": 6778,
      "overty": 6779,
      "Ġcapability": 6780,
      "ĠQU": 6781,
      "ĠEv": 6782,
      "Ġfacilitating": 6783,
      "Another": 6784,
      "gypt": 6785,
      "Ġuniversities": 6786,
      "Ġoutput": 6787,
      "anche": 6788,
      "NDER": 6789,
      "Ġpollution": 6790,
      "Ġalcohol": 6791,
      "apping": 6792,
      "Ġfees": 6793,
      "Ġeditor": 6794,
      "Ġsuperior": 6795,
      "reach": 6796,
      "celer": 6797,
      "Ġenforcement": 6798,
      "Ġ27": 6799,
      "available": 6800,
      "Ġcommunications": 6801,
      "Ġediting": 6802,
      "Ġdemonstrate": 6803,
      "rust": 6804,
      "Ġfaster": 6805,
      "conf": 6806,
      "Ġagg": 6807,
      "rency": 6808,
      "Ġcategory": 6809,
      "Ġcab": 6810,
      "ECT": 6811,
      "ĠHall": 6812,
      "Ġplagiarism": 6813,
      "Ġreferr": 6814,
      "Ġcenters": 6815,
      "ums": 6816,
      "Ġmiles": 6817,
      "Wor": 6818,
      "astern": 6819,
      "ĠLove": 6820,
      "Ġmedicine": 6821,
      "Ġmal": 6822,
      "rome": 6823,
      "ĠRoad": 6824,
      "Ġcoordin": 6825,
      "Ġpolitics": 6826,
      "Ġexactly": 6827,
      "Ġherit": 6828,
      "unning": 6829,
      "Ġrot": 6830,
      "war": 6831,
      "Ġcontest": 6832,
      "Ġoptimize": 6833,
      "cost": 6834,
      "Ġtut": 6835,
      "Ġeating": 6836,
      "ĠLead": 6837,
      "Ġflood": 6838,
      "ĠCarol": 6839,
      "Pr": 6840,
      "inations": 6841,
      "ĠMost": 6842,
      "Ġbringing": 6843,
      "Ġacquis": 6844,
      "bar": 6845,
      "Ġstation": 6846,
      "emed": 6847,
      "Ġpreventing": 6848,
      "ummarize": 6849,
      "Ġtender": 6850,
      "Ġreceiving": 6851,
      "Ġconsistency": 6852,
      "Ġraw": 6853,
      "Ġdrivers": 6854,
      "Ġgenetic": 6855,
      "Ġsensitive": 6856,
      "ĠEns": 6857,
      "Ġ2009": 6858,
      "Ġcups": 6859,
      "Ġrat": 6860,
      "FT": 6861,
      "lining": 6862,
      "invest": 6863,
      "Ġdates": 6864,
      "Ġcomposition": 6865,
      "Ġpromotion": 6866,
      "ita": 6867,
      "Ġmand": 6868,
      "ĠLake": 6869,
      "ĠUt": 6870,
      "ĠInvest": 6871,
      "ena": 6872,
      "ĠHuman": 6873,
      "ĠBig": 6874,
      "Ġincred": 6875,
      "Ġinstitution": 6876,
      "Ġinstances": 6877,
      "ĠSecond": 6878,
      "Ġmechanisms": 6879,
      "folio": 6880,
      "icing": 6881,
      "Ġnice": 6882,
      "second": 6883,
      "ĠJesus": 6884,
      "ICE": 6885,
      "Ġentertainment": 6886,
      "group": 6887,
      "ĠEven": 6888,
      "Ġnewsp": 6889,
      "Ġowner": 6890,
      "Ġease": 6891,
      "cuss": 6892,
      "ĠBook": 6893,
      "uine": 6894,
      "Ġdance": 6895,
      "Ġweak": 6896,
      "Ġfiles": 6897,
      "li": 6898,
      "Ġpump": 6899,
      "ĠPet": 6900,
      "Ġoutcome": 6901,
      "Ġevaluate": 6902,
      "Ġheritage": 6903,
      "Ġdied": 6904,
      "imal": 6905,
      "appro": 6906,
      "security": 6907,
      "Ġerrors": 6908,
      "SI": 6909,
      "ga": 6910,
      "Ġaffecting": 6911,
      "Ġcandidate": 6912,
      "aser": 6913,
      "ilm": 6914,
      "Ġresponses": 6915,
      "Ġolder": 6916,
      "Phone": 6917,
      "ieve": 6918,
      "Ġunable": 6919,
      "ĠYear": 6920,
      "ĠMORE": 6921,
      "AV": 6922,
      "hop": 6923,
      "ĠAcc": 6924,
      "ĠBL": 6925,
      "Ġtraditions": 6926,
      "develop": 6927,
      "Ġperformed": 6928,
      "ĠANY": 6929,
      "books": 6930,
      "Ġcher": 6931,
      "ĠSOME": 6932,
      "Ġsheet": 6933,
      "Ġpreparing": 6934,
      "ellectual": 6935,
      "rus": 6936,
      "ĠMiss": 6937,
      "ench": 6938,
      "Eng": 6939,
      "Ġsour": 6940,
      "avy": 6941,
      "elect": 6942,
      "Ġrecy": 6943,
      "Ġhoney": 6944,
      "roy": 6945,
      "Ġfloor": 6946,
      "Ġtransformation": 6947,
      "Ġreached": 6948,
      "Ġfounded": 6949,
      "gments": 6950,
      "Ġsan": 6951,
      "three": 6952,
      "Ġremote": 6953,
      "Reg": 6954,
      "Ġbeef": 6955,
      "azz": 6956,
      "hem": 6957,
      "Ġmort": 6958,
      "Ġgets": 6959,
      "orial": 6960,
      "Ġmuseum": 6961,
      "uten": 6962,
      "ĠVol": 6963,
      "Ġflo": 6964,
      "Ġbodies": 6965,
      "ĠEvery": 6966,
      "asters": 6967,
      "Ġtrading": 6968,
      "ĠMinister": 6969,
      "28": 6970,
      "lot": 6971,
      "ĠUlt": 6972,
      "Ġpersist": 6973,
      "success": 6974,
      "Ġscientists": 6975,
      "ĠRoman": 6976,
      "aphor": 6977,
      "poss": 6978,
      "media": 6979,
      "Ġincent": 6980,
      "anda": 6981,
      "unk": 6982,
      "oston": 6983,
      "ASS": 6984,
      "Ġtomatoes": 6985,
      "Ġaccomplish": 6986,
      "Cont": 6987,
      "Fr": 6988,
      "dist": 6989,
      "ĠDigital": 6990,
      "Ġmultif": 6991,
      "Ġencouraged": 6992,
      "Ġlifestyle": 6993,
      "public": 6994,
      "ĠPot": 6995,
      "ĠOpt": 6996,
      "ENCE": 6997,
      "ĠClick": 6998,
      "Ġposted": 6999,
      "Co": 7000,
      "Ġrepair": 7001,
      "iche": 7002,
      "ĠPay": 7003,
      "ĠDistrict": 7004,
      "Ġwife": 7005,
      "Ġvill": 7006,
      "Ġamazing": 7007,
      "ĠValley": 7008,
      "Ġbesides": 7009,
      "Ġregister": 7010,
      "Ġhappen": 7011,
      "Ġcyber": 7012,
      "stream": 7013,
      "Ġunits": 7014,
      "Ġspok": 7015,
      "Ġopinion": 7016,
      "Ġdecrease": 7017,
      "Ġcontribution": 7018,
      "Ġinitially": 7019,
      "Ġphenomen": 7020,
      "focus": 7021,
      "etary": 7022,
      "Ġguests": 7023,
      "ideo": 7024,
      "Dr": 7025,
      "west": 7026,
      "ĠMark": 7027,
      "ĠPower": 7028,
      "ta": 7029,
      "Ġrain": 7030,
      "Ġemployed": 7031,
      "both": 7032,
      "ĠMer": 7033,
      "Ġ26": 7034,
      "Ġ28": 7035,
      "Ġmathemat": 7036,
      "Ġshaping": 7037,
      "Please": 7038,
      "Ġhydro": 7039,
      "Ġfraud": 7040,
      "otion": 7041,
      "ressed": 7042,
      "Ġexpensive": 7043,
      "Ġbelieves": 7044,
      "Ġreferred": 7045,
      "iated": 7046,
      "Ġmeals": 7047,
      "brand": 7048,
      "atter": 7049,
      "arrow": 7050,
      "Ġoperate": 7051,
      "ĠSenate": 7052,
      "Ġpure": 7053,
      "Ġfold": 7054,
      "Ġcompat": 7055,
      "Ġcharacterized": 7056,
      "Ġbattery": 7057,
      "happ": 7058,
      "ĠPen": 7059,
      "Ġrealm": 7060,
      "ĠBlue": 7061,
      "Ġfourth": 7062,
      "Ġexplores": 7063,
      "Ġprocedure": 7064,
      "Ġfol": 7065,
      "ĠTake": 7066,
      "ĠRock": 7067,
      "Ġtemperatures": 7068,
      "Ġapplying": 7069,
      "Ġfinally": 7070,
      "Ġprotocol": 7071,
      "Ġcombat": 7072,
      "Ġ80": 7073,
      "Ġtitles": 7074,
      "Ġbelong": 7075,
      "log": 7076,
      "evertheless": 7077,
      "Ġgolden": 7078,
      "Ġsigns": 7079,
      "ĠYOUR": 7080,
      "Ġbattle": 7081,
      "Ġflexible": 7082,
      "Ġlimitations": 7083,
      "izations": 7084,
      "âĢĿ.": 7085,
      "Mar": 7086,
      "alog": 7087,
      "Ġdisrupt": 7088,
      "ventions": 7089,
      "Ġpremium": 7090,
      "Ġsuspect": 7091,
      "ĠBO": 7092,
      "ye": 7093,
      "ecause": 7094,
      "Ġimmune": 7095,
      "Ġil": 7096,
      "Ġedge": 7097,
      "Ġelectrical": 7098,
      "Ġstorytelling": 7099,
      "Ġregistration": 7100,
      "fund": 7101,
      "erals": 7102,
      "oper": 7103,
      "ĠReview": 7104,
      "incre": 7105,
      "mean": 7106,
      "orney": 7107,
      "Ġexistence": 7108,
      "ĠContin": 7109,
      "ĠHot": 7110,
      "ractice": 7111,
      "ĠRev": 7112,
      "Ġpictures": 7113,
      "Ġterrit": 7114,
      "Ġrare": 7115,
      "site": 7116,
      "itative": 7117,
      "ĠWork": 7118,
      "ĠDiv": 7119,
      "ANCE": 7120,
      "Ġanalyzing": 7121,
      "Additionally": 7122,
      "ĠGrand": 7123,
      "Ġawards": 7124,
      "Ġdrink": 7125,
      "Ġimmers": 7126,
      "Furthermore": 7127,
      "inked": 7128,
      "Ġcompetitors": 7129,
      "ounder": 7130,
      "Ġacts": 7131,
      "Ġlegacy": 7132,
      "ĠPlace": 7133,
      "ĠSupport": 7134,
      "Ġcomparison": 7135,
      "rases": 7136,
      "ĠGlobal": 7137,
      "sect": 7138,
      "Ġhotel": 7139,
      "Ġceleb": 7140,
      "Ġhonor": 7141,
      "Ġpreferred": 7142,
      "uzz": 7143,
      "Ġsac": 7144,
      "ican": 7145,
      "Ġchecking": 7146,
      "Ġclassroom": 7147,
      "ds": 7148,
      "Ġneut": 7149,
      "Ġfitness": 7150,
      "athe": 7151,
      "ographics": 7152,
      "?\"": 7153,
      "Ġ|": 7154,
      "Ġstret": 7155,
      "ĠUs": 7156,
      "ĠEU": 7157,
      "anged": 7158,
      "Ġlessons": 7159,
      "Ġweekend": 7160,
      "Em": 7161,
      "eting": 7162,
      "ĠSince": 7163,
      "ĠCAN": 7164,
      "Ġrub": 7165,
      "Ġsom": 7166,
      "oty": 7167,
      "rup": 7168,
      "Ġ195": 7169,
      "Ġthousands": 7170,
      "system": 7171,
      "Ġfailure": 7172,
      "27": 7173,
      "WE": 7174,
      "Ġrom": 7175,
      "Ġfurniture": 7176,
      "Ġmeant": 7177,
      "Ġapolog": 7178,
      "ĠCA": 7179,
      "Ġfee": 7180,
      "Ġworkplace": 7181,
      "Ġobserved": 7182,
      "lean": 7183,
      "Ġguarantee": 7184,
      "ĠLearning": 7185,
      "Ġcompens": 7186,
      "Ing": 7187,
      "Ġovers": 7188,
      "Ġframe": 7189,
      "Ġgraduate": 7190,
      "Ġempower": 7191,
      "Ġfemale": 7192,
      "ï¿": 7193,
      "Ġconver": 7194,
      "ĠOlymp": 7195,
      "Ġpoets": 7196,
      "Ġloan": 7197,
      "think": 7198,
      "Ġshooting": 7199,
      "Ġtactics": 7200,
      "Ġceremon": 7201,
      "ï¿½": 7202,
      "ĠHel": 7203,
      "Ġestablishing": 7204,
      "Ġofficers": 7205,
      "Ġstakeholders": 7206,
      "ĠCEO": 7207,
      "ĠIran": 7208,
      "Ġven": 7209,
      "Ġrul": 7210,
      "ĠKen": 7211,
      "Ġstatements": 7212,
      "Which": 7213,
      "bound": 7214,
      "esty": 7215,
      "Ġstanding": 7216,
      "ĠLouis": 7217,
      "ivered": 7218,
      "Ġdeals": 7219,
      "Ġcomprom": 7220,
      "kins": 7221,
      "heat": 7222,
      "ĠOTHER": 7223,
      "Ġreserv": 7224,
      "ĠINTO": 7225,
      "Ġconstitut": 7226,
      "Ġmoral": 7227,
      "ĠBoth": 7228,
      "ITE": 7229,
      "Ġsuggesting": 7230,
      "depth": 7231,
      "pread": 7232,
      "Ġsamples": 7233,
      "Ġfan": 7234,
      "Ġthin": 7235,
      "ĠBrown": 7236,
      "etheless": 7237,
      "Ġparent": 7238,
      "Ġdiscovered": 7239,
      "Ġcrime": 7240,
      "urns": 7241,
      "Ġperhaps": 7242,
      "Ġspices": 7243,
      "ĠTHEN": 7244,
      "Ġentities": 7245,
      "why": 7246,
      "ora": 7247,
      "Ġcampus": 7248,
      "inton": 7249,
      "rimination": 7250,
      "wind": 7251,
      "ĠArch": 7252,
      "Ġencaps": 7253,
      "Ġencounter": 7254,
      "Ġdelivering": 7255,
      "Ġannounce": 7256,
      "food": 7257,
      "tion": 7258,
      "tail": 7259,
      "Ġbeat": 7260,
      "Ġscope": 7261,
      "ĠThomas": 7262,
      "Ġparticipating": 7263,
      "ĠJohnson": 7264,
      "PER": 7265,
      "Ġang": 7266,
      "Ġdecide": 7267,
      "idden": 7268,
      "agues": 7269,
      "nowned": 7270,
      "idespread": 7271,
      "Ġbalanced": 7272,
      "Ġwants": 7273,
      "ĠBi": 7274,
      "Ġdebate": 7275,
      "secut": 7276,
      "Ġrough": 7277,
      "Ġperforming": 7278,
      "Ġdimensions": 7279,
      "Ġappealing": 7280,
      "Ġfestival": 7281,
      "ione": 7282,
      "Ġnorth": 7283,
      "atholic": 7284,
      "MO": 7285,
      "orship": 7286,
      "Ġstatistics": 7287,
      "RY": 7288,
      "ygen": 7289,
      "Ġcop": 7290,
      "Ġgarden": 7291,
      "ĠWall": 7292,
      "Ġdiscovery": 7293,
      "REE": 7294,
      "Ġcombine": 7295,
      "ĠParty": 7296,
      "Ġinherent": 7297,
      "Ġ2008": 7298,
      "Ġaside": 7299,
      "ĠLab": 7300,
      "Ġperiods": 7301,
      "Ġcollaborative": 7302,
      "Ġrepresentation": 7303,
      "Ġintegrating": 7304,
      "Ġvariations": 7305,
      "cut": 7306,
      "Ġformation": 7307,
      "mus": 7308,
      "Ġaren": 7309,
      "Ġgarn": 7310,
      "Ġpopulations": 7311,
      "Ġhaz": 7312,
      "oven": 7313,
      "Ġque": 7314,
      "Ġveter": 7315,
      "Ġholding": 7316,
      "Ġextremely": 7317,
      "Ġscheduled": 7318,
      "Ġ,": 7319,
      "ĠWomen": 7320,
      "Ġincreasingly": 7321,
      "pop": 7322,
      "ĠID": 7323,
      "riage": 7324,
      "Ġtherefore": 7325,
      "Ġtransparency": 7326,
      "Ġcollective": 7327,
      "ABLE": 7328,
      "give": 7329,
      "za": 7330,
      "owers": 7331,
      "Ġstuff": 7332,
      "Ġalmond": 7333,
      "Ġshowed": 7334,
      "Ġmovies": 7335,
      "Ġsubsequent": 7336,
      "Ġcontex": 7337,
      "Ġbot": 7338,
      "otton": 7339,
      "ĠDID": 7340,
      "Ġmemories": 7341,
      "Ġinvestments": 7342,
      "ĠFrank": 7343,
      "Ġadjustments": 7344,
      "Ġappreciation": 7345,
      "ĠTE": 7346,
      "ustain": 7347,
      "Ġadults": 7348,
      "case": 7349,
      "ĠJournal": 7350,
      "ĊĠĠĠ": 7351,
      "Ġstars": 7352,
      "ĠEgypt": 7353,
      "Ġlargely": 7354,
      "Ġpanel": 7355,
      "personal": 7356,
      "Ġbath": 7357,
      "ĠRet": 7358,
      "Ġvaried": 7359,
      "Ġheavily": 7360,
      "Ġbreath": 7361,
      "Ġwedding": 7362,
      "Ġdu": 7363,
      "ĠAud": 7364,
      "Ġperception": 7365,
      "Ġcommission": 7366,
      "Ġprogramming": 7367,
      "Ġequal": 7368,
      "website": 7369,
      "igan": 7370,
      "Ġplate": 7371,
      "Ġspeak": 7372,
      "ĠStudents": 7373,
      "Ġvinegar": 7374,
      "MA": 7375,
      "Ġsouth": 7376,
      "Ġtradition": 7377,
      "Ġoptimal": 7378,
      "holder": 7379,
      "Ġgained": 7380,
      "Ġexciting": 7381,
      "Ã³n": 7382,
      "Ġpod": 7383,
      "Ġhuge": 7384,
      "Ġansw": 7385,
      "say": 7386,
      "Ġshed": 7387,
      "Ġmood": 7388,
      "Ġdess": 7389,
      "ĠStep": 7390,
      "ĠColor": 7391,
      "Ġhundred": 7392,
      "ucky": 7393,
      "Ġcounsel": 7394,
      "Ġleague": 7395,
      "Ġexclusive": 7396,
      "Ġclosed": 7397,
      "ĠUSA": 7398,
      "ĠCheck": 7399,
      "Ġintegral": 7400,
      "Ġdecline": 7401,
      "Ġri": 7402,
      "Ġpush": 7403,
      "Ġaccident": 7404,
      "ĠVirgin": 7405,
      "Ġpossibility": 7406,
      "WAY": 7407,
      "story": 7408,
      "thesis": 7409,
      "Ġmanip": 7410,
      "ĠStand": 7411,
      "Your": 7412,
      "Ġstages": 7413,
      "ĠBen": 7414,
      "somet": 7415,
      "amins": 7416,
      "ĠLook": 7417,
      "Ġsubstitute": 7418,
      "nesses": 7419,
      "ĠTHAN": 7420,
      "Ġreduces": 7421,
      "Ġlighting": 7422,
      "Ġcategories": 7423,
      "Get": 7424,
      "ittee": 7425,
      "adium": 7426,
      "ĠPan": 7427,
      "Ġdepends": 7428,
      "party": 7429,
      "Ġvanilla": 7430,
      "Ġtun": 7431,
      "utch": 7432,
      "Ġpert": 7433,
      "Ġbrother": 7434,
      "Ġwait": 7435,
      "ĠAtl": 7436,
      "Ġprecision": 7437,
      "ĠColl": 7438,
      "ushed": 7439,
      "Ġchips": 7440,
      "Ġmanual": 7441,
      "Ġqualities": 7442,
      "Ġprominent": 7443,
      "content": 7444,
      "Ġretailers": 7445,
      "non": 7446,
      "crete": 7447,
      "Ġautomation": 7448,
      "Ġofficer": 7449,
      "ĠPrem": 7450,
      "ĠPeople": 7451,
      "Ġclarity": 7452,
      "Ġaesthetic": 7453,
      "Ġalleged": 7454,
      "Ġdefined": 7455,
      "Ġhardware": 7456,
      "Ġpercentage": 7457,
      "PO": 7458,
      "ĠFree": 7459,
      "avour": 7460,
      "Ġfilter": 7461,
      "ĠGet": 7462,
      "necess": 7463,
      "Ġgenuine": 7464,
      "Ġdeadline": 7465,
      "Ġmitigate": 7466,
      "Sm": 7467,
      "cher": 7468,
      "ician": 7469,
      "Ġelaborate": 7470,
      "Ġcontexts": 7471,
      "Ġcatch": 7472,
      "ĠPO": 7473,
      "Ġformed": 7474,
      "bour": 7475,
      "ca": 7476,
      "acts": 7477,
      "Ġrefrig": 7478,
      "Ġspeaking": 7479,
      "Ġharmful": 7480,
      "ĠFund": 7481,
      "Ġappreciate": 7482,
      "sembly": 7483,
      "bro": 7484,
      "Ġwidespread": 7485,
      "ĠBer": 7486,
      "Ġcultiv": 7487,
      "poons": 7488,
      "ato": 7489,
      "Ġbanks": 7490,
      "asm": 7491,
      "ĠSand": 7492,
      "inder": 7493,
      "Ġpayments": 7494,
      "Ġneighborhood": 7495,
      "advant": 7496,
      "Ġtap": 7497,
      "still": 7498,
      "ĠDIS": 7499,
      "backs": 7500,
      "IES": 7501,
      "Ġwasn": 7502,
      "ĠJose": 7503,
      "Am": 7504,
      "days": 7505,
      "inding": 7506,
      "Ġdrugs": 7507,
      "Ġbasketball": 7508,
      "Ġjew": 7509,
      "Ġrestaurants": 7510,
      "Not": 7511,
      "Ġstrict": 7512,
      "Ġperfectly": 7513,
      "Ġduration": 7514,
      "Ġagriculture": 7515,
      "May": 7516,
      "Ġsort": 7517,
      "iger": 7518,
      "Ġprison": 7519,
      "Ġpassing": 7520,
      "onym": 7521,
      "ealand": 7522,
      "ooth": 7523,
      "icular": 7524,
      "Ġscored": 7525,
      "Ġmatters": 7526,
      "Ġmotion": 7527,
      "isp": 7528,
      "Ġdried": 7529,
      "ĠItaly": 7530,
      "aze": 7531,
      "elfare": 7532,
      "olicy": 7533,
      "Ġendeavors": 7534,
      "Ġly": 7535,
      "reland": 7536,
      "children": 7537,
      "Ġstance": 7538,
      "ilarly": 7539,
      "ĠMedical": 7540,
      "Ġmerely": 7541,
      "FF": 7542,
      "ĠIll": 7543,
      "Ġshipping": 7544,
      "obally": 7545,
      "Ġcolon": 7546,
      "inkle": 7547,
      "ĠArts": 7548,
      "Ġhealing": 7549,
      "ĠHaw": 7550,
      "ĠLos": 7551,
      "Ġdevelopments": 7552,
      "onsequ": 7553,
      "too": 7554,
      "Ġpray": 7555,
      "Ġbear": 7556,
      "Ġdirected": 7557,
      "Ġphotograph": 7558,
      "ĠWindows": 7559,
      "Joh": 7560,
      "namon": 7561,
      "whel": 7562,
      "Ġign": 7563,
      "illet": 7564,
      "Ġkid": 7565,
      "Ġlegisl": 7566,
      "reed": 7567,
      "Ġonions": 7568,
      "Ġagent": 7569,
      "ĠProduct": 7570,
      "Ġpromotes": 7571,
      "Ġvegetable": 7572,
      "Ġwindow": 7573,
      "Ġtech": 7574,
      "Ġdefensive": 7575,
      "Ġintent": 7576,
      "Cent": 7577,
      "rs": 7578,
      "orse": 7579,
      "ĠBet": 7580,
      "Ġrural": 7581,
      "Ġtea": 7582,
      "Ġagricultural": 7583,
      "Ġdialogue": 7584,
      "29": 7585,
      "cious": 7586,
      "Ġitem": 7587,
      "ograp": 7588,
      "Ġaccurately": 7589,
      "Ġrevolution": 7590,
      "Ġelectricity": 7591,
      "Ġalleg": 7592,
      "65": 7593,
      "Ġreliability": 7594,
      "Ġconsiderations": 7595,
      "Ġopened": 7596,
      "Ġpopularity": 7597,
      "ĠCanadian": 7598,
      "Ġestimated": 7599,
      "TS": 7600,
      "benef": 7601,
      "imm": 7602,
      "Ġdefinitely": 7603,
      "stract": 7604,
      "oto": 7605,
      "rape": 7606,
      "ĠDAY": 7607,
      "Ġamounts": 7608,
      "Ġfirms": 7609,
      "Ġenroll": 7610,
      "Ġperceived": 7611,
      "Ġagents": 7612,
      "Ġupl": 7613,
      "prot": 7614,
      "Ġeveryday": 7615,
      "ĠEnter": 7616,
      "Ġantioxid": 7617,
      "family": 7618,
      "ĠUsing": 7619,
      "Ġmarketers": 7620,
      "Ġdetermined": 7621,
      "ĠAC": 7622,
      "obs": 7623,
      "Ġlayers": 7624,
      "Ġlegislation": 7625,
      "Ġretain": 7626,
      "igins": 7627,
      "Ġshop": 7628,
      "early": 7629,
      "Ġuns": 7630,
      "Ġpersu": 7631,
      "Ġmetaphor": 7632,
      "ĠPoetry": 7633,
      "ĠMusic": 7634,
      "Ġcuis": 7635,
      "Ġocean": 7636,
      "aints": 7637,
      "ĠNOW": 7638,
      "Ġplanned": 7639,
      "Ġdurability": 7640,
      "LED": 7641,
      "ĠFort": 7642,
      "Ġcommand": 7643,
      "Ġinstruments": 7644,
      "Ġdisp": 7645,
      "assion": 7646,
      "Ġphrases": 7647,
      "Ġinfect": 7648,
      "Ġexplicit": 7649,
      "DS": 7650,
      "Ġheard": 7651,
      "erb": 7652,
      "Ġrecon": 7653,
      "ĠBeyond": 7654,
      "Ġdogs": 7655,
      "Ġpartnerships": 7656,
      "foot": 7657,
      "amm": 7658,
      "Ġvoc": 7659,
      "Ġship": 7660,
      "ĠJe": 7661,
      "isticated": 7662,
      "Cons": 7663,
      "Ġrenowned": 7664,
      "ĠBal": 7665,
      "ĠKey": 7666,
      "Ġprioritize": 7667,
      "istant": 7668,
      "Ġadequ": 7669,
      "Ġoccurred": 7670,
      "ĠMexico": 7671,
      "name": 7672,
      "Ġcompos": 7673,
      "Ġsavings": 7674,
      "ĠDirector": 7675,
      "Ess": 7676,
      "access": 7677,
      "ĠFollowing": 7678,
      "Ġexpanding": 7679,
      "âĦ": 7680,
      "itar": 7681,
      "Ġ29": 7682,
      "Tube": 7683,
      "Ġpoverty": 7684,
      "ĠLOO": 7685,
      "irement": 7686,
      "development": 7687,
      "icted": 7688,
      "Ġestablishment": 7689,
      "small": 7690,
      "born": 7691,
      "raction": 7692,
      "ipes": 7693,
      "Ġminute": 7694,
      "IDE": 7695,
      "Ġmoisture": 7696,
      "ulf": 7697,
      "ĠMain": 7698,
      "ĠVERY": 7699,
      "Ġkept": 7700,
      "ĠReal": 7701,
      "Ġsongs": 7702,
      "host": 7703,
      "iking": 7704,
      "ady": 7705,
      "Ġvend": 7706,
      "ĠPE": 7707,
      "Ġconsideration": 7708,
      "Ġpasta": 7709,
      "Ġinclusive": 7710,
      "Ġapologize": 7711,
      "vol": 7712,
      "Ġuniverse": 7713,
      "phones": 7714,
      "Ġsettle": 7715,
      "Ġinfluences": 7716,
      "Ġaddresses": 7717,
      "Ġstructured": 7718,
      "Ġdealing": 7719,
      "umer": 7720,
      "Ġchief": 7721,
      "Ġfest": 7722,
      "ikes": 7723,
      "ĠConsider": 7724,
      "ĠRussian": 7725,
      "IRE": 7726,
      "Ġfib": 7727,
      "Ġdiffer": 7728,
      "Ingredients": 7729,
      "follow": 7730,
      "ls": 7731,
      "Ġleverage": 7732,
      "ĠLong": 7733,
      "Ġoblig": 7734,
      "position": 7735,
      "ĠCy": 7736,
      "Ġtrials": 7737,
      "Ġnorms": 7738,
      "Ġcrisp": 7739,
      "ĠTest": 7740,
      "igious": 7741,
      "Ġcompr": 7742,
      "Ġmentioning": 7743,
      "Ġconflicts": 7744,
      "Ġindicating": 7745,
      "Ġconvenient": 7746,
      "pool": 7747,
      "Ġdinner": 7748,
      "ackson": 7749,
      "experience": 7750,
      "Ġphilosophy": 7751,
      "Ġsignal": 7752,
      "important": 7753,
      "tips": 7754,
      "Ġfell": 7755,
      "Ġpreference": 7756,
      "Ġrefine": 7757,
      "Ġcarried": 7758,
      "Ġnuts": 7759,
      "Ġreinfor": 7760,
      "Ġchair": 7761,
      "Ġphotography": 7762,
      "ITTLE": 7763,
      "lete": 7764,
      "etition": 7765,
      "ĠCorpor": 7766,
      "Ġsigned": 7767,
      "ampion": 7768,
      "ADE": 7769,
      "ĠFrancisco": 7770,
      "Ġ:": 7771,
      "comfort": 7772,
      "Ġintellectual": 7773,
      "Ġfamiliar": 7774,
      "Ġpertinent": 7775,
      "elry": 7776,
      "ava": 7777,
      "Ġrequiring": 7778,
      "Ġminimal": 7779,
      "ugg": 7780,
      "Ġswe": 7781,
      "Ġabuse": 7782,
      "ĠInf": 7783,
      "Ġportfolio": 7784,
      "same": 7785,
      "Ġranging": 7786,
      "Ġpil": 7787,
      "uties": 7788,
      "Ġstored": 7789,
      "akistan": 7790,
      "Ġshel": 7791,
      "Ġexempl": 7792,
      "oval": 7793,
      "Ġrelief": 7794,
      "Ġmarine": 7795,
      "Ġinclusion": 7796,
      "itivity": 7797,
      "Ġrank": 7798,
      "Ġshifting": 7799,
      "strateg": 7800,
      "igenous": 7801,
      "gn": 7802,
      "Ġbiod": 7803,
      "Ġ194": 7804,
      "ĠBoston": 7805,
      "Ġdil": 7806,
      "ultane": 7807,
      "Ġspark": 7808,
      "Ġpharm": 7809,
      "BLE": 7810,
      "Let": 7811,
      "pack": 7812,
      "essor": 7813,
      "ĠMel": 7814,
      "ĠDisc": 7815,
      "Ġneuro": 7816,
      "Ġdiscl": 7817,
      "Ġhousehold": 7818,
      "abetes": 7819,
      "Ġrelatively": 7820,
      "Ġ2020": 7821,
      "Per": 7822,
      "Ġsuc": 7823,
      "Ġconsistently": 7824,
      "ĠMuslim": 7825,
      "Ġmount": 7826,
      "Ġgene": 7827,
      "Ġfinance": 7828,
      "Return": 7829,
      "URN": 7830,
      "ĠMaster": 7831,
      "ĠLITTLE": 7832,
      "Ġtranslation": 7833,
      "airy": 7834,
      "Ġearned": 7835,
      "Ġasking": 7836,
      "driven": 7837,
      "Ġboundaries": 7838,
      "few": 7839,
      "iat": 7840,
      "kind": 7841,
      "Ġinterface": 7842,
      "Ġsquare": 7843,
      "Ġadoption": 7844,
      "Ġreferring": 7845,
      "âĦ¢": 7846,
      "Ġindicates": 7847,
      "Ġhabits": 7848,
      "Ġstarts": 7849,
      "BT": 7850,
      "Ġequally": 7851,
      "novation": 7852,
      "gency": 7853,
      "inch": 7854,
      "Ġoriginates": 7855,
      "Ġecosystem": 7856,
      "recipe": 7857,
      "Ġshapes": 7858,
      "ancer": 7859,
      "ysical": 7860,
      "graduate": 7861,
      "until": 7862,
      "aturally": 7863,
      "Ġawarded": 7864,
      "Ġkilled": 7865,
      "Ġtrail": 7866,
      "Ġconstant": 7867,
      "Ġrevealed": 7868,
      "ĠLIKE": 7869,
      "aylor": 7870,
      "Ġintrig": 7871,
      "Ġglobally": 7872,
      "inn": 7873,
      "stac": 7874,
      "Ġisland": 7875,
      "Ġherbs": 7876,
      "Ġcharged": 7877,
      "Ġscholarship": 7878,
      "Gl": 7879,
      "pres": 7880,
      "tell": 7881,
      "Ġchronic": 7882,
      "Ġcontinu": 7883,
      "OTHER": 7884,
      "Ġportion": 7885,
      "Ġmissing": 7886,
      "Ġorders": 7887,
      "ĠLight": 7888,
      "alls": 7889,
      "Ġexplo": 7890,
      "Ġcontinuing": 7891,
      "Ġforecast": 7892,
      "Ġscheme": 7893,
      "Once": 7894,
      "ĠChoose": 7895,
      "Ġsky": 7896,
      "ĠAsian": 7897,
      "Ġgrade": 7898,
      "Ġoccasion": 7899,
      "ĠCentre": 7900,
      "Just": 7901,
      "ĠJer": 7902,
      "Ġcustomized": 7903,
      "Ġfrequency": 7904,
      "Ġmanufacturers": 7905,
      "var": 7906,
      "ĠWay": 7907,
      "ĠRemember": 7908,
      "Ġmemorable": 7909,
      "government": 7910,
      "Ġtast": 7911,
      "ĠTimes": 7912,
      "Ġstem": 7913,
      "ript": 7914,
      "Ġdownt": 7915,
      "ĠTim": 7916,
      "Ġaligns": 7917,
      "Ġdrawing": 7918,
      "ĠRepublican": 7919,
      "Ġsophisticated": 7920,
      "Ġreward": 7921,
      "Ġspecified": 7922,
      "Ġstronger": 7923,
      "During": 7924,
      "hard": 7925,
      "Ġfle": 7926,
      "Ġgap": 7927,
      "ĠEnjoy": 7928,
      "Ġcollected": 7929,
      "Ġdivision": 7930,
      "cers": 7931,
      "Ġconsiderable": 7932,
      "Ġcommittee": 7933,
      "Ġpackaging": 7934,
      "Ġconcentration": 7935,
      "Ġfascinating": 7936,
      "ĠJo": 7937,
      "Ġchannel": 7938,
      "cript": 7939,
      "ĠWriting": 7940,
      "ht": 7941,
      "Ġbike": 7942,
      "Ġboy": 7943,
      "Ġindex": 7944,
      "Ġintense": 7945,
      "Ġalternatives": 7946,
      "Ġrefere": 7947,
      "pled": 7948,
      "Ġindicate": 7949,
      "Ġdelivered": 7950,
      "Ġlisten": 7951,
      "Ġmuscle": 7952,
      "scale": 7953,
      "Ġstudying": 7954,
      "Ġrelevance": 7955,
      "Ġembra": 7956,
      "Ġflowers": 7957,
      "Ġnutrients": 7958,
      "ĠTIME": 7959,
      "yer": 7960,
      "Ġsod": 7961,
      "big": 7962,
      "Ġstreet": 7963,
      "enders": 7964,
      "Ġgenerated": 7965,
      "Ġresulted": 7966,
      "igrants": 7967,
      "irmed": 7968,
      "199": 7969,
      "break": 7970,
      "Ġrenewable": 7971,
      "Ġreaction": 7972,
      "ĠIdent": 7973,
      "Ġreflection": 7974,
      "Ġoppon": 7975,
      "Ġpretty": 7976,
      "gress": 7977,
      "eding": 7978,
      "Ġcalories": 7979,
      "Ġemerging": 7980,
      "Ġorange": 7981,
      "Ġvacc": 7982,
      "Ġadvisable": 7983,
      "Ġacquisition": 7984,
      "Ġmac": 7985,
      "Ġcomputing": 7986,
      "Ġathletes": 7987,
      "eters": 7988,
      "ĠSC": 7989,
      "ĠWell": 7990,
      "Ġregardless": 7991,
      "fish": 7992,
      "Ġhus": 7993,
      "Ġmeets": 7994,
      "Ġspan": 7995,
      "Ġbiggest": 7996,
      "Ġmultifaceted": 7997,
      "Ġtransactions": 7998,
      "Ġaffects": 7999,
      "Ġmessaging": 8000,
      "Ġjoined": 8001,
      "looking": 8002,
      "alax": 8003,
      "Ġfly": 8004,
      "Ġlasting": 8005,
      "Ġopposition": 8006,
      "vy": 8007,
      "ĠTor": 8008,
      "ĠAngeles": 8009,
      "four": 8010,
      "Ġnative": 8011,
      "next": 8012,
      "Ġthanks": 8013,
      "Ġimpacted": 8014,
      "oices": 8015,
      "Ġaw": 8016,
      "ano": 8017,
      "alent": 8018,
      "Ġchances": 8019,
      "Ġownership": 8020,
      "ALLY": 8021,
      "Ġnations": 8022,
      "ĠAwards": 8023,
      "ISH": 8024,
      "Ġmatches": 8025,
      "ĠABOUT": 8026,
      "reens": 8027,
      "redient": 8028,
      "Ġpasseng": 8029,
      "Ġminerals": 8030,
      "ĠCommittee": 8031,
      "Ġcelebrated": 8032,
      "Ġdining": 8033,
      "ĠConsequ": 8034,
      "ĠMix": 8035,
      "Ġkick": 8036,
      "Ġintervention": 8037,
      "roduction": 8038,
      "bles": 8039,
      "Ġdiscrimination": 8040,
      "inson": 8041,
      "ki": 8042,
      "throp": 8043,
      "izza": 8044,
      "stood": 8045,
      "Ġconventional": 8046,
      "ĠOh": 8047,
      "Ġacceler": 8048,
      "Ġtestament": 8049,
      "FA": 8050,
      "WN": 8051,
      "thm": 8052,
      "Ġoutline": 8053,
      "Ġtwist": 8054,
      "building": 8055,
      "obby": 8056,
      "Ġviewers": 8057,
      "ĠEnergy": 8058,
      "Ġtalking": 8059,
      "Ġexhibit": 8060,
      "Me": 8061,
      "alse": 8062,
      "Ġdaughter": 8063,
      "eli": 8064,
      "Ġnine": 8065,
      "Ġgolf": 8066,
      "ĠOVER": 8067,
      "Ġintroduce": 8068,
      "Ġtournament": 8069,
      "Ġprospects": 8070,
      "fire": 8071,
      "mates": 8072,
      "Ġpra": 8073,
      "osa": 8074,
      "Ġdevelopers": 8075,
      "Ġmeetings": 8076,
      "Ġforest": 8077,
      "Ġ90": 8078,
      "ĠStory": 8079,
      "Ġprofic": 8080,
      "blem": 8081,
      "ĠZealand": 8082,
      "rd": 8083,
      "OUGHT": 8084,
      "Ġmail": 8085,
      "ĠSol": 8086,
      "Ġbeach": 8087,
      "Ġdecades": 8088,
      "Ġtargets": 8089,
      ".)": 8090,
      "Ġyellow": 8091,
      "Ġmyself": 8092,
      "Ġseeing": 8093,
      "Ġpresenting": 8094,
      "Ġhappened": 8095,
      "ĠCatholic": 8096,
      "Ġevolving": 8097,
      "Ġovercome": 8098,
      "Ġdefe": 8099,
      "Ġcalling": 8100,
      "Ġvitamins": 8101,
      "34": 8102,
      "jo": 8103,
      "Ġ+": 8104,
      "really": 8105,
      "Ġwww": 8106,
      "ĠAp": 8107,
      "Ġvent": 8108,
      "ĠPres": 8109,
      "ictor": 8110,
      "Ġstrengths": 8111,
      "Ġcrafted": 8112,
      "II": 8113,
      "course": 8114,
      "andom": 8115,
      "ĠHam": 8116,
      "Ġpersonnel": 8117,
      "Ġcareful": 8118,
      "ĠAltern": 8119,
      "Che": 8120,
      "Ġtried": 8121,
      "Ġnarrow": 8122,
      "oses": 8123,
      "36": 8124,
      "iti": 8125,
      "together": 8126,
      "plays": 8127,
      "Ġincidents": 8128,
      "Ġdiscounts": 8129,
      "Ġregulation": 8130,
      "Ġescal": 8131,
      "icating": 8132,
      "Ġassociation": 8133,
      "Ġfailed": 8134,
      "nic": 8135,
      "Ġgone": 8136,
      "Ġpersonality": 8137,
      "Ġinflam": 8138,
      "Ġmargin": 8139,
      "2018": 8140,
      "ĠSouthern": 8141,
      "Remember": 8142,
      "edu": 8143,
      "Ġstre": 8144,
      "mented": 8145,
      "ĠBefore": 8146,
      "ella": 8147,
      "Ġsignals": 8148,
      "iana": 8149,
      "issues": 8150,
      "ospital": 8151,
      "Ġdifficulties": 8152,
      "ĠSpecial": 8153,
      "aired": 8154,
      "Ġtough": 8155,
      "icide": 8156,
      "ĠMass": 8157,
      "estin": 8158,
      "ĠWild": 8159,
      "ĠFA": 8160,
      "Ġdoctor": 8161,
      "Ġoverwhel": 8162,
      "ĠSciences": 8163,
      "Ġvarying": 8164,
      "Ġluxury": 8165,
      "bul": 8166,
      "million": 8167,
      "ĠIreland": 8168,
      "abil": 8169,
      "ĠPacific": 8170,
      "ĠNFL": 8171,
      "ARS": 8172,
      "Ġpaint": 8173,
      "MENT": 8174,
      "owns": 8175,
      "Ġsurgery": 8176,
      "Ġoxygen": 8177,
      "Ġperman": 8178,
      "Ġoverlook": 8179,
      "Ġconserv": 8180,
      "ĠSn": 8181,
      "ĠRad": 8182,
      "Ġkit": 8183,
      "Ġsubstitut": 8184,
      "arrant": 8185,
      "Ġnecessity": 8186,
      "Ġstead": 8187,
      "rix": 8188,
      "Ġadmission": 8189,
      "ĠKnow": 8190,
      "Ġamid": 8191,
      "Ġexplan": 8192,
      "Ġinterpretation": 8193,
      "against": 8194,
      "ĠFederal": 8195,
      "ĠDi": 8196,
      "lication": 8197,
      "conduct": 8198,
      "Ġcovering": 8199,
      "Ġindependence": 8200,
      "andon": 8201,
      "ortion": 8202,
      "Ġcircle": 8203,
      "Ġmachines": 8204,
      "ĠKorea": 8205,
      "CD": 8206,
      "ĠHOW": 8207,
      "Ġcompletion": 8208,
      "Ġpromotional": 8209,
      "Ġmonthly": 8210,
      "Ġcertification": 8211,
      "omes": 8212,
      "ĠPER": 8213,
      "Ġhealthier": 8214,
      "Ġrecorded": 8215,
      "High": 8216,
      "Ġinfluencing": 8217,
      "Ġmotivation": 8218,
      "Ass": 8219,
      "mind": 8220,
      "ouch": 8221,
      "role": 8222,
      "ĠTour": 8223,
      "ifth": 8224,
      "Ġautomatically": 8225,
      "plant": 8226,
      "Ġseat": 8227,
      "Ġseasons": 8228,
      "beh": 8229,
      "Ġ31": 8230,
      "ĠAFTER": 8231,
      "ĠEnc": 8232,
      "atever": 8233,
      "ĠChief": 8234,
      "Ġflight": 8235,
      "Ġcounty": 8236,
      "Ġderived": 8237,
      "Ġsomew": 8238,
      "38": 8239,
      "DF": 8240,
      "ML": 8241,
      "ras": 8242,
      "Ġborder": 8243,
      "Ġswim": 8244,
      "Ġcryst": 8245,
      "amic": 8246,
      "Ġeleg": 8247,
      "Ġstraightforward": 8248,
      "elly": 8249,
      "present": 8250,
      "Ġtag": 8251,
      "Ġobstac": 8252,
      "ĠThus": 8253,
      "Ġinspire": 8254,
      "Ġdelightful": 8255,
      "SP": 8256,
      "might": 8257,
      "Ġintention": 8258,
      "Ġsyrup": 8259,
      "Ġconfig": 8260,
      "ĠSecret": 8261,
      "vision": 8262,
      "Ġpork": 8263,
      "Ġleather": 8264,
      "ĠOper": 8265,
      "bert": 8266,
      "Ġ500": 8267,
      "Ġissued": 8268,
      "Ġsecuring": 8269,
      "Ġweapons": 8270,
      "ĠCarolina": 8271,
      "32": 8272,
      "ĠCivil": 8273,
      "Ġabsence": 8274,
      "Ġsilver": 8275,
      "AGE": 8276,
      "Ġwalking": 8277,
      "inity": 8278,
      "Ġwelfare": 8279,
      "Ġforth": 8280,
      "ĠLim": 8281,
      "sels": 8282,
      "ministration": 8283,
      "Ġversatility": 8284,
      "Social": 8285,
      "vin": 8286,
      "Ġmanif": 8287,
      "Ġdetection": 8288,
      "ATHER": 8289,
      "olitical": 8290,
      "ĠLand": 8291,
      "Ġoptimizing": 8292,
      "orgia": 8293,
      "Ġcloser": 8294,
      "Ã±": 8295,
      "ĠCost": 8296,
      "Ġsucceed": 8297,
      "gical": 8298,
      "Ġprove": 8299,
      "Ġhearing": 8300,
      "ĠRef": 8301,
      "Ġring": 8302,
      "Ġbroken": 8303,
      "Ġargue": 8304,
      "necessary": 8305,
      "draw": 8306,
      "owing": 8307,
      "Ġneck": 8308,
      "Ġversions": 8309,
      "Ġmixing": 8310,
      "Ġorigins": 8311,
      "ocated": 8312,
      "Ġplot": 8313,
      "Ġseconds": 8314,
      "Ġsliced": 8315,
      "anchester": 8316,
      "edge": 8317,
      "urb": 8318,
      "Ġforced": 8319,
      "Ġended": 8320,
      "Ġunderscore": 8321,
      "htt": 8322,
      "number": 8323,
      "Ġconcise": 8324,
      "osm": 8325,
      "ternational": 8326,
      "Ġdemographic": 8327,
      "Ġcorrespond": 8328,
      "iscal": 8329,
      "Ġscrut": 8330,
      "Pe": 8331,
      "solving": 8332,
      "ĠGen": 8333,
      "Ġaven": 8334,
      "olves": 8335,
      "Ġwonderful": 8336,
      "cat": 8337,
      "Ġrely": 8338,
      "Ġserver": 8339,
      "ĠSales": 8340,
      "INK": 8341,
      "Ġ35": 8342,
      "Ġsurpr": 8343,
      "Ġenduring": 8344,
      "Ġaircraft": 8345,
      "Ġbrowser": 8346,
      "Ġchemicals": 8347,
      "liam": 8348,
      "past": 8349,
      "stra": 8350,
      "Ġgent": 8351,
      "ĠCa": 8352,
      "ĠMur": 8353,
      "ĠHAS": 8354,
      "Ġinches": 8355,
      "Ġhappiness": 8356,
      "better": 8357,
      "ĠAGAIN": 8358,
      "39": 8359,
      "Ġtab": 8360,
      "sea": 8361,
      "ghan": 8362,
      "Ġmanagers": 8363,
      "Ġevolved": 8364,
      "Ġunderlying": 8365,
      "Ġsupportive": 8366,
      "lyn": 8367,
      "amel": 8368,
      "Ġartificial": 8369,
      "ĠKNOW": 8370,
      "test": 8371,
      "Ġreactions": 8372,
      "ĠiPhone": 8373,
      "Ġstruggles": 8374,
      "giving": 8375,
      "eness": 8376,
      "ĠAccess": 8377,
      "redit": 8378,
      "insp": 8379,
      "Ġgrat": 8380,
      "%.": 8381,
      "Ġerror": 8382,
      "ĠLibrary": 8383,
      "Ġworkforce": 8384,
      "ĠSea": 8385,
      "Ġrestrictions": 8386,
      "UE": 8387,
      "Ġtrained": 8388,
      "ĠLee": 8389,
      "Ġ70": 8390,
      "University": 8391,
      "Ġexpanded": 8392,
      "inkedIn": 8393,
      "Ab": 8394,
      "iot": 8395,
      "ali": 8396,
      "Ġthrow": 8397,
      "open": 8398,
      "Ġknew": 8399,
      "Ġmini": 8400,
      "brid": 8401,
      "Ġsuppl": 8402,
      "Ġcreamy": 8403,
      "ĠParis": 8404,
      "Ġalgorithms": 8405,
      "rapeut": 8406,
      "FORE": 8407,
      "Ġrecruit": 8408,
      "Stud": 8409,
      "Ġsexual": 8410,
      "ivals": 8411,
      "emade": 8412,
      "Ġbiological": 8413,
      "ĠPrime": 8414,
      "ĠNetwork": 8415,
      "uster": 8416,
      "Ġgirls": 8417,
      "human": 8418,
      "wear": 8419,
      "ĠDen": 8420,
      "blog": 8421,
      "ĠDemocratic": 8422,
      "Ġride": 8423,
      "Ġdiscount": 8424,
      "reading": 8425,
      "ĠDemocr": 8426,
      "Ġgear": 8427,
      "Ġvisually": 8428,
      "Ġaccessibility": 8429,
      "Ġlistening": 8430,
      "ertation": 8431,
      "ĠScot": 8432,
      "Ġfriendly": 8433,
      "Ġarguments": 8434,
      "Ġcock": 8435,
      "Ġparking": 8436,
      "Ġinterviews": 8437,
      "Ġconvenience": 8438,
      "products": 8439,
      "isers": 8440,
      "ĠJack": 8441,
      "Ġcoal": 8442,
      "Ġencompasses": 8443,
      "Ġbegins": 8444,
      "unior": 8445,
      "ĠInformation": 8446,
      "Ġgenre": 8447,
      "Having": 8448,
      "het": 8449,
      "ĠOnline": 8450,
      "ĠCreate": 8451,
      "xts": 8452,
      "ctors": 8453,
      "ĠNext": 8454,
      "Ġvoters": 8455,
      "Ġcontrolled": 8456,
      "liament": 8457,
      "range": 8458,
      "Ġsought": 8459,
      "Ġjack": 8460,
      "Ġauton": 8461,
      "called": 8462,
      "ultaneously": 8463,
      "Ġlosing": 8464,
      "ounce": 8465,
      "ceptions": 8466,
      "Ġscenarios": 8467,
      "ained": 8468,
      "ographical": 8469,
      "Ġadvocating": 8470,
      "IED": 8471,
      "erman": 8472,
      "Ġcredibility": 8473,
      "ĠControl": 8474,
      "ĠConsequently": 8475,
      "another": 8476,
      "ĠEst": 8477,
      "Ġfulfill": 8478,
      "economic": 8479,
      "review": 8480,
      "Ġwid": 8481,
      "Ġburn": 8482,
      "Ġginger": 8483,
      "event": 8484,
      "Ġultimate": 8485,
      "och": 8486,
      "ceive": 8487,
      "âĢĺ": 8488,
      "proof": 8489,
      "Ġzone": 8490,
      "itudes": 8491,
      "Ġpit": 8492,
      "ĠConnect": 8493,
      "Ġdraft": 8494,
      "ibraries": 8495,
      "NG": 8496,
      "Ġwet": 8497,
      "Ġlose": 8498,
      "izona": 8499,
      "ĠGovernment": 8500,
      "Ġstatistical": 8501,
      "Ġjudge": 8502,
      "Ġdressing": 8503,
      "large": 8504,
      "mation": 8505,
      "Ġadult": 8506,
      "Ġachievement": 8507,
      "Ġmechanism": 8508,
      "Ġdescribes": 8509,
      "Ġhospit": 8510,
      "cul": 8511,
      "Ġstable": 8512,
      "without": 8513,
      "ĠYouTube": 8514,
      "Ġinvesting": 8515,
      "ILE": 8516,
      "herence": 8517,
      "aware": 8518,
      "feel": 8519,
      "Ġimperative": 8520,
      "Sim": 8521,
      "uration": 8522,
      "Ġalt": 8523,
      "ĠWho": 8524,
      "izer": 8525,
      "ĠJim": 8526,
      "Ġtaxes": 8527,
      "nut": 8528,
      "Ġdriven": 8529,
      "Ġhistoric": 8530,
      "Ġpublis": 8531,
      "Ġempathy": 8532,
      "Ġanticipated": 8533,
      "Ġquote": 8534,
      "Ġhumor": 8535,
      "Ġauthentic": 8536,
      "Ġwaiting": 8537,
      "oning": 8538,
      "ĠFestival": 8539,
      "endar": 8540,
      "Ġevening": 8541,
      "ĠWeek": 8542,
      "ĠManager": 8543,
      "Ġassignment": 8544,
      "Ġwildlife": 8545,
      "olistic": 8546,
      "rific": 8547,
      "Ġske": 8548,
      "Ġdivers": 8549,
      "ĠCat": 8550,
      "Ġdispos": 8551,
      "ATED": 8552,
      "written": 8553,
      "little": 8554,
      "since": 8555,
      "iner": 8556,
      "Ġpaying": 8557,
      "Ge": 8558,
      "ivities": 8559,
      "hering": 8560,
      "ĠJud": 8561,
      "Ġbaseball": 8562,
      "ua": 8563,
      "Ġvs": 8564,
      "ĠFed": 8565,
      "Ġcenturies": 8566,
      "Under": 8567,
      "quest": 8568,
      "ĠJones": 8569,
      "Ġnecessit": 8570,
      "Ġillegal": 8571,
      "Med": 8572,
      "ĠCr": 8573,
      "Ġunexpected": 8574,
      "Ġhero": 8575,
      "empts": 8576,
      "ĠFarm": 8577,
      "uke": 8578,
      "Ġ=": 8579,
      "Ġking": 8580,
      "ĠPur": 8581,
      "ACT": 8582,
      "Ġmur": 8583,
      "Ġshut": 8584,
      "WH": 8585,
      "passage": 8586,
      "ĠJackson": 8587,
      "Ġutility": 8588,
      "ecutive": 8589,
      "Ġtablespoon": 8590,
      "!\"": 8591,
      "otive": 8592,
      "Ġasset": 8593,
      "Ġingredient": 8594,
      "Ġdomain": 8595,
      "Ġsurvival": 8596,
      "TY": 8597,
      "ĠToday": 8598,
      "ulates": 8599,
      "Ġadm": 8600,
      "ĠJon": 8601,
      "Ġmining": 8602,
      "Ġearn": 8603,
      "Finally": 8604,
      "Ġcelebration": 8605,
      "isting": 8606,
      "ĠOUR": 8607,
      "commerce": 8608,
      "lla": 8609,
      "Ġecosystems": 8610,
      "fight": 8611,
      "zed": 8612,
      "Ġgall": 8613,
      "Ġrising": 8614,
      "Ġinterventions": 8615,
      "ICK": 8616,
      "Ġbreaking": 8617,
      "Ġdipl": 8618,
      "ulpt": 8619,
      "uma": 8620,
      "ĠTOO": 8621,
      "Ġoriginally": 8622,
      "Ġelectron": 8623,
      "Ġpursue": 8624,
      "theast": 8625,
      "Ġmyth": 8626,
      "Ġdecl": 8627,
      "Ġappeared": 8628,
      "Ġdemonstrated": 8629,
      "Ed": 8630,
      "ĠMu": 8631,
      "Ġjump": 8632,
      "Ġminimize": 8633,
      "alleng": 8634,
      "RESS": 8635,
      "Ġfeels": 8636,
      "Ġnegoti": 8637,
      "Will": 8638,
      "ĠConference": 8639,
      "ĠMartin": 8640,
      "uls": 8641,
      "Ġves": 8642,
      "Ġpeppers": 8643,
      "Ġskillet": 8644,
      "Ġfollowers": 8645,
      "Ġnoise": 8646,
      "Ġexamination": 8647,
      "Ġinfluential": 8648,
      "Ġnursing": 8649,
      "jud": 8650,
      "osit": 8651,
      "Ġattending": 8652,
      "Ġaccessories": 8653,
      "Ġprotecting": 8654,
      "PP": 8655,
      "Po": 8656,
      "Ġstorm": 8657,
      "Ġdelay": 8658,
      "Ġgenerations": 8659,
      "bridge": 8660,
      "Ġtailor": 8661,
      "Ġfarmers": 8662,
      "ĠGREAT": 8663,
      "following": 8664,
      "recent": 8665,
      "Ġcuts": 8666,
      "Ġsentences": 8667,
      "Ġcriticism": 8668,
      "37": 8669,
      "BER": 8670,
      "rot": 8671,
      "Ġencount": 8672,
      "Ġentrepreneurs": 8673,
      "vard": 8674,
      "Ġpace": 8675,
      "Ġod": 8676,
      "Ġmob": 8677,
      "ĠHen": 8678,
      "Ġchart": 8679,
      "Ġgathering": 8680,
      "zil": 8681,
      "Ġborrow": 8682,
      "ensus": 8683,
      "Ġlimits": 8684,
      "ĠMedic": 8685,
      "Ġproteins": 8686,
      "Class": 8687,
      "check": 8688,
      "Ġnearby": 8689,
      "Tr": 8690,
      "Ġfert": 8691,
      "osc": 8692,
      "industry": 8693,
      "Ġarm": 8694,
      "study": 8695,
      "Ġcelebrate": 8696,
      "abul": 8697,
      "âĢ¢": 8698,
      "Ġgovernments": 8699,
      "Ġputting": 8700,
      "ĠPolice": 8701,
      "ws": 8702,
      "onto": 8703,
      "Ġcaught": 8704,
      "ema": 8705,
      "ĠPakistan": 8706,
      "ailed": 8707,
      "Ġoffensive": 8708,
      "Ġapproved": 8709,
      "Ġmarking": 8710,
      "Thanks": 8711,
      "Ġdangerous": 8712,
      "Ġhusband": 8713,
      "edy": 8714,
      "Ġ2000": 8715,
      "proper": 8716,
      "Ġwave": 8717,
      "oting": 8718,
      "ĠDNA": 8719,
      "Ġshifts": 8720,
      "Ġsharp": 8721,
      "acteria": 8722,
      "Ġoutstanding": 8723,
      "anger": 8724,
      "essays": 8725,
      "things": 8726,
      "Ġimproves": 8727,
      "Ġconstantly": 8728,
      "Ġworkshop": 8729,
      "piece": 8730,
      "Par": 8731,
      "dra": 8732,
      "iform": 8733,
      "ĠHAND": 8734,
      "Ġapple": 8735,
      "Ġkeyword": 8736,
      "Ġinfluenc": 8737,
      "ĠTeam": 8738,
      "Ġreligion": 8739,
      "Ġconcentr": 8740,
      "percent": 8741,
      "ĠLike": 8742,
      "due": 8743,
      "ĠSEE": 8744,
      "bas": 8745,
      "raq": 8746,
      "OUNT": 8747,
      "Ġcuisine": 8748,
      "mm": 8749,
      "pub": 8750,
      "turn": 8751,
      "raising": 8752,
      "irc": 8753,
      "ĠLED": 8754,
      "Ġpublishing": 8755,
      "Ġyounger": 8756,
      "performance": 8757,
      "Ġjewelry": 8758,
      "',": 8759,
      "Rec": 8760,
      "ANG": 8761,
      "Ġfaces": 8762,
      "ĠShow": 8763,
      "Ġ2007": 8764,
      "Ġshowcases": 8765,
      "Ġqualifications": 8766,
      "ĠJustice": 8767,
      "His": 8768,
      "td": 8769,
      "ĠRo": 8770,
      "Ġadvocacy": 8771,
      "Ġdurable": 8772,
      "Ġbarriers": 8773,
      "Ġconcrete": 8774,
      "Ġfacts": 8775,
      "Ġqualified": 8776,
      "Ġacknowledge": 8777,
      "ĠWhy": 8778,
      "size": 8779,
      "Ġhiring": 8780,
      "igher": 8781,
      "Ġotherwise": 8782,
      "ĠONLY": 8783,
      "Ġnarratives": 8784,
      "Ġnavigating": 8785,
      "Ġreputable": 8786,
      "Ġassignments": 8787,
      "burg": 8788,
      "Ġbonds": 8789,
      "country": 8790,
      "Ġepisode": 8791,
      "chain": 8792,
      "Ġwhom": 8793,
      "Ġcompounds": 8794,
      "Ġprime": 8795,
      "Ġspeakers": 8796,
      "Ġemotion": 8797,
      "Ġbrowse": 8798,
      "Ġreplacement": 8799,
      "ĠEVERY": 8800,
      "oa": 8801,
      "Ġreject": 8802,
      "Ġsufficient": 8803,
      "ĠEM": 8804,
      "Ġconscious": 8805,
      "Ġsupplies": 8806,
      "ĠBeach": 8807,
      "Ġbranding": 8808,
      "SC": 8809,
      "Ġinner": 8810,
      "ĠEqu": 8811,
      "annel": 8812,
      "Ġmagazine": 8813,
      "alg": 8814,
      "Ġbid": 8815,
      "ĠMa": 8816,
      "Ġgreatest": 8817,
      "Ġincorporated": 8818,
      "Ġwatching": 8819,
      "taken": 8820,
      "seen": 8821,
      "Ġplenty": 8822,
      "Ġscoring": 8823,
      "proved": 8824,
      "Ġpromising": 8825,
      "Ġimmigration": 8826,
      "ship": 8827,
      "table": 8828,
      "Ġton": 8829,
      "Ġtension": 8830,
      "Ġaer": 8831,
      "ĠSearch": 8832,
      "Ġupper": 8833,
      "ĠRest": 8834,
      "ĠVe": 8835,
      "Ġpreservation": 8836,
      "Ġextent": 8837,
      "Ġemployers": 8838,
      "ĠDevelop": 8839,
      "Ġbreakfast": 8840,
      "ĠUPON": 8841,
      "ĠStrateg": 8842,
      "88": 8843,
      "sure": 8844,
      "icon": 8845,
      "Ġmale": 8846,
      "oted": 8847,
      "ĠDOWN": 8848,
      "ĠExt": 8849,
      "Ġexamine": 8850,
      "Ġsecondary": 8851,
      "Next": 8852,
      "write": 8853,
      "Ġbench": 8854,
      "Ġlon": 8855,
      "Ġcareers": 8856,
      "ricket": 8857,
      "Ġallegations": 8858,
      "VED": 8859,
      "Ġbell": 8860,
      "Ġbags": 8861,
      "Ġlived": 8862,
      "ĠSqu": 8863,
      "Ġassum": 8864,
      "Ġdemonstrating": 8865,
      "Ġ45": 8866,
      "Ġsuffering": 8867,
      "itarian": 8868,
      "Ġremoved": 8869,
      "Ġcoaching": 8870,
      "ĠAny": 8871,
      "Ġcontainer": 8872,
      "ĠBas": 8873,
      "compl": 8874,
      "Ġvegan": 8875,
      "grad": 8876,
      "ĠTrust": 8877,
      "iders": 8878,
      "ĠSpe": 8879,
      "Ġsubmission": 8880,
      "Ġmainly": 8881,
      "2019": 8882,
      "Ġaddressed": 8883,
      "Ġroute": 8884,
      "Ġseamlessly": 8885,
      "Ġcinnamon": 8886,
      "Ġcompensation": 8887,
      "efficient": 8888,
      "employ": 8889,
      "ĠOLD": 8890,
      "Ġguitar": 8891,
      "Ġchildhood": 8892,
      "special": 8893,
      "discipl": 8894,
      "Ġsplit": 8895,
      "Sy": 8896,
      "rier": 8897,
      "ĠVer": 8898,
      "Ġvisible": 8899,
      "Ġdelves": 8900,
      "strong": 8901,
      "elihood": 8902,
      "een": 8903,
      "iary": 8904,
      "oli": 8905,
      "ĠSoft": 8906,
      "ĠPersonal": 8907,
      "Ġtestim": 8908,
      "Ġbroadcast": 8909,
      "Christ": 8910,
      "ĠUnderstanding": 8911,
      "Ġvictims": 8912,
      "Last": 8913,
      "oul": 8914,
      "Ġbatt": 8915,
      "ashed": 8916,
      "Ġlap": 8917,
      "ĠArmy": 8918,
      "ĠMcC": 8919,
      "ĠRegular": 8920,
      "itle": 8921,
      "Ġboot": 8922,
      "omatic": 8923,
      "iances": 8924,
      "Ġcurrency": 8925,
      "Ġshell": 8926,
      "Ġcoating": 8927,
      "Ġends": 8928,
      "Ġfarming": 8929,
      "Ġillustrate": 8930,
      "urric": 8931,
      "Ġoperates": 8932,
      "Ġenjoyed": 8933,
      "Ġratio": 8934,
      "hire": 8935,
      "Ġwra": 8936,
      "cho": 8937,
      "ĠITS": 8938,
      "ĠConf": 8939,
      "Ġsending": 8940,
      "Ġdebut": 8941,
      "leading": 8942,
      "Ġyogurt": 8943,
      "drop": 8944,
      "Ġdive": 8945,
      "Ġadvent": 8946,
      "ĠOFF": 8947,
      "Ġgrass": 8948,
      "Ġsoldiers": 8949,
      "audi": 8950,
      "iÃ³n": 8951,
      "omic": 8952,
      "Ġlens": 8953,
      "ĠMach": 8954,
      "ĠMAR": 8955,
      "Ġwinner": 8956,
      "Ġscenario": 8957,
      "Ġconsists": 8958,
      "Ġedition": 8959,
      "claim": 8960,
      "apore": 8961,
      "Ġgenerating": 8962,
      "Ġfosters": 8963,
      "2017": 8964,
      "Ġprovision": 8965,
      "Ġmeasurements": 8966,
      "Ġidentification": 8967,
      "ustrial": 8968,
      "buy": 8969,
      "mail": 8970,
      "va": 8971,
      "anes": 8972,
      "Ġnaturally": 8973,
      "Ġheating": 8974,
      "Ġroof": 8975,
      "INGS": 8976,
      "Ġdepression": 8977,
      "Ġcomplexities": 8978,
      "Ġfrequent": 8979,
      "Ġentirely": 8980,
      "impact": 8981,
      "roduct": 8982,
      "Ġhaven": 8983,
      "iest": 8984,
      "ĠNight": 8985,
      "within": 8986,
      "Ġmarks": 8987,
      "Ġaccepted": 8988,
      "Each": 8989,
      "lock": 8990,
      "uction": 8991,
      "Ġaug": 8992,
      "rock": 8993,
      "ĠRights": 8994,
      "Ġquiet": 8995,
      "Ġprofessor": 8996,
      "Ġelections": 8997,
      "Ġcooperation": 8998,
      "ĠSer": 8999,
      "Ġstone": 9000,
      "ĠEnd": 9001,
      "Ġapproval": 9002,
      "Ġpublications": 9003,
      "Ġhappens": 9004,
      "Ġwalls": 9005,
      "ĠJewish": 9006,
      "Abs": 9007,
      "racy": 9008,
      "ĠFIR": 9009,
      "Ġconstra": 9010,
      "Ġcorrectly": 9011,
      "Ġfixed": 9012,
      "Ġsight": 9013,
      "Ġrespective": 9014,
      "cholar": 9015,
      "Ġtackle": 9016,
      "must": 9017,
      "imental": 9018,
      "Ġprogramme": 9019,
      "letter": 9020,
      "Ġantib": 9021,
      "ĠAnalytics": 9022,
      "ĠSAY": 9023,
      "ĠLog": 9024,
      "ĠLinkedIn": 9025,
      "example": 9026,
      "Ġstaying": 9027,
      "Ġlandscap": 9028,
      "NE": 9029,
      "oking": 9030,
      "ĠRoyal": 9031,
      "roud": 9032,
      "gun": 9033,
      "Ġpour": 9034,
      "utical": 9035,
      "ĠWhether": 9036,
      "full": 9037,
      "Ġbridge": 9038,
      "ounced": 9039,
      "iginal": 9040,
      "Ġgrants": 9041,
      "Ġintegrate": 9042,
      "Ġattendees": 9043,
      "ĠVirginia": 9044,
      "yard": 9045,
      "Ġriver": 9046,
      "inet": 9047,
      "Ġseed": 9048,
      "iants": 9049,
      "Ġprevention": 9050,
      "science": 9051,
      "Ġdiabetes": 9052,
      "Ġlearners": 9053,
      "Art": 9054,
      "lower": 9055,
      "ĠFamily": 9056,
      "intage": 9057,
      "Ġtalks": 9058,
      "Ġreveal": 9059,
      "Ġtablespoons": 9060,
      ");": 9061,
      "Gr": 9062,
      "cr": 9063,
      "lers": 9064,
      "ĠMic": 9065,
      "Ġdeploy": 9066,
      "ribute": 9067,
      "IONS": 9068,
      "Every": 9069,
      "School": 9070,
      "Ġsolve": 9071,
      "rots": 9072,
      "ĠDou": 9073,
      "fram": 9074,
      "Ġtort": 9075,
      "Ġped": 9076,
      "store": 9077,
      "etime": 9078,
[...]
